<unk>	0
<s>	0
</s>	0
▁	-2.36768
ที่	-4.55847
▁และ	-5.03387
▁เธ	-5.2568
ของ	-5.29954
ได้	-5.33461
ฉัน	-5.40123
แล้ว	-5.46184
ว่า	-5.48707
เป็น	-5.51266
คุณ	-5.52481
▁ๆ	-5.6066
มา	-5.61131
ไป	-5.62732
▁ที่	-5.6519
และ	-5.65951
กับ	-5.67354
เรื่อง	-5.73362
▁แต่	-5.7428
การ	-5.78799
▁เน	-5.81248
นี้	-5.82415
ใน	-5.87557
ให้	-5.87866
ผม	-5.89113
▁2	-5.90364
ไม่	-5.90706
อยู่	-5.91399
เขา	-5.9296
เรา	-5.96551
▁ฉัน	-6.00715
นะ	-6.03071
เลย	-6.03533
ไม่ได้	-6.0954
มัน	-6.10424
ส	-6.10681
กัน	-6.164
มี	-6.18764
จาก	-6.19645
เ	-6.19865
เธอ	-6.19866
ด้วย	-6.21898
▁3	-6.24895
ๆ	-6.26388
▁แล้ว	-6.26566
นี่	-6.29202
▁ปี	-6.31285
นั้น	-6.35096
ความ	-6.35503
▁ไม่	-6.37727
▁คุณ	-6.38639
จะ	-6.41592
พวกเขา	-6.42892
▁คน	-6.43874
อย่าง	-6.43936
▁หรือ	-6.43992
▁000	-6.48363
นาย	-6.48621
▁1	-6.48973
ก็	-6.51161
▁ผม	-6.52501
แต่	-6.53165
อีก	-6.53413
ครับ	-6.53421
คน	-6.56692
มาก	-6.57954
▁ใน	-6.58848
ตัว	-6.61714
กําลัง	-6.62078
▁เพื่อ	-6.63881
อะไร	-6.66096
▁เพราะ	-6.66225
เหมือน	-6.67845
ทํา	-6.69211
ดี	-6.69835
▁กับ	-6.69928
▁5	-6.71821
หนึ่ง	-6.72605
ถึง	-6.73287
คือ	-6.73748
คิดว่า	-6.741
▁ของ	-6.75646
ม	-6.76086
ใช่	-6.76868
▁เรา	-6.77584
น	-6.79604
▁เป็น	-6.82233
ก่อน	-6.85987
แค่	-6.86407
▁20	-6.87292
ขึ้น	-6.87899
ทําให้	-6.88302
ต้อง	-6.89511
▁จาก	-6.9068
▁4	-6.91253
ลูก	-6.91536
▁มัน	-6.92206
ของเรา	-6.92296
ไว้	-6.93043
เมื่อ	-6.93446
บอกว่า	-6.9361
ตอนนี้	-6.94364
ดู	-6.94509
ต้องการ	-6.94571
▁มี	-6.94753
ถูก	-6.94759
▁เขา	-6.94975
ตัวเอง	-6.95044
ของคุณ	-6.95075
ด	-6.96893
นั่น	-6.9778
รู้ว่า	-6.99518
ก	-6.9998
ค	-7.0004
ไม่ใช่	-7.00863
สามารถ	-7.01606
เหรอ	-7.01997
▁นาที	-7.04316
ค่ะ	-7.04847
จริงๆ	-7.04925
▁10	-7.05522
ส์	-7.06018
ชีวิต	-7.06585
หรือ	-7.0703
ถ้า	-7.0712
▁ซึ่ง	-7.07761
▁ก็	-7.08559
เครื่อง	-7.08783
เน	-7.09014
โอเค	-7.09296
จริง	-7.09519
เงิน	-7.10836
ที่นี่	-7.11179
ต่อ	-7.11248
ทํางาน	-7.11716
ผู้	-7.11896
น่ะ	-7.12612
ที่สุด	-7.13343
สิ่งที่	-7.13385
▁30	-7.15101
รู้สึก	-7.15147
▁6	-7.1537
ใช้	-7.15445
เพื่อน	-7.15764
เพื่อ	-7.15918
▁จะ	-7.16206
ทาง	-7.1627
▁ถ้า	-7.17682
ของฉัน	-7.17885
แบบ	-7.19154
เวลา	-7.19549
▁ให้	-7.19841
ของเขา	-7.20349
แม่	-7.20369
ข้า	-7.21615
เอา	-7.21999
งาน	-7.23099
บ	-7.23445
ทั้ง	-7.23686
ทั้งหมด	-7.24253
ท	-7.26058
ตาย	-7.26117
อยู่ใน	-7.26121
▁เธอ	-7.26506
สิ	-7.26726
ตอน	-7.27914
หน้า	-7.28213
ใหม่	-7.28452
พวก	-7.28502
เข้า	-7.28735
เพราะ	-7.2951
พ่อ	-7.29783
▁การ	-7.30577
ทุกอย่าง	-7.31197
▁15	-7.31215
▁คือ	-7.31943
บ้าน	-7.31966
ช่วย	-7.3206
▁นาย	-7.32596
▁แล้วก็	-7.32723
▁นี่	-7.32998
▁ไป	-7.34175
เปลี่ยน	-7.34258
เด็ก	-7.34801
ไหม	-7.3499
▁เธญเธ	-7.35019
ผู้หญิง	-7.35592
เอง	-7.35664
▁12	-7.36526
เจ้า	-7.36943
ออก	-7.37067
ล่ะ	-7.37475
ชื่อ	-7.38309
ต	-7.38399
พูด	-7.38525
▁เมื่อ	-7.40131
ล	-7.40583
อายุ	-7.40651
เธ	-7.4086
บอก	-7.40951
น่า	-7.41333
สําหรับ	-7.41409
ปี	-7.43041
ทุกคน	-7.43197
ตาม	-7.4373
▁ว่า	-7.44911
ลง	-7.45363
เห็น	-7.46004
ท่าน	-7.4624
สร้าง	-7.47381
เกี่ยว	-7.48331
หรอก	-7.48702
▁7	-7.48743
▁เ	-7.49163
ที่จะ	-7.49599
กว่า	-7.49859
ใจ	-7.50021
ยัง	-7.50814
▁50	-7.50837
อ	-7.51278
ได้รับ	-7.51679
ตั้ง	-7.51698
ว	-7.51958
เข้าใจ	-7.52096
▁เธฒเธ	-7.52255
ไม่มี	-7.52372
ตา	-7.52496
ป	-7.52533
▁ชั่วโมง	-7.5313
สอง	-7.53511
แก	-7.53733
ครอบครัว	-7.54941
ส่ง	-7.55153
▁8	-7.55272
พยายาม	-7.55304
ง	-7.55491
ลา	-7.55585
แบบนี้	-7.56256
ครั้ง	-7.56281
▁มา	-7.56547
ตํารวจ	-7.57634
▁อย่าง	-7.58242
รู้จัก	-7.58309
เกิดขึ้น	-7.59525
▁วัน	-7.59537
หา	-7.59577
พอ	-7.59689
รู้	-7.60472
เดียว	-7.61055
ฟังนะ	-7.61367
ใหญ่	-7.61372
ใส่	-7.61667
กลับมา	-7.62006
เอ	-7.62212
▁ถึง	-7.62476
เล่น	-7.62489
น้ํา	-7.63334
นา	-7.63595
ของเธอ	-7.6383
ของผม	-7.63868
▁ไม่ใช่	-7.64068
กิน	-7.64219
ซ	-7.64503
▁ใช่	-7.64803
โลก	-7.65216
▁เรื่อง	-7.65258
วัน	-7.65527
ออกไป	-7.6617
ใคร	-7.662
รับ	-7.66573
▁เธฑเธ	-7.66691
รถ	-7.6729
โดย	-7.67591
สําคัญ	-7.67611
เหลือ	-7.67617
ทุก	-7.6768
คนที่	-7.67708
ยังไง	-7.6787
▁เหรียญ	-7.68152
ก็ได้	-7.68324
ทําอะไร	-7.68378
ขอ	-7.68438
คิด	-7.68511
จ	-7.69877
เสีย	-7.70786
แห่ง	-7.71477
หลัง	-7.71773
เสียง	-7.71925
▁ได้	-7.72156
ฆ่า	-7.72481
พ	-7.72561
น้อย	-7.72798
แน่	-7.73047
▁เธตเน	-7.73644
วันที่	-7.73951
เมือง	-7.74075
รัก	-7.74483
สุดท้าย	-7.74487
▁9	-7.76209
ช	-7.76693
เริ่ม	-7.76931
อาหาร	-7.77051
หัว	-7.77125
เปล่า	-7.77133
ผู้ชาย	-7.77372
▁ส	-7.77396
▁เหมือน	-7.78052
ออกมา	-7.78103
บิน	-7.78355
มั้ย	-7.78764
เรียน	-7.78859
โอ	-7.79171
▁ล้าน	-7.79601
วันนี้	-7.79741
ผิด	-7.8014
▁ความ	-7.80202
หน่อย	-7.80239
หนู	-7.80398
เจอ	-7.80606
▁40	-7.81415
มือ	-7.8145
ฟ	-7.8167
ย	-7.82
ประเทศ	-7.82038
งั้น	-7.82162
แบบนั้น	-7.82201
นัก	-7.8253
ฟัง	-7.82796
▁น	-7.83146
ไม่รู้	-7.83203
▁11	-7.8347
▁พวกเขา	-7.83745
พวกเรา	-7.85334
มากกว่า	-7.85597
▁สําหรับ	-7.85753
สาม	-7.8598
▁18	-7.86641
ห้อง	-7.86816
ละ	-7.8701
เซ็นต์	-7.87183
ศาสตร์	-7.88171
▁100	-7.88339
สุด	-7.88652
เลือก	-7.88685
ร	-7.89049
อัน	-7.89128
ให้คุณ	-7.89157
ข้อมูล	-7.89625
เป็นคน	-7.89711
เกิด	-7.89818
่	-7.90178
ซี	-7.904
ที	-7.91065
ระหว่าง	-7.91158
ยา	-7.91578
มนุษย์	-7.91984
หลังจาก	-7.92192
สูง	-7.92847
จัดการ	-7.92918
แมน	-7.93169
เรือ	-7.93681
เตอร์	-7.93776
เรียก	-7.9403
▁อย่า	-7.94456
ได้ยิน	-7.94655
ตั้งแต่	-7.95079
▁เราจะ	-7.95463
▁พ่อ	-7.95485
เราจะ	-7.9561
▁ครั้ง	-7.96027
▁ฉันจะ	-7.96371
ระเบิด	-7.96996
เปิด	-7.97047
สิ่ง	-7.97422
ประมาณ	-7.97424
พวกนั้น	-7.97659
หลาย	-7.97929
แต่งงาน	-7.98218
กลับ	-7.98243
ไม่เคย	-7.98377
อยู่ที่	-7.98461
▁ตอน	-7.99048
กลายเป็น	-7.99079
ทิ้ง	-7.99351
เดินทาง	-8.00195
หมายถึง	-8.00317
▁ม	-8.00349
ผ่านมา	-8.00458
ชั่วโมง	-8.00469
รอ	-8.0051
อยาก	-8.00683
ซื้อ	-8.00946
อยากให้	-8.00983
▁ที่จะ	-8.01084
เข้าไป	-8.01226
โดน	-8.01318
อา	-8.01629
ขึ้นมา	-8.01631
▁ไม่มี	-8.01808
▁ดอลลาร์	-8.02104
▁เดือน	-8.02113
จะเป็น	-8.02434
หนังสือ	-8.02595
จน	-8.02869
▁สอง	-8.02967
พร้อม	-8.031
ผ่าน	-8.03145
▁โดย	-8.03253
▁แม่	-8.03277
▁เธกเน	-8.03473
ไปแล้ว	-8.03862
ทหาร	-8.03863
▁เดี๋ยว	-8.03935
เข้ามา	-8.0422
พูดว่า	-8.04246
▁ผู้	-8.0453
แ	-8.04712
ใช้เวลา	-8.04944
เลี้ยง	-8.05036
เลือด	-8.0531
ร์	-8.05452
▁16	-8.05515
เพิ่ม	-8.05751
▁ด้วย	-8.05947
▁25	-8.06055
ที่คุณ	-8.0608
คนอื่น	-8.0612
รา	-8.06649
ชอบ	-8.06744
อื่น	-8.06844
▁นะ	-8.07027
เก็บ	-8.07209
สัก	-8.07781
ข่าว	-8.07843
ออกจาก	-8.07869
ส่วน	-8.0799
ก็คือ	-8.08042
สาย	-8.08326
▁เปอร์	-8.08975
บน	-8.09077
พา	-8.09197
▁24	-8.09411
ภาพ	-8.09417
▁ต้อง	-8.09489
▁โอเค	-8.0949
ไม่อยาก	-8.09553
คํา	-8.09739
ตัน	-8.09837
ดูเหมือน	-8.10038
จับ	-8.10045
▁14	-8.10083
▁พวก	-8.10206
อาทิตย์	-8.10236
ต่อไป	-8.10426
เดือน	-8.1053
ที่เรา	-8.10693
ไง	-8.11196
แรก	-8.11655
คดี	-8.11926
▁ถูก	-8.12003
ห	-8.12032
เบอร์	-8.12262
เดิน	-8.12868
ขาย	-8.13248
โรงเรียน	-8.13462
ปลอดภัย	-8.13476
คนเดียว	-8.13729
มอง	-8.14008
▁ทั้ง	-8.14225
เจ้าหน้า	-8.14247
เล็ก	-8.14578
บริษัท	-8.146
ตอนที่	-8.14849
ชั้น	-8.15
จะต้อง	-8.151
พระเจ้า	-8.15226
ไม่มีใคร	-8.15448
▁จน	-8.15513
มันเป็น	-8.15641
กลาง	-8.15673
ทีม	-8.15684
▁สาม	-8.16297
เชื่อ	-8.16424
ทําลาย	-8.16582
ที่นั่น	-8.16739
พี่	-8.1677
รู้ไหม	-8.17152
เล็กๆ	-8.17278
ติด	-8.17287
▁แต่ฉัน	-8.17334
กฎหมาย	-8.185
เพียง	-8.18589
อยู่กับ	-8.187
▁17	-8.18869
เขียน	-8.19287
▁500	-8.19384
รักษา	-8.19577
เอาล่ะ	-8.19598
ที่ฉัน	-8.19903
▁ทําให้	-8.19966
ซา	-8.19976
ความจริง	-8.20308
เถอะ	-8.20565
นํา	-8.20743
▁แค่	-8.20845
นอน	-8.20887
▁ข้า	-8.2092
ซะ	-8.20926
เดี๋ยว	-8.20947
กลับไป	-8.2124
▁ตอนนี้	-8.21576
▁นั่น	-8.21956
โอ้	-8.21976
▁13	-8.22071
บ้าง	-8.22486
คืน	-8.2265
ไหน	-8.22696
ยิง	-8.22699
ตําแหน่ง	-8.22716
ซิ	-8.2275
พวกนี้	-8.23132
ค่า	-8.23332
คง	-8.23413
ด้วยกัน	-8.23561
▁ตอนที่	-8.23577
้	-8.23577
▁19	-8.2387
ฉันจะ	-8.24072
กา	-8.24106
สัปดาห์	-8.24587
สัน	-8.24673
คา	-8.24681
พวกมัน	-8.2471
เซ	-8.24733
เกอร์	-8.24794
โต	-8.24847
หมด	-8.25087
ธ	-8.25111
เดียวกัน	-8.25152
▁หลังจาก	-8.25379
ตี	-8.25392
▁เพื่อน	-8.25537
เท่านั้น	-8.25568
ครึ่ง	-8.25597
ชาว	-8.25616
กลุ่ม	-8.25663
พบ	-8.25724
▁ในการ	-8.26279
สงคราม	-8.26285
ประวัติ	-8.26509
ตัดสินใจ	-8.26602
▁เอ่อ	-8.26805
อีกครั้ง	-8.27244
บางอย่าง	-8.27292
หยุด	-8.27371
ลี	-8.27439
พิเศษ	-8.2744
ซึ่ง	-8.27553
พวกคุณ	-8.27608
สัตว์	-8.28612
อี	-8.28637
ดีกว่า	-8.29017
แน่นอน	-8.29319
มีอะไร	-8.29538
ในการ	-8.30101
▁เอ	-8.30526
โร	-8.30606
หมอ	-8.30677
ริ	-8.30815
▁200	-8.30841
บ้า	-8.31225
อาจจะ	-8.31273
พูดถึง	-8.31367
รี	-8.3142
ถ้าคุณ	-8.31604
เชื่อว่า	-8.31611
ประธาน	-8.31862
ดาว	-8.3194
เหนือ	-8.32058
แรง	-8.32116
มาจาก	-8.32263
▁ปีก่อน	-8.32547
▁ไมล์	-8.32783
อาจ	-8.32876
ต์	-8.32969
หนัก	-8.32986
ฆาตกรรม	-8.33509
นั่ง	-8.3356
กําลังจะ	-8.33677
ลอง	-8.33834
สําเร็จ	-8.33968
▁ขอบคุณ	-8.33988
ท์	-8.34318
แค่ไหน	-8.34563
เหยื่อ	-8.34739
ใช่ไหม	-8.35034
ร้าน	-8.3505
ควบคุม	-8.35052
▁เธธเธ	-8.35118
บี	-8.35296
ตลอด	-8.35344
ระบบ	-8.35576
ต่าง	-8.35846
▁ท่าน	-8.35918
▁ทุกคน	-8.36183
เคย	-8.36261
โล	-8.36374
▁ระหว่าง	-8.36413
เร็ว	-8.36558
▁ลูก	-8.36623
ทําไม	-8.36702
สี่	-8.36717
ที่มี	-8.36757
อ่าน	-8.371
มีชีวิต	-8.37115
ไปได้	-8.37234
▁วินาที	-8.37582
ไอ้	-8.376
ยังไม่	-8.37666
ระดับ	-8.37765
พรุ่งนี้	-8.37805
เยี่ยม	-8.37908
อเมริกา	-8.37965
▁ทําไม	-8.38498
▁ขอ	-8.38626
ขอบคุณ	-8.38638
ภายใน	-8.38655
ดีๆ	-8.38677
กับฉัน	-8.38991
คนหนึ่ง	-8.39109
เป็นไร	-8.39379
เหตุผล	-8.39532
ข้อ	-8.39629
เพลง	-8.39896
เหรียญ	-8.39902
ห้า	-8.39975
▁60	-8.40034
▁เจ้า	-8.4018
นี	-8.40205
คนนี้	-8.40264
ให้ฉัน	-8.40277
▁ค	-8.40339
โด	-8.40371
มีความ	-8.40478
เกิน	-8.40633
ดื่ม	-8.40865
หน้าที่	-8.41115
จะได้	-8.41492
โก	-8.41514
มีคน	-8.41629
ชนะ	-8.41698
เฮ้	-8.42239
เม	-8.42309
สงสัย	-8.42487
▁ถ้าคุณ	-8.42714
สาว	-8.42915
รายงาน	-8.43203
▁ผมจะ	-8.43285
▁ดู	-8.43323
▁ฉันไม่	-8.43459
ยอมรับ	-8.43609
ลิ	-8.43635
ปัญหา	-8.43637
▁อีก	-8.44134
เค	-8.44332
ในปี	-8.44475
จุด	-8.44519
ที่ไหน	-8.44523
มีเวลา	-8.44587
ถาม	-8.44782
เร	-8.45078
โทรศัพท์	-8.45093
▁ตั้งแต่	-8.45111
▁อายุ	-8.45146
วา	-8.45246
จะทําให้	-8.45525
▁โอ	-8.4557
โน	-8.45633
ครั้งแรก	-8.45686
ความคิด	-8.45854
ราย	-8.45982
ความสุข	-8.46224
นึง	-8.46288
มาที่นี่	-8.46355
ไม่ต้อง	-8.46432
เนี่ย	-8.46665
โค	-8.46685
รอบ	-8.4674
ไฟ	-8.4683
ช่วง	-8.46927
คะ	-8.47008
ยาน	-8.47053
นี่คือ	-8.47249
ตรงนี้	-8.47501
คุยกับ	-8.47518
▁เดอะ	-8.47647
ราว	-8.47741
▁เวลา	-8.47741
เพิ่ง	-8.47786
โม	-8.47994
ฉันไม่	-8.48244
โ	-8.48444
▁เอา	-8.48501
บันทึก	-8.48586
การณ์	-8.49089
วง	-8.49367
กลับบ้าน	-8.49411
▁พอ	-8.49658
▁0	-8.5002
ของนาย	-8.50415
ดา	-8.5054
ต่างๆ	-8.50654
เล่า	-8.50659
สัมพันธ์	-8.51107
ผล	-8.51351
เด	-8.51626
เต็ม	-8.51779
ทําได้	-8.5189
▁อ	-8.52103
▁พ	-8.52354
จํานวน	-8.52389
ชาย	-8.52478
▁คนที่	-8.52514
เล	-8.52714
▁กําลัง	-8.52714
ดร	-8.52729
พื้นที่	-8.52837
ไปที่	-8.52912
ซ์	-8.53019
▁ส่วน	-8.53807
▁ดี	-8.53948
คําว่า	-8.53955
จําเป็น	-8.53975
อย่า	-8.54013
หัวใจ	-8.54176
ตัด	-8.543
▁ดร	-8.54402
มิ	-8.54422
จ่าย	-8.54488
กลัว	-8.54621
คืนนี้	-8.54669
ประตู	-8.54955
อย่างที่	-8.54977
เนื้อ	-8.55096
▁ฟุต	-8.5522
▁คุณจะ	-8.55227
เกือบ	-8.55238
เตรียม	-8.55514
อังกฤษ	-8.55583
มากมาย	-8.55601
ติ	-8.55701
▁สี่	-8.55752
▁ดังนั้น	-8.55919
▁เกี่ยว	-8.56101
▁ทํา	-8.56295
▁ฉันก็	-8.56385
▁หนึ่ง	-8.56454
ปืน	-8.56527
▁ต่อ	-8.56581
นาง	-8.56754
อยากจะ	-8.56785
จัด	-8.56874
ได้ไหม	-8.57031
วิ่ง	-8.57036
หน่วย	-8.57139
▁เธฒ	-8.57237
▁องศา	-8.57523
ล่า	-8.57779
ดังนั้น	-8.5778
แสดง	-8.58067
ธุรกิจ	-8.58094
คู่	-8.58357
จบ	-8.58553
สมอง	-8.58634
▁ฟังนะ	-8.5872
วี	-8.58782
เก่า	-8.58792
เดิม	-8.58802
ไอ	-8.5887
อันตราย	-8.5888
เซอร์	-8.58959
คุณจะ	-8.58968
เดอร์	-8.59171
หลักฐาน	-8.59187
เธฅเน	-8.59302
วิ	-8.59876
รึเปล่า	-8.59906
มาแล้ว	-8.59994
2	-8.60143
ปฏิบัติ	-8.6017
เพื่อให้	-8.6026
ว่าคุณ	-8.60453
ดูแล	-8.60523
นะคะ	-8.60633
ตก	-8.60711
เกินไป	-8.60713
แก่	-8.60837
ให้เธอ	-8.60971
กองทัพ	-8.61033
▁มันเป็น	-8.61053
▁และฉัน	-8.61149
▁เราต้อง	-8.61485
เรียกว่า	-8.61573
▁80	-8.62026
ร่างกาย	-8.62194
ดีที่สุด	-8.62287
▁21	-8.62427
ราคา	-8.62544
หนัง	-8.6277
ชุด	-8.62777
ขับ	-8.62854
โซ	-8.62924
สั่ง	-8.63346
พระ	-8.63469
อากาศ	-8.63537
ลงไป	-8.63579
ส่วนตัว	-8.63751
คนนั้น	-8.63773
เราต้อง	-8.63792
เลยนะ	-8.63927
บา	-8.63943
คุยกัน	-8.63984
ปกป้อง	-8.64041
ให้เขา	-8.64052
นิ	-8.64182
▁300	-8.64304
จํา	-8.6431
▁ตัว	-8.64337
อเมริกัน	-8.64454
กับคุณ	-8.64593
ปาก	-8.64691
เจ	-8.64956
ะ	-8.65006
นาน	-8.65198
ฉันก็	-8.65245
า	-8.65313
ให้เรา	-8.65475
รุนแรง	-8.65501
ร้อง	-8.65632
▁ไอ้	-8.65663
ติดต่อ	-8.66119
หนึ่งใน	-8.66326
หรือไม่	-8.66414
ก็ตาม	-8.66643
หัวหน้า	-8.6675
เรามี	-8.66854
นับ	-8.66922
เช่น	-8.66986
ลด	-8.67093
รวม	-8.67217
ประจํา	-8.67268
ทําร้าย	-8.6736
เด็กๆ	-8.6736
หมายความ	-8.67574
เวอร์	-8.67633
ทา	-8.67634
ดิ	-8.67795
แนะนํา	-8.67921
แล้วก็	-8.68034
ได้แล้ว	-8.68287
คุย	-8.6833
ซี่	-8.68334
ปกติ	-8.68411
ปล่อย	-8.68533
ด์	-8.68562
▁00	-8.68619
ที่ดี	-8.68675
อุ	-8.68678
ตรง	-8.68746
▁22	-8.68922
สวย	-8.68938
▁45	-8.69028
ประโยชน์	-8.69039
3	-8.6909
เอ่อ	-8.69256
▁ณ	-8.6926
ต่อสู้	-8.6946
1	-8.69562
▁แก	-8.69565
▁เธดเธ	-8.69645
สัญญาณ	-8.69832
แทน	-8.69916
ต้องทํา	-8.6998
อาวุธ	-8.70103
▁พร้อม	-8.70129
จะมี	-8.70546
▁เธงเน	-8.70567
▁23	-8.70639
นะครับ	-8.70649
ห์	-8.70712
วาง	-8.70895
ยิ่ง	-8.71018
อาร์	-8.71093
▁งั้น	-8.71397
น่าจะ	-8.71424
เสี่ยง	-8.71469
ปิด	-8.71516
▁แบบ	-8.71701
หนี	-8.71711
อื่นๆ	-8.71816
สนใจ	-8.71953
▁ก่อน	-8.72014
ใต้	-8.72025
เหล่า	-8.72127
สวัสดี	-8.72132
รัฐบาล	-8.72245
หวังว่า	-8.7231
สัญญา	-8.72338
ข้อความ	-8.72572
รูป	-8.72652
ร่วม	-8.72795
ประกัน	-8.72813
พัก	-8.72919
เส้น	-8.7314
ยิ่งใหญ่	-8.7316
ตอนนั้น	-8.73243
สี	-8.73457
รู้มั้ย	-8.73475
กอง	-8.73528
ผมจะ	-8.73579
เอาไว้	-8.7363
เร็วเข้า	-8.73707
รางวัล	-8.7373
▁ขวบ	-8.73853
▁เฮ้	-8.73926
ยุค	-8.7398
▁ยัง	-8.74087
คําถาม	-8.74205
เคราะห์	-8.74216
สมาชิก	-8.74252
ย้าย	-8.74411
ซู	-8.74447
ก็จะ	-8.74595
ลูกสาว	-8.74599
อํานาจ	-8.74736
ผ่าตัด	-8.74771
▁ก่อนที่	-8.74993
ผู้คน	-8.75004
พ่อแม่	-8.75044
เกลียด	-8.75077
เลิก	-8.75134
สอน	-8.7515
ไม่มีทาง	-8.75182
ร่าง	-8.75208
▁90	-8.75208
เหล่านี้	-8.75232
ศพ	-8.75247
ขาด	-8.75406
ยู	-8.75522
ที่รัก	-8.7557
ให้ผม	-8.75597
เอาละ	-8.75742
นิวยอร์ก	-8.7581
ที่ผม	-8.76025
ด้าน	-8.7613
ผมคิดว่า	-8.76178
ความเร็ว	-8.76191
เสร็จ	-8.76218
หก	-8.76248
รัฐ	-8.76376
แย่	-8.76447
▁เมตร	-8.76506
เสมอ	-8.76528
ลูกชาย	-8.76584
รงพยาบาล	-8.766
มาถึง	-8.76658
ฝ่าย	-8.76928
ตามหา	-8.76956
พวกเธอ	-8.77009
▁ที่รัก	-8.77041
แจ้ง	-8.77073
ศูนย์	-8.77209
ยาว	-8.77332
ที่เขา	-8.77402
ช่วงเวลา	-8.77434
แปลง	-8.77622
ชาติ	-8.77744
ได้เลย	-8.77866
จึง	-8.77892
▁ที่มี	-8.78113
โอกาส	-8.78188
มีปัญหา	-8.78198
▁ซี	-8.78631
เนอร์	-8.78751
ไม้	-8.7902
จี	-8.79034
คิดถึง	-8.79256
นั่นแหละ	-8.79302
ประกาศ	-8.79374
บังคับ	-8.79384
สิบ	-8.79418
ไร้	-8.79448
ในห้อง	-8.79709
อาการ	-8.79787
จอห์น	-8.79794
ศาล	-8.79819
เสียใจ	-8.79924
โกหก	-8.79931
ข้าม	-8.8028
ขา	-8.8033
โทร	-8.80385
▁เธงเธ	-8.80409
ที่จริง	-8.80508
อธิบาย	-8.80676
ชา	-8.80725
▁มันจะ	-8.80798
ใกล้	-8.80824
▁ปอนด์	-8.81022
คอ	-8.81067
ใด	-8.81283
ยืนยัน	-8.81334
หญิง	-8.81494
กระทั่ง	-8.81577
รู	-8.81602
▁อา	-8.81812
วิญญาณ	-8.82073
ใช่มั้ย	-8.82117
ตรวจสอบ	-8.82226
▁เธฃเธ	-8.82304
▁หนู	-8.82404
▁โอ้	-8.82555
ยาก	-8.82705
เห็นว่า	-8.82979
สนับสนุน	-8.83198
มั่นใจ	-8.83251
ตรวจ	-8.83281
▁บ	-8.83534
สองคน	-8.83545
ควร	-8.83602
เริ่มต้น	-8.83685
เกียรติ	-8.8372
เก	-8.83745
▁สิ่งที่	-8.83747
▁ใช่ไหม	-8.83755
คําสั่ง	-8.83838
ฉันรู้	-8.83885
หนุ่ม	-8.8394
มันจะ	-8.83961
าธิบดี	-8.84209
เดอะ	-8.84301
กระ	-8.84338
เท	-8.84345
ส่วนใหญ่	-8.84382
ธนาคาร	-8.84463
▁แต่ผม	-8.84519
ลืม	-8.84652
ถนน	-8.84732
▁70	-8.84848
เยอะ	-8.84854
น์	-8.8489
ิ	-8.84914
เช้า	-8.84934
อยู่แล้ว	-8.84942
มีโอกาส	-8.84949
เที่ยว	-8.85071
รายการ	-8.85113
ปา	-8.8527
เข้าไปใน	-8.85364
▁เธฒเน	-8.85439
โรงแรม	-8.85448
อะ	-8.85583
หมา	-8.85849
ม้า	-8.85927
กะ	-8.85957
รี่	-8.86256
เกม	-8.86427
กี้	-8.86518
พระองค์	-8.86709
น่ารัก	-8.86744
ฮา	-8.86817
ได้ยังไง	-8.86822
เป็นการ	-8.86872
▁พระเจ้า	-8.86939
ถูกต้อง	-8.86986
เคลื่อน	-8.86989
ไม่รู้สิ	-8.86993
ขนาด	-8.86995
ด้วยความ	-8.87056
หลัก	-8.87107
อย่างไร	-8.87441
เขต	-8.87522
ทางการ	-8.87615
ตัดสิน	-8.8764
▁อี	-8.87651
พิสูจน์	-8.87697
วิทยาลัย	-8.87697
ยอม	-8.87812
เพราะว่า	-8.87819
ลิน	-8.8792
พี	-8.87983
ได้ว่า	-8.88019
ยก	-8.88277
▁นี่คือ	-8.88342
มากขึ้น	-8.88368
หมายเลข	-8.88443
พลังงาน	-8.88776
▁บี	-8.88814
เนีย	-8.8903
▁โมง	-8.89215
เป็นผู้	-8.89452
วัย	-8.89626
▁เช่น	-8.89627
อารมณ์	-8.89717
▁ฉันรู้	-8.89771
เยอรมัน	-8.89824
โจ	-8.89871
มหา	-8.89898
นก	-8.90038
▁เข้าใจ	-8.90112
ไปถึง	-8.90134
ทรง	-8.90334
▁เธฑเน	-8.90469
▁ช่วย	-8.90495
คนไข้	-8.90576
มาก่อน	-8.90637
พิจารณา	-8.90768
กับการ	-8.90795
▁ชม	-8.90868
▁วอน	-8.90898
ป้องกัน	-8.90904
กระเป๋า	-8.90904
ที่อยู่	-8.90948
ผมรู้ว่า	-8.91178
กับผม	-8.91362
ประชุม	-8.91375
เบ	-8.91579
สถานที่	-8.91579
ได้มั้ย	-8.91601
ขโมย	-8.91652
ลีย์	-8.91692
ลู	-8.91695
ไปด้วย	-8.91773
มีการ	-8.91872
ครู	-8.91908
ปล่อยให้	-8.91925
อยากได้	-8.91931
พลัง	-8.9194
ต้องใช้	-8.91943
▁ห้า	-8.92029
เว	-8.92125
ขอโทษ	-8.92278
▁ตาม	-8.92338
ดัง	-8.92354
ข	-8.92362
▁เหรอ	-8.92401
หายไป	-8.92423
เย็น	-8.92552
ความผิด	-8.92624
ปาร์ตี้	-8.92685
ศ	-8.92847
เอาน่า	-8.9295
โบ	-8.92989
สุดๆ	-8.93017
เป้าหมาย	-8.93129
ไว	-8.93325
ใช้ชีวิต	-8.9337
บางครั้ง	-8.93773
เท่าไหร่	-8.93798
แลนด์	-8.93799
▁ปีแล้ว	-8.93863
แผน	-8.94016
เมีย	-8.94268
สังหาร	-8.94304
ประ	-8.9444
เต้น	-8.94459
ไม่เห็น	-8.94612
▁วันที่	-8.94693
เหตุ	-8.94741
ณ	-8.94938
▁เครื่อง	-8.95004
ขอให้	-8.95141
ที่เหลือ	-8.95307
อันดับ	-8.95363
เจอกัน	-8.95478
หตุการณ์	-8.95761
บางที	-8.95865
สู้	-8.95938
แปลก	-8.95944
อาศัย	-8.95973
ถ่าย	-8.96006
▁มากกว่า	-8.96131
▁หก	-8.96175
ใบ	-8.96447
▁เธฐ	-8.96586
ลม	-8.9676
เนื่อง	-8.96861
แสง	-8.97016
พวกเขาจะ	-8.97177
ดอลลาร์	-8.9741
เหล้า	-8.97626
ยืน	-8.97634
เส้นทาง	-8.97714
▁ผมก็	-8.97818
จดหมาย	-8.97916
ประหลาด	-8.98226
จะไม่	-8.98285
▁35	-8.98306
ในฐานะ	-8.98349
ตรงนั้น	-8.98414
ข้าง	-8.98419
ทุกๆ	-8.98478
บาร์	-8.98481
สนุก	-8.98542
ไม่ถึง	-8.9864
ถือ	-8.98667
ต้น	-8.98805
ดวง	-8.98822
พวกนาย	-8.98839
เสนอ	-8.98842
ที่แล้ว	-8.98958
ขน	-8.98977
กัปตัน	-8.99067
ทุกวัน	-8.99111
จากนั้น	-8.99137
ภารกิจ	-8.99254
ตะวันตก	-8.99259
จากการ	-8.9928
มากๆ	-8.99294
ไปหา	-8.99339
▁อะไร	-8.99422
▁ก	-8.99757
▁เธซเน	-8.99824
▁แห่ง	-8.99848
พิมพ์	-8.99877
นี่เป็น	-8.99885
แปลว่า	-8.99936
▁หลัง	-9.00094
กําหนด	-9.00099
▁บน	-9.00137
ผู้นํา	-9.0016
สิทธิ์	-9.0018
เกิดเหตุ	-9.00211
▁ผมไม่	-9.003
ให้ได้	-9.00442
▁ฉันอยาก	-9.00443
▁อาทิตย์	-9.00475
ป่า	-9.00556
กังวล	-9.00657
ตี้	-9.00671
หาย	-9.00869
โท	-9.00871
ความรัก	-9.00899
ในช่วง	-9.00909
สู่	-9.00924
โง่	-9.0097
กล้อง	-9.01127
อ๋อ	-9.01201
ฐาน	-9.01355
ข้างนอก	-9.01373
ถ้าเรา	-9.01384
ที่เธอ	-9.01494
ที่บ้าน	-9.01591
ด้วยซ้ํา	-9.01622
ขับรถ	-9.01643
เขาจะ	-9.01678
ตึก	-9.0179
ประชาชน	-9.01798
นักเรียน	-9.01819
วิทยา	-9.0182
ตะวันออก	-9.01964
บอกฉัน	-9.01993
ง่าย	-9.02025
เพื่อนๆ	-9.0204
ก้า	-9.02054
▁แต่ถ้า	-9.02077
พันธุ์	-9.0211
คอย	-9.02114
นอก	-9.02529
ดึง	-9.02553
▁อาจ	-9.02671
▁นัก	-9.0268
อะไรขึ้น	-9.0269
เอกสาร	-9.02713
ตั้งใจ	-9.02749
ทําตัว	-9.02823
เรียนรู้	-9.02839
เต	-9.02972
ได้เห็น	-9.03144
ดําเนิน	-9.03169
▁จริงๆ	-9.03187
าชญากรรม	-9.03204
ลับ	-9.03209
ครั้งนี้	-9.03288
กระทํา	-9.03293
สามี	-9.03365
ยอด	-9.03394
คนอื่นๆ	-9.03472
ไม่ยอม	-9.03626
เดียวกับ	-9.03869
ทันที	-9.03932
ของมัน	-9.0395
รุ่น	-9.04063
บาดเจ็บ	-9.04093
งั้นเหรอ	-9.04104
ร้าย	-9.04224
▁แต่ว่า	-9.0433
ปฏิเสธ	-9.04348
ภรรยา	-9.04482
รัสเซีย	-9.04724
จีน	-9.04863
สมบูรณ์	-9.0487
ข้างหน้า	-9.04886
นัด	-9.04971
▁แ	-9.05031
▁ชื่อ	-9.05047
▁เธกเธ	-9.05116
ผ่านไป	-9.05149
▁ลา	-9.05265
วันเกิด	-9.05359
ย์	-9.05372
ฉันอยาก	-9.05468
ชัดเจน	-9.05532
อยู่บน	-9.05547
ปลา	-9.05608
ประสบ	-9.05782
ห้าม	-9.0592
เตือน	-9.05959
5	-9.06219
อ้อ	-9.06235
ถานการณ์	-9.06247
กิ	-9.06271
ชน	-9.0631
ไม่ค่อย	-9.06374
▁ช	-9.06736
▁ได้โปรด	-9.06879
▁เขาจะ	-9.06907
เจ็บปวด	-9.06924
ตอบ	-9.06931
เจ้าของ	-9.06995
ยึด	-9.07018
ไม่กี่	-9.07218
ยังมี	-9.07287
ยินดี	-9.074
กิโลเมตร	-9.07416
ระ	-9.07437
▁อาจจะ	-9.07483
เก่ง	-9.07591
แยก	-9.07631
จะทํา	-9.07661
แน่ใจว่า	-9.07793
▁เธซเธ	-9.07921
▁ใคร	-9.08006
กระสุน	-9.08042
สํานัก	-9.08065
ตกลง	-9.08077
ลี่	-9.08239
นิดหน่อย	-9.08276
ฯ	-9.08281
ทอง	-9.08382
▁จะได้	-9.08387
ท้อง	-9.08473
วางแผน	-9.08515
ในชีวิต	-9.08635
ี	-9.08727
โทษ	-9.08801
จิต	-9.08873
แอบ	-9.08897
ขี้	-9.08955
ในอีก	-9.09049
ชม	-9.0911
4	-9.09146
แดง	-9.09239
คาร์	-9.09314
เปอร์	-9.09346
ช่าง	-9.09357
ต้อนรับ	-9.09393
▁ร	-9.09573
กี	-9.09613
▁เด	-9.09716
วิน	-9.09784
▁จากนั้น	-9.09795
สภาพ	-9.09822
จะช่วย	-9.1018
กับเขา	-9.10252
ร่า	-9.10267
ไปเลย	-9.10298
▁เราก็	-9.10301
คนนึง	-9.10371
กระดูก	-9.1049
เลยว่า	-9.10493
โทรหา	-9.10571
▁ภายใน	-9.10646
เสื้อผ้า	-9.10671
เป็นแค่	-9.10691
ฉันต้อง	-9.10753
▁เธญเน	-9.1077
เธกเธฑเธ	-9.10799
แพทย์	-9.10837
เค้า	-9.10898
เมื่อคืน	-9.10959
ว่าเธอ	-9.11001
ไปยัง	-9.11073
▁ทุก	-9.11298
ไม่ว่าจะ	-9.11333
▁400	-9.11333
▁27	-9.11346
ว่ามัน	-9.11369
เจ็ด	-9.11572
ลูกๆ	-9.11582
▁โดยไม่	-9.11807
โรค	-9.12009
▁เด็ก	-9.12009
อิน	-9.12036
จ้าง	-9.12218
บัตร	-9.12229
▁ปีที่	-9.12269
จําได้	-9.1228
ช่อง	-9.12292
บาง	-9.1242
กับเธอ	-9.12471
▁เธฐเธ	-9.12697
คอมพิว	-9.12829
▁แต่มัน	-9.12869
สืบสวน	-9.13005
อิ	-9.13196
ที่เป็น	-9.13285
▁มันก็	-9.13431
ลบ	-9.13447
วิธี	-9.13585
แน่ๆ	-9.13662
ขึ้นไป	-9.13687
ทั้งคู่	-9.13691
6	-9.13755
ตลก	-9.13757
หายใจ	-9.13843
สูงสุด	-9.13995
แม้แต่	-9.14037
▁บางที	-9.14075
ก่อนหน้า	-9.14078
ทุกครั้ง	-9.14147
▁ไม่ว่า	-9.1415
ว่าเขา	-9.14204
▁จนกว่า	-9.14311
เกาะ	-9.14366
ทั่ว	-9.14418
ฉลาด	-9.14423
ท่า	-9.14443
แข่งขัน	-9.1445
▁ไอ	-9.14458
หู	-9.14515
ความลับ	-9.14528
อัล	-9.14533
ไล่	-9.14618
▁ถ้าเรา	-9.14725
รอง	-9.14757
ทะเล	-9.14772
▁28	-9.14791
▁ป	-9.14821
หาก	-9.14866
ถูกจับ	-9.14946
โฮ	-9.1496
ล์	-9.1499
ละเอียด	-9.15051
ฝรั่งเศส	-9.15051
ร้อน	-9.15145
ถ	-9.15188
ชิ้น	-9.15195
ให้นาย	-9.15197
พัน	-9.15231
แล้วนะ	-9.15333
แพ้	-9.15411
มาตลอด	-9.15508
▁นอกจาก	-9.15542
เราได้	-9.15544
ประกอบ	-9.15571
▁ฉันต้อง	-9.15655
▁แต่เรา	-9.15698
หายตัวไป	-9.15749
โชว์	-9.15917
มื่อไหร่	-9.1596
ยุติธรรม	-9.16094
แปด	-9.16166
แต่ง	-9.162
สถานี	-9.16238
เท่า	-9.1627
▁คุณต้อง	-9.16341
เสียหาย	-9.16508
๊	-9.1657
ของข้า	-9.16626
ฝึก	-9.16628
ทั้งนั้น	-9.16637
รอย	-9.16652
ดี้	-9.16706
โกรธ	-9.16788
แหละ	-9.16791
นั่นคือ	-9.16903
เขาเป็น	-9.16967
รองเท้า	-9.17157
โทรมา	-9.17229
อีกอย่าง	-9.17236
แฟน	-9.17268
ชั่ว	-9.17342
ยาม	-9.17344
ลึก	-9.17463
▁พวกเรา	-9.17467
ดัน	-9.17519
ครั้งที่	-9.17602
พื้น	-9.17802
อดีต	-9.17832
เอส	-9.18058
สูญเสีย	-9.18061
ไม่มีวัน	-9.18078
สาร	-9.18155
เลอร์	-9.18208
จักรวาล	-9.18213
รึ	-9.18228
ทีนี้	-9.18293
▁จอห์น	-9.18317
ยังคง	-9.18346
ธรรมชาติ	-9.18376
▁ในฐานะ	-9.18392
▁คง	-9.18402
ว่าทําไม	-9.18433
็	-9.18439
เซ็น	-9.18628
แตก	-9.18648
▁เท่า	-9.18684
คุณต้อง	-9.19042
▁ที่คุณ	-9.19096
ลําบาก	-9.19108
จู	-9.1911
หล่อน	-9.19161
ุ	-9.1918
บัญชี	-9.1942
ศัตรู	-9.19469
โจมตี	-9.19587
▁สัปดาห์	-9.19649
ซัก	-9.19723
สมัย	-9.19746
ทน	-9.2005
แทนที่จะ	-9.20076
ไม่ชอบ	-9.20151
ฟรี	-9.20167
▁26	-9.20202
ประสาท	-9.20204
ให้กับ	-9.20222
▁หยุด	-9.20226
ไฟฟ้า	-9.2026
เมา	-9.20338
เดน	-9.20339
พนักงาน	-9.20365
บท	-9.20598
สม	-9.20602
เท่าที่	-9.20606
เป็นเวลา	-9.20736
บริหาร	-9.20742
ถ้าฉัน	-9.20743
รอด	-9.20759
สน	-9.20781
▁48	-9.20801
หัก	-9.20911
กฎ	-9.21106
จิ	-9.21194
กล้า	-9.21357
▁า	-9.21385
ที่ไม่	-9.21462
ดํา	-9.21462
อนาคต	-9.21544
▁เจ็ด	-9.21579
เราก็	-9.21624
สังคม	-9.21673
ต้า	-9.21695
ไม่ควร	-9.21795
น้ํามัน	-9.21798
▁ที่เรา	-9.21833
กู	-9.21845
▁เขาก็	-9.21881
▁เดอ	-9.21884
ตื่นเต้น	-9.22086
พบว่า	-9.22118
เย	-9.22328
เอ็ม	-9.2235
▁ขณะที่	-9.22513
ฝัน	-9.22594
เป็นใคร	-9.22628
มันก็	-9.22688
แตกต่าง	-9.22851
ทรมาน	-9.22962
ล่าสุด	-9.23034
ลูกค้า	-9.23085
โต๊ะ	-9.23105
ทั้งสอง	-9.23121
ญี่ปุ่น	-9.23149
ดิน	-9.23168
โดยเฉพาะ	-9.23171
ฟอร์ด	-9.23419
สังเกต	-9.23515
ติดตาม	-9.23555
ต่างหาก	-9.23571
ซาน	-9.23665
▁เรามี	-9.23709
นม	-9.23736
▁ด้วยการ	-9.23756
ของท่าน	-9.23787
ฝั่ง	-9.24048
มอบ	-9.24176
เดียวที่	-9.24261
ความเป็น	-9.24278
พี่น้อง	-9.24292
แท	-9.24358
เขาก็	-9.24457
ทิ	-9.24481
ต่อต้าน	-9.24497
โก้	-9.24542
▁ใช่มั้ย	-9.24555
นั่นเป็น	-9.24559
ครบ	-9.24566
▁แต่คุณ	-9.24703
ไร	-9.2475
▁นั่นคือ	-9.24766
ขั้น	-9.24808
อุปกรณ์	-9.25041
สหรัฐฯ	-9.25118
คัน	-9.25155
ค้นหา	-9.2521
ก็ต้อง	-9.25299
เจ็บ	-9.25405
มาร์	-9.25415
ญ	-9.2562
บางคน	-9.2567
นักโทษ	-9.25766
▁ผมอยาก	-9.25837
อวกาศ	-9.25848
ฉ	-9.26009
▁ไม่งั้น	-9.26022
อัยการ	-9.26046
เพราะฉัน	-9.26108
เบล	-9.26156
จะมา	-9.26176
คําพูด	-9.26234
ถูกฆ่า	-9.2624
พูดอะไร	-9.26276
หลายคน	-9.26348
เงียบ	-9.26385
ไ	-9.26496
เป	-9.26552
พร้อมกับ	-9.26654
ทั้งหลาย	-9.26718
แหล่ง	-9.26788
▁แปด	-9.26806
อนุญาต	-9.26896
หรอกนะ	-9.26948
คลื่น	-9.26984
ความหมาย	-9.2702
จง	-9.27117
ในที่สุด	-9.27258
▁แต่ก็	-9.27277
ที่สอง	-9.27287
ไกล	-9.27354
ริสุทธิ์	-9.2736
จะไป	-9.27362
ภาค	-9.27573
จะถูก	-9.27597
▁น่าจะ	-9.27616
ทําการ	-9.27663
ในเมือง	-9.27666
ว่าฉัน	-9.27669
อีกแล้ว	-9.2767
▁ไม่ต้อง	-9.27705
มีลูก	-9.27734
จอง	-9.27776
ว์	-9.27889
▁32	-9.27917
กําจัด	-9.27979
พัง	-9.28091
ลักพาตัว	-9.28146
กว้าง	-9.28161
ก็มี	-9.28162
ร้อย	-9.28212
กล่าวหา	-9.28219
ชิ	-9.28321
ไล	-9.28363
ลํา	-9.28472
สาวๆ	-9.28662
์	-9.28726
▁หาก	-9.28735
▁เธฃ	-9.28802
รีบ	-9.28872
ร่วมงาน	-9.28906
พิ	-9.29042
อย่างนี้	-9.29042
เมื่อวาน	-9.29084
ไข่	-9.29124
ต้องไป	-9.29124
ฉะนั้น	-9.29215
บัญชาการ	-9.29234
จัง	-9.29252
จะเริ่ม	-9.29293
ไก่	-9.29345
ตื่น	-9.29381
ดีขึ้น	-9.29448
เท้า	-9.29461
อีกคน	-9.29475
ทนาย	-9.29509
แผนก	-9.29557
ลุง	-9.29595
ก่อ	-9.29602
เปิดเผย	-9.29766
ผ้า	-9.29829
นอกจาก	-9.29837
▁เธง	-9.29857
เลีย	-9.29953
เนี่ยนะ	-9.30057
ว่าจะ	-9.30084
เรื่อยๆ	-9.30352
▁แต่เขา	-9.30432
บิ	-9.30476
โยน	-9.30576
ั	-9.30583
เลวร้าย	-9.30756
ซ่า	-9.30798
ฟัน	-9.31009
▁ห้อง	-9.31034
มีเรื่อง	-9.31054
เร็วๆ	-9.3107
เช็ค	-9.31143
ก้น	-9.31231
พัฒนา	-9.31262
ตัวอย่าง	-9.31412
มีเงิน	-9.31497
สุดยอด	-9.31515
▁วันนี้	-9.31517
มิน	-9.31554
ผมก็	-9.3166
สวน	-9.3173
เชิญ	-9.31841
ลอย	-9.31843
ฉันว่า	-9.31869
รอน	-9.32031
▁และการ	-9.32041
ฉันได้	-9.32095
▁และก็	-9.32135
▁แถม	-9.32182
ไมเคิล	-9.32202
แบ่ง	-9.32393
อยู่ไหน	-9.324
▁29	-9.32541
ปรึกษา	-9.32577
เข้าร่วม	-9.32583
▁พี่	-9.32611
ผู้ต้อง	-9.32614
▁อัล	-9.32632
กับเรา	-9.32675
เออ	-9.32713
▁อาร์	-9.32896
▁พา	-9.32937
▁มีคน	-9.33076
ป่วย	-9.33076
ก็เป็น	-9.33111
ก็เหมือน	-9.33169
ต่ํา	-9.33201
▁อัน	-9.33207
ข้อหา	-9.33569
ตัวแทน	-9.33573
แต่ถ้า	-9.3359
ฉุกเฉิน	-9.33612
หิน	-9.33615
เลน	-9.33669
เธอจะ	-9.33845
แปลกๆ	-9.33971
ประเด็น	-9.3404
วินาที	-9.34082
แก้ว	-9.34203
ร่วมมือ	-9.3425
▁เจ	-9.34267
เดล	-9.34337
ต่อมา	-9.34372
ด้า	-9.34436
ในขณะที่	-9.34473
ชวน	-9.34501
ผิดพลาด	-9.3466
▁เริ่ม	-9.3468
ออ	-9.34774
จะตาย	-9.34786
ซึ่งเป็น	-9.34912
โย	-9.3492
โครงการ	-9.35086
บู	-9.35091
▁ราย	-9.35131
หวัง	-9.35177
แสน	-9.35185
ระยะ	-9.35202
คุม	-9.35215
เมอร์	-9.35221
▁เค	-9.35309
▁ทั้งหมด	-9.35309
▁กว่า	-9.35462
ฮ	-9.35469
บัติเหตุ	-9.35501
พี่ชาย	-9.35511
อยู่ห่าง	-9.35591
▁ถนน	-9.35756
แข่ง	-9.35796
▁วิ	-9.3597
น้ําหนัก	-9.36042
▁โอเคไหม	-9.36104
▁ชั้น	-9.36139
พอดี	-9.36139
เจ๋ง	-9.36323
ของเจ้า	-9.36352
ไม่ให้	-9.36437
พลาด	-9.3646
▁ใช้	-9.3648
ก็ยัง	-9.36559
้น	-9.36614
▁ถ้าฉัน	-9.36644
ไม่นาน	-9.36652
นาที	-9.36654
▁นี่มัน	-9.36733
ทําตาม	-9.36753
รถไฟ	-9.36783
งี่เง่า	-9.36999
บุก	-9.37018
แนว	-9.37021
ปรับ	-9.37041
ล่ะก็	-9.37042
ทรงจํา	-9.37103
แข็ง	-9.37125
น้อง	-9.37139
แขน	-9.37146
ปีศาจ	-9.37214
วิดีโอ	-9.37214
ผมไม่	-9.37368
ผมอยาก	-9.37488
ไซ	-9.3754
วน	-9.37565
เก้า	-9.3762
พิพากษา	-9.37647
ในวันที่	-9.37718
นิ้ว	-9.3778
เชื้อ	-9.37816
▁โจ	-9.38014
ใดๆ	-9.38085
▁ก็คือ	-9.38091
▁มันไม่	-9.38363
▁จากการ	-9.38441
ว่าเรา	-9.38472
เข้าสู่	-9.38487
โชคดี	-9.3861
ตลอดเวลา	-9.38762
▁รวมถึง	-9.3883
▁เธฐเน	-9.38854
ลิง	-9.38886
ล้าง	-9.38913
มานาน	-9.38939
สินค้า	-9.38941
เจอร์	-9.39091
▁ในช่วง	-9.39157
อุณหภูมิ	-9.39175
ก้าว	-9.392
ควรจะ	-9.39361
ง่ายๆ	-9.3956
ฉันมี	-9.39582
▁ประมาณ	-9.39854
ที่ถูก	-9.39911
เคารพ	-9.3996
▁สวัสดี	-9.39968
▁150	-9.40052
อาจเป็น	-9.40169
ความตาย	-9.40181
เสื้อ	-9.40187
ไหว	-9.40209
ปล้น	-9.40211
รียบร้อย	-9.40279
จิน	-9.4028
▁บอก	-9.4029
เซน	-9.4041
ตายแล้ว	-9.40459
▁และเรา	-9.4049
เพ	-9.40546
แท้จริง	-9.40642
เศร้า	-9.40742
ธรรมดา	-9.40756
ก็แค่	-9.40836
▁ทาง	-9.41089
ของขวัญ	-9.41218
ป้า	-9.41241
▁ที	-9.41289
มันคือ	-9.41298
พยาน	-9.41403
ผมไม่รู้	-9.41452
อะไรเลย	-9.41456
เหมาะสม	-9.41528
ได	-9.41563
คุณไม่	-9.4157
▁ทุ่ม	-9.41631
ลงมา	-9.41781
สหรัฐ	-9.41795
สนาม	-9.41872
กด	-9.4189
ศตวรรษ	-9.41899
▁คุณก็	-9.41975
จับกุม	-9.42002
อก	-9.42016
ที่นาย	-9.42038
กล่อง	-9.42116
ญาติ	-9.42145
คี	-9.42188
▁จนท	-9.42213
▁ห้าม	-9.42215
▁คาร์	-9.42242
หมู	-9.42293
เล็กน้อย	-9.42375
▁ออฟ	-9.42383
ฉลอง	-9.42418
ตระกูล	-9.42531
▁เขาเป็น	-9.42535
สื่อ	-9.42571
บี้	-9.42588
สักอย่าง	-9.42614
บอล	-9.42812
ฆาตกร	-9.42837
ทุกท่าน	-9.42909
ฟา	-9.4293
รายชื่อ	-9.42935
การแสดง	-9.42981
เรน	-9.42998
ซูเปอร์	-9.4303
ล้าน	-9.43149
เจมส์	-9.43176
ปัจจุบัน	-9.43216
เอฟบีไอ	-9.4322
การศึกษา	-9.43266
การร้าย	-9.4327
อ่อน	-9.4332
▁และความ	-9.4332
ชิง	-9.4333
ไม่ดี	-9.43348
เลข	-9.43504
คุณก็	-9.4365
หลาน	-9.43674
คอน	-9.43717
ให้ตายสิ	-9.43764
สะอาด	-9.43778
ตะ	-9.43888
จ้ะ	-9.43906
ปกครอง	-9.43907
ผมไม่ได้	-9.43982
คนใหม่	-9.44005
ฮี	-9.44118
โรง	-9.44123
จิตใจ	-9.44291
▁โค	-9.44327
แม่น้ํา	-9.44395
▁สิ่ง	-9.44449
▁เธอจะ	-9.44464
ช้า	-9.44464
ไฮ	-9.44501
หลอก	-9.44575
นักสืบ	-9.44615
หลายปี	-9.44625
แลน	-9.44665
มาให้	-9.44724
เคยเป็น	-9.44749
สัมผัส	-9.44833
เมน	-9.44842
ก็ไม่	-9.44881
เป็นเด็ก	-9.44896
เช	-9.44997
ท้าย	-9.45022
ไม	-9.45101
องค์	-9.4512
ฐ	-9.4514
▁เร็ว	-9.45245
วิล	-9.45518
คิว	-9.45526
จําเลย	-9.45539
คงจะ	-9.45576
เวน	-9.45599
ในโลก	-9.45608
▁มันคือ	-9.45704
สียชีวิต	-9.45802
วัด	-9.45919
ซ้าย	-9.45949
ขนาดนี้	-9.45984
สเตอร์	-9.45997
ยักษ์	-9.46004
เร่ง	-9.46035
▁นี่เป็น	-9.46095
แก้ไข	-9.46105
▁ที่ฉัน	-9.46117
▁นาฬิกา	-9.46202
นายพล	-9.46226
ทั่วโลก	-9.46422
ช่วยให้	-9.46513
นิ่ง	-9.46567
ลาก	-9.46918
กาย	-9.46927
ติดคุก	-9.46979
โรเบิร์ต	-9.46982
โว	-9.46985
คุก	-9.47122
ผี	-9.47189
รหัส	-9.472
▁รอ	-9.47212
ผมต้อง	-9.47214
ย่า	-9.47232
แอน	-9.47334
▁ให้กับ	-9.47365
คําตอบ	-9.47388
▁36	-9.47439
จนท	-9.47457
น้ําแข็ง	-9.4746
เซล	-9.47618
กรรม	-9.47772
เราไม่	-9.47775
เจน	-9.47814
▁เบ	-9.47816
▁75	-9.47855
แก๊ง	-9.47937
เธฃเธนเน	-9.47958
ของการ	-9.48
จอร์จ	-9.48076
▁หมื่น	-9.48091
ฝูง	-9.48093
คนร้าย	-9.48103
เอ็น	-9.48112
เลื่อน	-9.48147
เติบโต	-9.48147
จํากัด	-9.48168
เบน	-9.48405
ทราบ	-9.48418
ที่ว่า	-9.48537
แอล	-9.48558
ต้องมี	-9.48579
▁หา	-9.48586
▁เข้า	-9.48708
เธฅเธฑเธ	-9.48735
สํารวจ	-9.48871
กษัตริย์	-9.48871
ฉันเป็น	-9.48956
นึกว่า	-9.48993
พยาบาล	-9.49016
ค่อย	-9.49198
ดอน	-9.49242
เทอร์	-9.49318
ทัพ	-9.4937
▁อยู่ใน	-9.49482
รับรอง	-9.49499
ขาว	-9.49513
อาชีพ	-9.49582
เตียง	-9.49588
ยังอยู่	-9.49774
ทาน	-9.49874
หลับ	-9.49891
ช์	-9.49967
▁ลี	-9.50054
สืบ	-9.50056
สัมภาษณ์	-9.50091
ผสม	-9.5012
มัก	-9.50128
▁ขอโทษ	-9.50142
อยากรู้	-9.50197
▁แน่นอน	-9.50282
▁เปลี่ยน	-9.50355
▁และผม	-9.50361
แลก	-9.50426
ไปอีก	-9.50434
อยู่นี่	-9.50518
▁พูด	-9.50654
▁ว	-9.50725
นต์	-9.50734
ผลิต	-9.50815
สมบัติ	-9.5083
เคยเห็น	-9.50836
บริการ	-9.5084
ภัย	-9.50886
ใต้ดิน	-9.5093
การ์ด	-9.50951
โง่ๆ	-9.50969
▁31	-9.51113
มุม	-9.51166
จา	-9.51227
พูดถูก	-9.51266
บังเอิญ	-9.51325
ข้อตกลง	-9.51334
▁และมี	-9.51353
มือถือ	-9.51369
แม้	-9.51464
เบิร์ก	-9.51498
เอาแต่	-9.51515
เชอร์	-9.51555
คะแนน	-9.51589
แกน	-9.51623
แจ	-9.51644
เราทํา	-9.51659
▁โอเคนะ	-9.51693
กว่านี้	-9.51701
ริสต์มาส	-9.51702
ซ่อน	-9.51713
▁งาน	-9.51718
ฟ้า	-9.51735
▁ฉันว่า	-9.51758
รูปแบบ	-9.5177
การเมือง	-9.51798
▁เม	-9.51867
เราทุกคน	-9.51877
ยื่น	-9.51914
▁มิ	-9.5194
เที่ยง	-9.51964
พยายามจะ	-9.52229
▁คา	-9.5228
แบบว่า	-9.52314
บุคคล	-9.52376
แผ่น	-9.52488
ริค	-9.52513
ดูสิ	-9.52538
ในบ้าน	-9.52555
จะเอา	-9.52715
กุญแจ	-9.52787
บ้าๆ	-9.52804
กล้าหาญ	-9.52828
ผมรู้	-9.52836
▁ผู้หญิง	-9.52852
ที่น่า	-9.52857
แท้	-9.52862
▁ฉันเลย	-9.5288
ขัด	-9.53035
▁600	-9.53036
กระจาย	-9.5308
ร้องไห้	-9.5308
แผ่นดิน	-9.53093
หมุน	-9.53098
เท่ากับ	-9.53104
บอกให้	-9.5311
เธฒเธขเธ	-9.53162
ไปทั่ว	-9.53208
เขาได้	-9.53208
เต็มที่	-9.53272
ขเธนเน	-9.53326
เคน	-9.53331
▁ส่ง	-9.53451
ปีก่อน	-9.53505
▁ก็จะ	-9.53582
น่ากลัว	-9.53614
โปรด	-9.53642
แซม	-9.53702
เธทเน	-9.53718
หลง	-9.53734
▁นิ้ว	-9.53789
ตู้	-9.53837
แมว	-9.53914
▁หรือไม่	-9.53973
10	-9.54067
▁เธญ	-9.5408
อาณาจักร	-9.54096
ค่อนข้าง	-9.54098
ด้วยนะ	-9.54102
เบียร์	-9.54107
ลิเวอร์	-9.54148
ไปจาก	-9.5421
จนถึง	-9.54224
ึ	-9.54284
▁99	-9.54291
วอชิงตัน	-9.54352
เธกเธฒเธ	-9.54405
๋	-9.54471
เหล็ก	-9.54473
สั่งให้	-9.54527
เอาไป	-9.54528
ฝัง	-9.54574
่า	-9.54729
▁เซ	-9.54815
สาเหตุ	-9.54886
กันเถอะ	-9.54973
ยกเลิก	-9.5498
แขก	-9.55016
อาจารย์	-9.55016
แห่งนี้	-9.55125
ขณะที่	-9.55237
ป้าย	-9.55267
ร้องเพลง	-9.553
สุ	-9.55352
อิสระ	-9.55408
กล่าว	-9.5554
องค์กร	-9.5559
ว่าไง	-9.55652
▁เธฃเน	-9.55788
สวม	-9.55815
แดน	-9.55887
มืด	-9.55966
▁ตลอด	-9.56144
▁ฮ	-9.56145
▁ลํา	-9.56146
โช	-9.56158
น่าสนใจ	-9.56177
ฝาก	-9.56198
การตาย	-9.56204
ภาวะ	-9.56279
▁ซา	-9.56315
กาแฟ	-9.56388
สวรรค์	-9.56393
ไมล์	-9.56409
ด่วน	-9.56421
กรม	-9.56453
คุณรู้	-9.56525
เฉพาะ	-9.56574
ในวันนี้	-9.56575
จูบ	-9.56642
ปีที่	-9.56683
โปรแกรม	-9.56685
อย	-9.56736
เราอยู่	-9.56893
เวลาที่	-9.56917
ทอม	-9.56925
มีเหตุผล	-9.57142
หยิบ	-9.57215
ใครสักคน	-9.57299
ดนตรี	-9.57302
สองสาม	-9.5736
ทู	-9.57414
จะบอก	-9.57517
มอร์	-9.57641
ขัง	-9.57643
นรก	-9.57688
รู้อะไร	-9.57812
โป	-9.57867
นึกถึง	-9.57918
เกิดอะไร	-9.57987
ต้นไม้	-9.58049
▁ไม่นะ	-9.58113
▁แม้แต่	-9.58124
น้องสาว	-9.58157
อัด	-9.5821
จะได้รับ	-9.58353
▁ก็ได้	-9.58459
คณะกรรม	-9.58476
▁ก็เลย	-9.58476
สิทธิ	-9.5852
ผู้ใหญ่	-9.5853
มิถุนายน	-9.58536
ออกมาจาก	-9.58542
▁ทั้งที่	-9.58577
▁หลา	-9.58607
จะบอกว่า	-9.58608
เป็นอะไร	-9.58608
ชี	-9.58655
เหนื่อย	-9.58803
▁เธซเธก	-9.58827
จอม	-9.5885
▁เธนเธ	-9.58867
▁เอาล่ะ	-9.58872
สตาร์	-9.58878
เฮ	-9.58894
จันทร์	-9.58945
กลิ่น	-9.59068
กับแม่	-9.59092
คิม	-9.59193
ถึงเวลา	-9.5921
แล้วว่า	-9.59242
ทั่วไป	-9.59341
▁และเขา	-9.59345
ฉาก	-9.59403
ปิ	-9.595
ล็อก	-9.59517
บริจาค	-9.5961
▁จะมี	-9.5966
ผมมี	-9.59662
อะไรนะ	-9.59722
ไท	-9.59737
เอล	-9.59819
ภาษา	-9.59841
ล้มเหลว	-9.59881
▁แบบว่า	-9.59928
ฐเน	-9.60013
แสดงให้	-9.60031
▁เธณ	-9.60058
บิล	-9.60084
หรืออะไร	-9.60106
ในเรื่อง	-9.60183
ยุ่ง	-9.60188
พรรค	-9.60371
หนึ่งของ	-9.6039
รู้ตัว	-9.60431
ไปดู	-9.60451
เธญเธขเน	-9.60454
เธฃเธฒเธ	-9.60468
พนัน	-9.60563
ทัน	-9.6063
▁จุด	-9.60633
ความเห็น	-9.60715
แต่ว่า	-9.60763
สต์	-9.60861
ดีมาก	-9.60862
สินะ	-9.60952
โต้	-9.60962
บําบัด	-9.60968
ซอ	-9.61017
โดยสาร	-9.6102
ความช่วย	-9.61049
มีด	-9.61075
ซ้อม	-9.61094
เวล	-9.61116
ว่าเป็น	-9.61171
▁ผมต้อง	-9.61227
เธฒเธฃเธ	-9.61359
เธทเธญเธ	-9.61412
แต่ละ	-9.61497
เห็นด้วย	-9.61501
▁แต่เธอ	-9.61511
วิชา	-9.61516
อู	-9.61604
เช้านี้	-9.61624
ก์	-9.61719
บอกเขา	-9.61724
มันไม่	-9.61741
ของพ่อ	-9.61786
ก้อน	-9.6179
กําเนิด	-9.61792
มั่นคง	-9.61807
ยาย	-9.61818
▁เบอร์	-9.61827
รบ	-9.61829
ฉันเคย	-9.61845
เราจะได้	-9.61869
ไม่ออก	-9.61874
เธฃเธฑเธ	-9.61935
▁ผมว่า	-9.61959
ชี่ยวชาญ	-9.61985
บอกคุณ	-9.62045
รัฐมนตรี	-9.62069
หน	-9.62077
นายก	-9.62128
อีกที	-9.62163
ปลอม	-9.62165
มากพอ	-9.62234
เธอก็	-9.62276
ฉันเพิ่ง	-9.62324
ซ่อม	-9.62339
ไวน์	-9.6234
▁แต่ไม่	-9.62437
พล	-9.62464
ชื่อว่า	-9.62514
ผมกําลัง	-9.62536
ผมว่า	-9.62573
ชัด	-9.62674
ของลูก	-9.62722
บ่อย	-9.62725
เดี๋ยวนะ	-9.62788
ค่าย	-9.62807
คนแรก	-9.62917
นิว	-9.62967
▁เอส	-9.62982
มอน	-9.62994
มั้ง	-9.63042
ฝีมือ	-9.63068
▁ฉันแค่	-9.63104
คุณเป็น	-9.63129
ที่สุดใน	-9.63177
ทะเบียน	-9.63182
ยืนอยู่	-9.63209
สภา	-9.63235
เฟอร์	-9.63284
ถอด	-9.63325
▁ถ้าเธอ	-9.63377
▁เธต	-9.63478
คู	-9.63577
▁อยาก	-9.63586
หลบ	-9.63591
ให้มัน	-9.63659
ินตนาการ	-9.63743
สติ	-9.63809
ทดสอบ	-9.63822
▁800	-9.63871
ขนาดนั้น	-9.63912
ถ้าเธอ	-9.6394
เต็มไป	-9.63967
ไปหมด	-9.63968
ลอนดอน	-9.63976
ข้อง	-9.63999
ทฤษฎี	-9.64024
▁หัวหน้า	-9.64079
ไหล	-9.64082
▁เธอก็	-9.64138
น้องชาย	-9.64206
เอฟ	-9.64222
การแข่ง	-9.64253
ท้องถิ่น	-9.6433
เผา	-9.64372
หมาย	-9.64398
หลายๆ	-9.64469
นี่มัน	-9.64481
คริส	-9.6453
โบราณ	-9.64547
ให้คน	-9.64566
ฉันทํา	-9.64598
มองเห็น	-9.64733
ร่วมกัน	-9.64738
ขอร้อง	-9.64899
ฟี	-9.64904
▁กับการ	-9.64946
▁ยู	-9.64953
สงสัยว่า	-9.64979
ทีวี	-9.64987
แฮม	-9.65087
เผชิญ	-9.6514
ใกล้ๆ	-9.65184
อง	-9.65242
อ้วน	-9.65253
นั่งอยู่	-9.65264
▁หมอ	-9.65286
นิค	-9.65306
เธอเป็น	-9.65322
ฉันขอโทษ	-9.65328
เช่า	-9.65345
่ง	-9.65415
▁ฉันมี	-9.65418
▁หน่อย	-9.65428
เครียด	-9.65448
ลิส	-9.65475
ว่าง	-9.65554
โดด	-9.65566
ทคโนโลยี	-9.65731
วิทยุ	-9.65733
รวบรวม	-9.65734
มุ่งหน้า	-9.65769
ว่านาย	-9.65773
ความหวัง	-9.65774
ได้เงิน	-9.65862
นายจะ	-9.65945
ถุง	-9.65958
เฝ้า	-9.6599
เเล้ว	-9.66019
สื่อสาร	-9.66032
ใหม่ๆ	-9.66082
ผู้ช่วย	-9.66115
▁ทีม	-9.66125
▁250	-9.66172
สอบ	-9.662
ของโลก	-9.6622
เลี่ยง	-9.66307
เดวิด	-9.66353
ยิ่งกว่า	-9.66366
กุ	-9.664
ด้วยการ	-9.66415
ทําให้ผม	-9.6644
ลูกเรือ	-9.66554
ออกไปจาก	-9.66569
หมดแล้ว	-9.6657
▁ค่า	-9.66601
ขวด	-9.66656
ม่า	-9.66771
ที่ดิน	-9.6678
วันหนึ่ง	-9.66809
กระตุ้น	-9.66886
ต่อหน้า	-9.66908
▁เยี่ยม	-9.6699
ข้องกับ	-9.67042
▁ไง	-9.67057
ดารา	-9.6707
ใครก็ตาม	-9.67107
พิธี	-9.67161
จังหวะ	-9.67176
▁จึง	-9.6734
เป็นพวก	-9.67421
แถว	-9.67466
จะให้	-9.67479
ในเวลา	-9.67551
▁กม	-9.67563
ความฝัน	-9.67636
การใช้	-9.67657
ราชินี	-9.67762
โครง	-9.67775
▁เจมส์	-9.67819
อย่างมาก	-9.6793
▁ขอร้อง	-9.67951
มีชื่อ	-9.67976
นักข่าว	-9.68011
ประเภท	-9.68053
พอๆ	-9.681
ทันทีที่	-9.68109
อะไรที่	-9.68183
ทั้งวัน	-9.68188
แข็งแรง	-9.68201
ยอง	-9.68223
เจาะ	-9.68292
แผล	-9.683
▁ออกจาก	-9.68315
ก็คง	-9.68369
ทุกข์	-9.68423
อืม	-9.68439
คงไม่	-9.685
จ่ายเงิน	-9.68526
แค่อยาก	-9.68564
มองหา	-9.68679
มักจะ	-9.68686
บริเวณ	-9.68719
ห่างจาก	-9.68767
เสริม	-9.6877
ศึก	-9.68798
▁แม้	-9.68829
เป็นตัว	-9.68839
ตายไป	-9.68847
▁เกิด	-9.68862
เทียบ	-9.68892
ชุมชน	-9.68902
นักวิทยา	-9.68907
ฮีโร่	-9.68942
วิลเลียม	-9.68947
ถูกยิง	-9.68981
หนีไป	-9.69005
กําแพง	-9.69158
หุ้น	-9.69199
▁โร	-9.69224
เปรียบ	-9.69235
เอก	-9.69347
เทป	-9.69359
อะไรกัน	-9.69365
ให้การ	-9.69385
▁เคย	-9.6942
กล	-9.69436
คณะ	-9.69497
ชนิด	-9.69517
▁และคุณ	-9.69565
โพ	-9.69566
ราช	-9.6958
แวน	-9.69624
ดาบ	-9.69636
▁ไปที่	-9.69652
▁ปลาย	-9.69676
ปลาย	-9.69698
สนิท	-9.698
แวดล้อม	-9.69831
มีแค่	-9.69846
▁ในอีก	-9.69859
เอาเงิน	-9.69863
▁ใส่	-9.69886
รังสี	-9.699
เดี่ยว	-9.69927
ปู่	-9.69987
กลางคืน	-9.69998
ซอน	-9.70073
ตลาด	-9.70102
ฉันจะไม่	-9.70149
แจ็ค	-9.70205
ซิน	-9.70231
▁เร	-9.70263
ศึกษา	-9.70317
พี่สาว	-9.70406
แต่งตัว	-9.70416
สามคน	-9.70421
กระทรวง	-9.70431
แล้วครับ	-9.70456
▁เธฅเธ	-9.70518
การรักษา	-9.70558
เกรด	-9.70559
▁รวมทั้ง	-9.70565
เขาทํา	-9.70608
▁ผ่าน	-9.70617
ยังเป็น	-9.7062
อบ	-9.70624
รับการ	-9.70634
ไบ	-9.7067
ความสนใจ	-9.70694
ทําความ	-9.70836
จะพูด	-9.70882
ลงมือ	-9.70908
เศษ	-9.70976
▁37	-9.70981
นักแสดง	-9.7106
ไว้ใน	-9.71083
ซิตี้	-9.71137
▁พัน	-9.71171
คอม	-9.71302
กระดาษ	-9.71337
ที่ต้อง	-9.71348
รบกวน	-9.71368
▁ศ	-9.71427
ผมได้	-9.71464
อาคาร	-9.71508
ปารีส	-9.71517
อยู่ข้าง	-9.71567
ถามว่า	-9.71601
ผลงาน	-9.71701
เข้าถึง	-9.71717
▁38	-9.71806
ณเน	-9.71818
7	-9.71823
ดอก	-9.71846
▁ข้อ	-9.71846
แทง	-9.71858
โรงงาน	-9.71926
มะเร็ง	-9.71946
บอกผม	-9.71956
▁42	-9.72014
ตอนแรก	-9.72064
ริส	-9.72065
น้อยกว่า	-9.72237
ผิวขาว	-9.72259
เดอ	-9.72318
ขยาย	-9.72328
▁คือการ	-9.72337
ฟิล	-9.72362
ู	-9.72426
แชมป์	-9.72426
เมื่อปี	-9.72428
▁เฮ	-9.7246
ประหาร	-9.72563
แสดงความ	-9.72611
ห้องน้ํา	-9.72733
กระโดด	-9.72742
▁พี	-9.72854
อังคาร	-9.72866
เมืองนี้	-9.72949
สอบสวน	-9.72978
โดยไม่	-9.73134
ถ้านาย	-9.73145
ศักดิ์	-9.73155
แคลิฟอร์	-9.73175
วันนั้น	-9.73179
ในประเทศ	-9.73213
ท่อ	-9.73283
ตอนอายุ	-9.73299
ก่อนที่	-9.73311
เฉยๆ	-9.73316
เวย์	-9.73339
จะเกิด	-9.73388
วะ	-9.73388
เป็นที่	-9.73399
▁แปลว่า	-9.73483
ทํายังไง	-9.73488
▁33	-9.73494
ลีน	-9.73502
เธกเธตเธ	-9.73557
ทางเพศ	-9.73563
ล้ม	-9.73625
โน่	-9.73659
มีอยู่	-9.73692
ออกแบบ	-9.73701
▁เธก	-9.73753
▁แสน	-9.73825
ชีวิตของ	-9.73873
จาง	-9.73897
▁หรือว่า	-9.73898
คุ้มกัน	-9.73931
ข้างๆ	-9.73939
ถ้าผม	-9.73947
▁อิ	-9.73984
ชั่น	-9.74121
คืออะไร	-9.74206
00	-9.74208
คุณได้	-9.74218
เทร	-9.7426
เกาหลี	-9.74337
อด	-9.74353
ผอ	-9.74371
มากเลย	-9.74404
ฉันเห็น	-9.74415
อร์ไพรส์	-9.74424
พิกัด	-9.74438
ยาเสพติด	-9.74457
ไม่นะ	-9.74574
เฟ	-9.74582
ว่ามี	-9.7459
ต้องห่วง	-9.74603
แล	-9.7461
การ์	-9.74697
เออร์	-9.74704
ผมรู้สึก	-9.74733
วุ่นวาย	-9.74734
ภูมิใจ	-9.74756
เป็นห่วง	-9.74826
โบสถ์	-9.74832
สด	-9.74894
วิธีการ	-9.74906
ขุด	-9.74938
พายุ	-9.7508
อยากทํา	-9.75111
การโจมตี	-9.75172
เขาไป	-9.75269
ติดอยู่	-9.75271
ดอ	-9.75276
ตัวตน	-9.75315
▁47	-9.75316
ก็ไม่ได้	-9.75325
▁จะไม่	-9.7549
ซอง	-9.75511
กางเกง	-9.75566
▁สัก	-9.75589
ฟ้อง	-9.75598
ดอกไม้	-9.75674
สถาน	-9.75786
▁หน่วย	-9.75823
ชิน	-9.75842
ฝน	-9.75871
▁ฮา	-9.75875
กันว่า	-9.7591
อาชญากร	-9.75921
โจร	-9.75945
หลบหนี	-9.75995
สถิติ	-9.75998
▁พยายาม	-9.76122
▁แวน	-9.76129
ข้างใน	-9.76163
▁ใบ	-9.76263
มีค่า	-9.76278
ฉันอยู่	-9.76297
ทุน	-9.76324
ยาง	-9.7634
ของคน	-9.76372
เช่นกัน	-9.76387
ตรา	-9.7642
รัง	-9.76434
อินเดีย	-9.76442
มาหา	-9.76446
กับพวก	-9.76455
็ค	-9.76485
▁ขอให้	-9.76493
หล่อ	-9.76515
▁พวกมัน	-9.76556
ผิดชอบ	-9.76569
หัวเราะ	-9.76635
คนไหน	-9.76707
▁จะเป็น	-9.76709
ไปไหน	-9.7686
▁พวกนั้น	-9.76896
สิ่งนี้	-9.76927
เซีย	-9.7695
จ่ายค่า	-9.76958
▁แอน	-9.76977
วันละ	-9.77038
▁ถ้านาย	-9.77081
▁อิน	-9.77099
ข้อเสนอ	-9.77118
เป็นส่วน	-9.77205
ไปตาม	-9.77207
ทะเลาะ	-9.77277
ท่านครับ	-9.77308
งานนี้	-9.77315
เผ่า	-9.77497
▁แอนด์	-9.77564
สุนัข	-9.77599
เล่ม	-9.77602
นึก	-9.77654
▁เห็น	-9.77695
รับใช้	-9.77717
เธอร์	-9.77744
เดินไป	-9.77753
ข้าว	-9.77772
ฮัน	-9.77811
มาอยู่	-9.77896
กระจก	-9.77924
เบร	-9.7794
มู	-9.78063
หอ	-9.78215
การแพทย์	-9.78233
ไร้สาระ	-9.78247
▁รอบ	-9.783
ไม่ๆ	-9.78396
มาด้วย	-9.78416
ื	-9.78423
ออฟฟิศ	-9.78435
ฆ่าคน	-9.78483
ทางเลือก	-9.78583
ผ	-9.78597
ถัง	-9.78633
▁ไมเคิล	-9.78849
ภายใต้	-9.78855
แมรี่	-9.78879
คว้า	-9.7892
คิ	-9.78936
กัด	-9.78974
ผิดปกติ	-9.79019
▁ถ้าไม่	-9.79133
ยง	-9.79351
แค	-9.79372
มะ	-9.79476
เคอร์	-9.79545
พฤติกรรม	-9.79557
โฆษณา	-9.79557
ประเมิน	-9.7956
เอาชนะ	-9.79561
คุณทํา	-9.79587
เข้ามาใน	-9.79607
เท่าไร	-9.7963
ระวัง	-9.79676
ริน	-9.79678
สักหน่อย	-9.79686
ใช่แล้ว	-9.79717
ออน	-9.79861
▁อยู่ที่	-9.79889
▁นายจะ	-9.79921
ทีเดียว	-9.79939
วิลล์	-9.79945
ับผิดชอบ	-9.79997
ของพวก	-9.80093
กันอยู่	-9.80095
จะใช้	-9.80101
วอน	-9.80105
ไม่อาจ	-9.8018
สาธารณะ	-9.8022
ขณะ	-9.80252
กับความ	-9.80254
ทอ	-9.80305
เห	-9.80344
ต้องเป็น	-9.80367
ที่ร้าน	-9.80428
ล่อ	-9.80457
หน้าต่าง	-9.80523
ละคร	-9.80588
ขั้นตอน	-9.80645
▁มาร์	-9.80719
อยู่ใกล้	-9.80747
ได้ไง	-9.80752
คุณมี	-9.80819
ยิ้ม	-9.80826
แย่ๆ	-9.80855
ค่อยๆ	-9.80931
สเต	-9.80986
รัน	-9.81013
ปีเตอร์	-9.81041
ตัวจริง	-9.81042
ผู้ป่วย	-9.81063
คลับ	-9.81065
รวดเร็ว	-9.81066
นท์	-9.81078
ฉันแค่	-9.81111
▁ดิ	-9.81118
แว	-9.81174
เพชร	-9.81218
อ้างว่า	-9.81278
ยอมให้	-9.81319
▁ผมรู้	-9.81321
นิยม	-9.81324
ที่ทํา	-9.81331
ลื่อนไหว	-9.81354
ฉันไป	-9.81374
หมอนี่	-9.81385
วิธีที่	-9.81462
มีสิทธิ์	-9.81472
ได้แค่	-9.81534
ไน	-9.81545
สะพาน	-9.81554
เป็นเจ้า	-9.81578
▁ได้รับ	-9.81678
ลูกน้อง	-9.81687
้ง	-9.81715
สิบปี	-9.8176
▁ฉะนั้น	-9.81786
แหม	-9.81793
สบาย	-9.81864
▁ตุลาคม	-9.81897
จ่า	-9.81901
เสียเวลา	-9.81955
พวกเขาก็	-9.82016
▁คัน	-9.82062
หวัดดี	-9.82149
ดเน	-9.8222
ไวรัส	-9.8224
เป็นนัก	-9.82273
▁กิน	-9.82278
▁ช่วง	-9.82278
▁จี	-9.82286
ลี่ย์	-9.82345
▁เรียก	-9.82346
ระบุ	-9.82351
▁34	-9.82369
วัว	-9.82376
ว่าอะไร	-9.82395
เมล	-9.82405
หมู่บ้าน	-9.82416
สตรี	-9.82487
▁ออก	-9.82523
ศิลปะ	-9.82542
ลุย	-9.8255
ผิว	-9.826
ใครๆ	-9.82646
โห	-9.82655
สารภาพ	-9.82774
ลดลง	-9.82775
ลอส	-9.82778
ฉันบอก	-9.82855
โธ่	-9.82913
ชู	-9.82923
ริก	-9.82932
▁เก้า	-9.82944
ที่ห้อง	-9.82956
เพียงแค่	-9.82968
นักบิน	-9.82999
เฮ้ย	-9.8306
ถ้าเขา	-9.8308
ล้อ	-9.83083
พอล	-9.83105
คนละ	-9.83139
แทบ	-9.83208
แน	-9.83307
ไปไม่ได้	-9.83321
จนกว่าจะ	-9.83331
เทพ	-9.83339
หมาป่า	-9.83341
วัยรุ่น	-9.83344
ก่อตั้ง	-9.83409
อั	-9.83454
▁เพิ่ง	-9.83456
คงต้อง	-9.83514
หลุม	-9.83562
▁คํา	-9.83583
พบกับ	-9.83591
ซ้ํา	-9.83617
เธตเธขเธ	-9.83629
เงินสด	-9.83633
กีฬา	-9.83696
จริงจัง	-9.83743
▁72	-9.83803
ค้น	-9.83845
ย่อย	-9.83857
▁และมัน	-9.8392
▁ชอบ	-9.84
จะฆ่า	-9.84073
งาม	-9.84077
ชายฝั่ง	-9.84094
▁บริษัท	-9.84186
▁ตํารวจ	-9.84196
อําเภอ	-9.84279
▁แมค	-9.84374
ไปเจอ	-9.84416
▁ฟ	-9.84439
ขวา	-9.84454
ฟิ	-9.8446
โคตร	-9.84511
ข็งแกร่ง	-9.84534
ตัวเลข	-9.84537
จะกลับมา	-9.84564
สู้กับ	-9.84622
ละเมิด	-9.84625
นิวยอร์ค	-9.84628
คุ้มครอง	-9.84628
มันมี	-9.84828
▁น้อยๆ	-9.84875
ปู	-9.84921
ริม	-9.84926
ฟุตบอล	-9.85004
นิก	-9.85055
บอกเธอ	-9.85093
ห่วง	-9.85135
20	-9.85162
▁ดูสิ	-9.8518
เรย์	-9.85247
สมัคร	-9.85318
ในยุค	-9.85387
รุ	-9.85392
จอด	-9.85396
สายลับ	-9.85417
▁ลู	-9.85432
ยนต์	-9.8544
ผมเข้าใจ	-9.85518
เกล	-9.85524
เลว	-9.85552
ร้ายแรง	-9.85565
นักเขียน	-9.85611
วิเศษ	-9.85643
พ่อของ	-9.85665
เน็ต	-9.85674
เช่นนั้น	-9.85802
ไม่ว่า	-9.85807
▁ผมขอ	-9.85829
อยู่บ้าน	-9.85854
เล่นงาน	-9.85875
▁อะ	-9.85885
ดินแดน	-9.85891
็ต	-9.85902
ทุกสิ่ง	-9.8596
ษ	-9.85968
เซนต์	-9.85987
คุณนาย	-9.86012
โมโห	-9.86037
ฉันเอง	-9.86153
โซ่	-9.86176
ได้อย่าง	-9.8618
เพน	-9.86298
กับคน	-9.86337
▁จนถึง	-9.86338
ปรากฏ	-9.86356
บ่าย	-9.86362
ฤศจิกายน	-9.86374
▁โบ	-9.86396
และความ	-9.864
หลุด	-9.86575
ได้เจอ	-9.86583
ไปทาง	-9.86703
งค์	-9.86716
คุณจะได้	-9.86724
รวย	-9.86727
หน้าตา	-9.86763
▁เธตเธ	-9.86763
นี่แหละ	-9.86792
นีย์	-9.86808
กว่านั้น	-9.86872
การทํา	-9.86872
ไม่เอา	-9.86943
▁รัฐ	-9.86962
้อ	-9.87068
อยู่ดี	-9.8723
จม	-9.87233
▁อืม	-9.8726
เรารู้	-9.87287
▁ครู	-9.87301
ผ่า	-9.87306
เชื่อม	-9.87333
ของแม่	-9.87377
ค้นพบ	-9.87419
กระบวน	-9.87438
ประชากร	-9.8744
มาได้	-9.87458
ซับซ้อน	-9.87464
นาฬิกา	-9.87494
หมอนั่น	-9.87502
แอนด์	-9.8752
ไม่เป็น	-9.87536
▁ถ้าเขา	-9.87675
ตั๋ว	-9.87683
ลอ	-9.877
เทน	-9.87773
สรุป	-9.87839
เตะ	-9.87908
▁บาร์	-9.88071
เดา	-9.88245
สนามบิน	-9.88253
เพศ	-9.8832
เพลิง	-9.88369
▁ซู	-9.88371
ขนม	-9.88379
เคล	-9.88383
คุ	-9.8844
สุขภาพ	-9.88507
วัตถุ	-9.8851
เทศมนตรี	-9.88513
สักวัน	-9.88524
สิ้นสุด	-9.88544
ต่ํากว่า	-9.88562
มีอํานาจ	-9.88601
ชาร์ลี	-9.88626
▁ยกเว้น	-9.8865
เจ้านาย	-9.88661
▁ปธน	-9.88745
▁ไปยัง	-9.88831
▁โ	-9.88851
▁ผู้ชาย	-9.88853
ซัน	-9.88863
ในนั้น	-9.88915
เซลล์	-9.88991
เบื่อ	-9.89015
เลยล่ะ	-9.89055
เกินกว่า	-9.8906
ฉบับ	-9.89075
▁700	-9.89098
เมื่อคุณ	-9.89202
สา	-9.89214
ทําอย่าง	-9.89216
จูเนียร์	-9.8924
ตั้น	-9.89275
หลอด	-9.89314
▁เธณเธ	-9.89346
▁ที่ถูก	-9.89375
เพราะเขา	-9.89533
▁แต่เป็น	-9.89575
โค้ช	-9.896
กล้าม	-9.89647
สีแดง	-9.89652
ด็อก	-9.89672
ให้ดี	-9.8969
จริงเหรอ	-9.89709
ผลกระทบ	-9.8971
แอลเอ	-9.89716
ขนาดใหญ่	-9.89805
ถอย	-9.89842
ค์	-9.89981
▁พวกคุณ	-9.89983
จนกว่า	-9.89991
เรือนจํา	-9.89997
ฟาร์ม	-9.90045
ชัก	-9.9005
ฮะ	-9.9007
▁นั่ง	-9.9007
ต้องหา	-9.9008
▁โทษที	-9.90095
ตรงไหน	-9.90148
เบา	-9.90161
สงบ	-9.90167
ํานักงาน	-9.9017
ลุก	-9.90192
สั้น	-9.90215
ไมค์	-9.90276
วัฒนธรรม	-9.90331
เจอร์รี่	-9.90362
แผนการ	-9.90378
ดูว่า	-9.90395
▁ตั้ง	-9.9041
▁ลอง	-9.90428
โดยไม่มี	-9.90546
จําคุก	-9.90563
ในวัน	-9.90584
ลําดับ	-9.90713
กับนาย	-9.90783
▁เซนต์	-9.90799
จากไป	-9.90812
หวาน	-9.90839
▁แต่พอ	-9.90852
▁ผมเลย	-9.90904
ฝ่าบาท	-9.90947
ใครบางคน	-9.90996
ลอน	-9.91016
ขอโทษนะ	-9.91047
หุ่น	-9.91065
คํานวณ	-9.91068
แวมไพร์	-9.91068
เทคนิค	-9.91073
เขียนว่า	-9.91093
ลลี่	-9.91106
สวยๆ	-9.91157
จู่ๆ	-9.91203
▁ทุกๆ	-9.91244
เป็นสิ่ง	-9.91255
มาร์ค	-9.91279
ไม่สนใจ	-9.91306
จาน	-9.91332
9	-9.91385
เม็กซิโก	-9.91438
สับสน	-9.91443
ห่าง	-9.91488
ในทาง	-9.91528
สุดในโลก	-9.91622
ในตัว	-9.9163
แน่ใจ	-9.9165
ภูมิ	-9.91687
▁รู้ไหม	-9.9169
บรรดา	-9.91701
เขาไม่	-9.91784
บรรยากาศ	-9.9181
▁จะต้อง	-9.9187
ไม่เกิน	-9.91871
ครอง	-9.91896
มื้อ	-9.91902
▁กัปตัน	-9.91911
บุ	-9.91912
ฉันคิด	-9.91978
คอร์	-9.9209
▁ถ้าผม	-9.92094
8	-9.92109
๊ก	-9.92151
▁กิโล	-9.92205
คบ	-9.92227
▁ชิ้น	-9.92312
เหมาะ	-9.92312
น้ําตาล	-9.92333
ทดลอง	-9.92431
ือ	-9.92498
เป้า	-9.92543
แอร์	-9.92691
ตน	-9.92766
ไปเที่ยว	-9.92789
ราวๆ	-9.92839
▁เธถเธ	-9.92839
ร่วง	-9.92857
สายตา	-9.92886
เคียง	-9.92903
ของแก	-9.92928
ก็รู้	-9.92977
โรคจิต	-9.93019
โผล่มา	-9.93064
ไปสู่	-9.93123
หมี	-9.93131
จะส่ง	-9.93138
ก็ดี	-9.93186
แผนที่	-9.9325
แก้	-9.93252
ประสงค์	-9.93311
รัส	-9.93312
หิว	-9.93315
▁มาร์ค	-9.93334
ล็อค	-9.93356
อาย	-9.93394
ื่อสัตย์	-9.93414
โผล่	-9.93488
▁มานี่	-9.93498
รับมือ	-9.93526
พุ่ง	-9.93541
อเล็กซ์	-9.93611
พื้นฐาน	-9.93646
เพราะคุณ	-9.93687
วาน	-9.93748
ขยับ	-9.93771
บริ	-9.9389
ลล์	-9.94023
ท่อง	-9.94031
พืช	-9.9407
ฤดูร้อน	-9.94078
รร	-9.94094
ในอนาคต	-9.9414
ที่สาม	-9.9438
▁คะแนน	-9.94432
ระเบียบ	-9.94452
กลางวัน	-9.94498
แม่มด	-9.94517
นายก็	-9.9452
▁เธฃเธฒ	-9.94558
อ้าง	-9.94572
การทดลอง	-9.94581
ขู่	-9.94678
▁ช่าง	-9.94681
มีส่วน	-9.94809
แช	-9.94834
ประท้วง	-9.94835
ชัยชนะ	-9.94845
หรือยัง	-9.94885
เติม	-9.94909
ฉันชอบ	-9.94911
แร	-9.94967
เป็นไง	-9.94973
▁คุณไม่	-9.94979
12	-9.94995
ที่ยวบิน	-9.95076
▁ไม่ๆ	-9.95132
▁เธฅ	-9.95153
และฉัน	-9.95197
จมูก	-9.95219
หาเงิน	-9.95225
ทุ่มเท	-9.95256
กระแส	-9.95285
ชีส	-9.95309
หาทาง	-9.95323
ตัวตาย	-9.95354
กันแล้ว	-9.95364
หมื่น	-9.95405
อาบน้ํา	-9.95423
▁ไม่เอา	-9.95466
พันธมิตร	-9.9551
▁52	-9.95534
คืองี้	-9.95559
ข่มขืน	-9.95606
ครอบครอง	-9.95606
ชื่นชม	-9.95607
ถ้าไม่มี	-9.95618
ฉีด	-9.95621
หมู่	-9.95629
บนโลก	-9.95661
หนาว	-9.95689
เธขเธฑเธ	-9.95698
▁คิด	-9.95703
รัพย์สิน	-9.95767
▁ที่อยู่	-9.95782
อัตรา	-9.9579
ผู้ที่	-9.9579
▁สร้าง	-9.9585
มูลค่า	-9.95858
พวกเจ้า	-9.95905
▁ที่ไม่	-9.95909
น่ะเหรอ	-9.95922
▁ชาร์ลี	-9.9599
มหาสมุทร	-9.95995
เต้นรํา	-9.96001
การเงิน	-9.96157
▁เราไม่	-9.96187
เฟล	-9.96241
▁ที่เป็น	-9.96388
มีใคร	-9.96402
ชั่วร้าย	-9.96432
▁กลับ	-9.96449
ที่นั่ง	-9.96489
ไหนๆ	-9.96506
30	-9.96506
กับพ่อ	-9.96519
ทุกคนที่	-9.96549
ว่าใคร	-9.96567
ขยะ	-9.96598
ผู้ก่อ	-9.96621
▁ข้าจะ	-9.9664
จด	-9.96675
หรอ	-9.96718
ตระหนัก	-9.96773
หนา	-9.96803
เส	-9.96873
เข้าใกล้	-9.97044
▁น้อย	-9.97148
จะหา	-9.97162
ดีเอ็นเอ	-9.97165
ขนมปัง	-9.97167
ร่องรอย	-9.97168
เก้าอี้	-9.97171
▁เดิน	-9.97287
▁กันยายน	-9.9734
เคยมี	-9.97347
ภาพบุรุษ	-9.97405
ดูด	-9.97425
สะ	-9.9745
บก	-9.97458
ก็ไม่รู้	-9.97507
แล้วล่ะ	-9.97538
ร็อก	-9.97575
▁เปิด	-9.9758
ไปกับ	-9.97626
▁ศูนย์	-9.97648
เฉย	-9.97904
เด็กสาว	-9.97949
ปรารถนา	-9.97954
โอเคมั้ย	-9.97977
▁ชา	-9.98041
▁ดา	-9.98105
ไงล่ะ	-9.98115
▁เธขเธ	-9.98123
▁พันล้าน	-9.9819
ค้าง	-9.9829
ถึงจะ	-9.98304
ยอมแพ้	-9.98339
ประทับใจ	-9.98366
สาขา	-9.98367
ปลุก	-9.98371
ฮาร์	-9.98421
แพง	-9.98435
ตลอดกาล	-9.98452
ไม่ทัน	-9.98471
▁เชิญ	-9.98493
▁ก่อนจะ	-9.98584
มิล	-9.98617
▁คิง	-9.98741
มิติ	-9.98878
ฟู	-9.98887
งานแต่ง	-9.98907
ก่อนอื่น	-9.98948
ว่าคุณจะ	-9.99018
เรายัง	-9.99073
ฮิ	-9.99081
ปลด	-9.99104
ใบหน้า	-9.99124
ราชา	-9.99246
เธญเธฃเน	-9.99318
ไปซะ	-9.99344
น่าเบื่อ	-9.99404
▁ใจเย็น	-9.99408
ผู้เ	-9.99409
แห่งความ	-9.99424
ทาวน์	-9.99554
นิยาย	-9.99571
ดึก	-9.99574
ฉันอายุ	-9.99589
น่าทึ่ง	-9.99634
▁ที่ต้อง	-9.99671
ี่	-9.9969
วันก่อน	-9.99693
เช่นนี้	-9.99702
จะบอกให้	-9.99713
อน	-9.99797
▁บาย	-9.99798
▁เป็นการ	-9.99837
▁แล้วฉัน	-9.9985
ไม่ไหว	-9.99892
▁ตรง	-9.99906
จิม	-9.99965
หลุยส์	-9.99969
อยู่ด้วย	-10
▁นัด	-10.0001
▁โปรด	-10.0002
เขาอยู่	-10.0003
ริชาร์ด	-10.0005
ว่าผม	-10.0006
รส	-10.001
▁44	-10.0013
ที่ใช้	-10.0017
▁เธนเน	-10.0017
เคร	-10.002
ไว้ใจ	-10.0024
▁นั่นมัน	-10.0025
▁65	-10.0033
▁กลับไป	-10.0033
▁ทอม	-10.0036
เฉลี่ย	-10.0036
เฮาส์	-10.0036
ถ้วย	-10.0037
มาช่วย	-10.0039
▁ย	-10.0043
ระบุว่า	-10.0047
▁ของการ	-10.0056
ภูเขา	-10.0056
▁ลูกชาย	-10.0057
ในคุก	-10.0057
▁ที่ผม	-10.0058
คุณพูด	-10.0064
คือว่า	-10.0065
คุณก็รู้	-10.0066
แอ	-10.0067
แฮ	-10.0069
่อ	-10.0071
มีแต่	-10.0075
อวัยวะ	-10.0077
ถล่ม	-10.0077
แพร่	-10.0077
ละก็	-10.0085
พูดกับ	-10.0089
ค่ํา	-10.0089
▁คดี	-10.0095
เม็ด	-10.0098
▁โจนส์	-10.01
▁ก็แค่	-10.0103
▁วิล	-10.0109
เบื้อง	-10.011
๊ด	-10.0111
ภาษี	-10.0116
เงียบๆ	-10.0116
ผมเป็น	-10.0118
▁คืน	-10.0118
วู้ด	-10.0118
พอที่จะ	-10.0121
▁55	-10.0125
▁โฮ	-10.0125
แล้วกัน	-10.0126
วาย	-10.0127
▁เข้ามา	-10.0132
ตร	-10.0132
กับมัน	-10.0133
ลูกความ	-10.0133
▁มาจาก	-10.0134
▁ล้านคน	-10.0135
ผู้กอง	-10.0141
ท่าเรือ	-10.0143
เราน่าจะ	-10.0144
▁ที่ได้	-10.0145
ข้างหลัง	-10.0148
▁ฮาร์	-10.0151
▁เธซ	-10.0154
กรณี	-10.0157
กรา	-10.0158
ท่ามกลาง	-10.0158
แบร์รี่	-10.0159
บลู	-10.0162
ยุโรป	-10.0165
ฉาย	-10.0168
ชก	-10.0173
เธฃเธทเน	-10.0175
ซาร์	-10.0175
รู้แล้ว	-10.0175
ได้เป็น	-10.0183
ในตอนนี้	-10.0186
▁สาว	-10.019
เดท	-10.0193
50	-10.0194
ตุ	-10.0196
▁เธอต้อง	-10.0197
▁โดยที่	-10.0197
คืนนั้น	-10.02
มหาศาล	-10.0206
ดูจาก	-10.0209
ไร่	-10.0211
▁จอร์จ	-10.0215
เกร	-10.0218
▁ร้าน	-10.0221
▁ชาย	-10.0225
▁ที่เขา	-10.0228
▁บวก	-10.0235
▁เบน	-10.0239
เครดิต	-10.0241
▁95	-10.0255
เลส	-10.0257
▁แม็ค	-10.0258
▁ไม่ก็	-10.026
และเมื่อ	-10.0261
ศาสนา	-10.0266
▁ก็ไม่	-10.0275
๊บ	-10.0279
ผู้เล่น	-10.0283
เราควร	-10.0292
▁เท่ากับ	-10.0296
ด้านหลัง	-10.0298
ตํานาน	-10.031
ต่างกัน	-10.0311
วี่	-10.0314
ซิล	-10.0317
สกปรก	-10.0324
ไงบ้าง	-10.0325
กร	-10.0326
ก็เริ่ม	-10.0331
ขอแนะนํา	-10.0337
ตามล่า	-10.0337
เจ้าชาย	-10.0341
เธฃเธฐเธ	-10.0341
พอจะ	-10.0342
คุณอยาก	-10.035
ภ	-10.0351
▁ลูกสาว	-10.0354
คุณเห็น	-10.036
ย้ํา	-10.0364
พาย	-10.0365
สถาบัน	-10.0366
นัม	-10.0367
แก้ปัญหา	-10.0368
ที่เห็น	-10.037
มาเป็น	-10.0374
คู่หู	-10.0375
▁ก็มี	-10.0376
เหรอคะ	-10.0377
บ่น	-10.0379
วงจันทร์	-10.0387
ไม่อยู่	-10.0388
จําไว้	-10.0389
เขามี	-10.0393
ทอด	-10.0394
▁120	-10.0401
สกี้	-10.0402
กล่าวว่า	-10.0403
บุตร	-10.0406
ล่วงหน้า	-10.0413
ภฬ	-10.0417
เดย์	-10.0423
เลยครับ	-10.043
▁ห	-10.0432
▁ต	-10.0439
▁ไ	-10.0441
▁เลิก	-10.0445
คัง	-10.0458
ดิฉัน	-10.0464
ฉันเจอ	-10.0469
▁และไม่	-10.047
จอห์นนี่	-10.0472
กินอาหาร	-10.0477
▁ว่าจะ	-10.0477
หนี้	-10.0478
▁ทั้งๆ	-10.0481
สบายใจ	-10.0486
ฮู	-10.0489
▁เอฟ	-10.0489
ผิดหวัง	-10.049
ตกใจ	-10.0492
ปริมาณ	-10.0492
กี่	-10.0496
พ้น	-10.0499
จะอยู่	-10.0499
บอกเรา	-10.0507
แล้วไง	-10.051
เธฅเธฐเธ	-10.0512
เล่นเกม	-10.0519
แพ	-10.0521
วิส	-10.0523
อีกต่อไป	-10.053
ความสูง	-10.0533
ภายนอก	-10.0535
ซีไอเอ	-10.0535
▁เอ็น	-10.0535
ขี่	-10.0537
ฑ	-10.054
▁กลับมา	-10.0545
คุณอยู่	-10.0555
เซ็กซ์	-10.0556
เก่าๆ	-10.0557
ทําอาหาร	-10.056
ยัด	-10.0566
เทล	-10.0569
สุข	-10.0577
จู่โจม	-10.0578
โรบิน	-10.058
ถอน	-10.0582
ครบรอบ	-10.0582
ชายคนนี้	-10.0596
และฉันก็	-10.06
ลงทุน	-10.0604
ผมขอ	-10.0617
มันได้	-10.0622
รับรู้	-10.0624
แคน	-10.063
▁เเละ	-10.0632
เรีย	-10.0637
▁43	-10.0641
สิ้น	-10.0655
ย้ายไป	-10.0656
พวกแก	-10.0663
อ่อนแอ	-10.0665
ข้าจะ	-10.0666
▁ยา	-10.0671
ฮอ	-10.0675
▁มันมี	-10.0679
เธฒเธกเธ	-10.068
าจารย์	-10.0681
มานี่	-10.0684
▁ว่าคุณ	-10.0686
รวมกัน	-10.0689
มีผู้	-10.0698
แม่ทัพ	-10.0699
แม่ของ	-10.07
คลอด	-10.0702
ลักษณะ	-10.0703
ขีด	-10.0703
▁รถ	-10.0704
อัจฉริยะ	-10.0707
▁เมษายน	-10.0712
ของผู้	-10.0714
เจ้าหญิง	-10.0722
เรียง	-10.0725
วาด	-10.0725
ถือว่า	-10.0726
จุน	-10.0726
▁เธชเธ	-10.0731
นักรบ	-10.0731
นิสัย	-10.0732
▁โม	-10.0733
ร่วมกับ	-10.0736
ให้เป็น	-10.0737
คาดหวัง	-10.0739
มัด	-10.0741
ตามที่	-10.0746
▁ล้านวอน	-10.0747
▁วี	-10.0748
ติดเชื้อ	-10.0752
ใกล้ชิด	-10.0752
ตอนเช้า	-10.0756
บ้านของ	-10.0757
ไปหน่อย	-10.076
คดีนี้	-10.0761
ไม่น่า	-10.0768
ลึกลับ	-10.0768
ทิม	-10.0769
ยาวนาน	-10.0769
หน่อยสิ	-10.0772
▁มีการ	-10.0775
กันเลย	-10.0777
ช้าๆ	-10.078
เวร	-10.0786
มีอาการ	-10.0787
สบายดี	-10.079
การฆ่า	-10.0791
แต่ฉัน	-10.0794
เช็ก	-10.0796
เป็นโรค	-10.0796
▁หนึ่งใน	-10.0797
หน้ากาก	-10.0798
ย่อ	-10.08
ผูก	-10.0807
▁เออ	-10.0807
สแกน	-10.0808
บรรยาย	-10.0809
▁ทา	-10.0811
เสื่อม	-10.0812
ใหญ่ๆ	-10.0814
เสือ	-10.0815
วูด	-10.0819
ก็ตามที่	-10.0819
▁บา	-10.082
▁ใช่แล้ว	-10.082
ย้อนกลับ	-10.0822
เอามา	-10.0824
▁เตรียม	-10.0826
บ้านหลัง	-10.0836
วัง	-10.0838
แหวน	-10.0838
เธอได้	-10.084
เบิร์ต	-10.0843
นับถือ	-10.0844
ทรี	-10.085
ที่ไม่มี	-10.085
ถ่ายรูป	-10.0853
ตรงกัน	-10.0858
อันนี้	-10.0862
เชฟ	-10.0864
▁ฟัง	-10.0864
▁นับ	-10.0865
กินข้าว	-10.0868
สมควร	-10.087
ดีนะ	-10.0873
เราเจอ	-10.0873
คงเป็น	-10.0878
ใช้จ่าย	-10.0879
เช้าวัน	-10.0881
แห้ง	-10.0881
ใช้เงิน	-10.0881
กิโลกรัม	-10.0883
▁อดีต	-10.0886
ตูด	-10.0891
นั้นแหละ	-10.0891
ปลดปล่อย	-10.0891
วอ	-10.0894
เชิง	-10.0896
วันศุกร์	-10.0898
▁คุณนาย	-10.0899
่ว	-10.0901
เพราะมัน	-10.0906
ใช้งาน	-10.0906
ถึงแม้	-10.0916
▁เดวิด	-10.092
เข้ากับ	-10.0923
ทับ	-10.0923
วอล	-10.0926
ขัดแย้ง	-10.0926
แล้วผมก็	-10.0932
หยาง	-10.0932
ให้ความ	-10.0938
ดีน	-10.0942
ลาย	-10.0949
เป็นจริง	-10.095
▁มีความ	-10.0951
ทางเหนือ	-10.0957
นส์	-10.096
▁ไปเลย	-10.096
▁จะถูก	-10.096
เชื่อใจ	-10.0962
▁แอล	-10.0962
พูดตรงๆ	-10.0969
เคลียร์	-10.0969
สักคน	-10.0979
เธญเธฒเธ	-10.0984
แปลกใจ	-10.0988
ร็อค	-10.0994
ทิ้งไว้	-10.0997
ดีใจ	-10.1001
▁เท่าที่	-10.1002
ให้หมด	-10.1003
ไปอยู่	-10.1004
เนส	-10.1005
บันได	-10.1005
วิจัย	-10.1006
ราง	-10.1008
็ท	-10.1013
▁ตกลง	-10.1017
เราไป	-10.1017
กันหมด	-10.1018
ลําพัง	-10.1018
15	-10.1027
▁ยินดี	-10.1028
▁ชุด	-10.1028
ลาร์	-10.1042
ขอบ	-10.1044
อึ	-10.1053
▁ที่จริง	-10.1054
แถวนี้	-10.1059
เทค	-10.1059
ดาร์	-10.106
อม	-10.1067
▁มาร์ติน	-10.1072
▁รับ	-10.1072
▁ระบบ	-10.1072
บนถนน	-10.1077
ไม่เชื่อ	-10.1078
▁ทู	-10.1091
อย่างดี	-10.1096
▁ในปี	-10.1098
▁ไม่เคย	-10.1099
เมื่อกี้	-10.1102
แม้ว่า	-10.1103
ฟิลด์	-10.1103
ฮิตเลอร์	-10.1106
▁คืนนี้	-10.1107
ปล่อยตัว	-10.1107
เค้ก	-10.1108
ธิ	-10.1108
▁รู้	-10.1126
▁46	-10.1127
จ์	-10.1128
สั้นๆ	-10.1132
ใส่ใจ	-10.1136
แด	-10.114
ในเมื่อ	-10.1143
รอบๆ	-10.1149
เสิร์ฟ	-10.1151
เศรษฐกิจ	-10.1151
สวยงาม	-10.1153
บอกผมว่า	-10.1155
คม	-10.1155
ตลอดไป	-10.1158
▁เอ็ม	-10.1164
▁สิบ	-10.1168
ห่วย	-10.1176
เยอะมาก	-10.1178
แกล้ง	-10.1179
นู	-10.1179
ผมเห็น	-10.1181
เอ็นเต	-10.1183
ความเ	-10.1185
นักล่า	-10.1192
สมาคม	-10.1196
ให้ข้า	-10.1199
ฉันยัง	-10.1206
ความรู้	-10.1212
ดวงดาว	-10.1214
คาดว่า	-10.1216
ที่ชื่อ	-10.1219
นักกีฬา	-10.1221
สวัสดิ์	-10.1222
พิษ	-10.1225
จรวด	-10.1232
ต้องมา	-10.1236
▁พิ	-10.1239
▁แถมยัง	-10.124
แอฟริกา	-10.1242
มหาลัย	-10.1242
ฉีก	-10.1244
จี้	-10.1245
▁ในเวลา	-10.1246
หลีก	-10.1247
ผู้ชนะ	-10.1248
นักศึกษา	-10.125
เดาว่า	-10.1255
▁ธันวาคม	-10.1257
▁เว	-10.1258
▁นายต้อง	-10.1259
ฝ	-10.1259
ผมไป	-10.1272
เธฃเธดเธ	-10.1273
▁เด็กๆ	-10.1276
ํา	-10.1278
คุณคง	-10.1279
ตสาหกรรม	-10.1288
บางสิ่ง	-10.1288
เด็ดขาด	-10.1289
ขณะนี้	-10.1292
ไม่หยุด	-10.1294
น้า	-10.1296
รวมถึง	-10.1298
เด็กอายุ	-10.1299
กํากับ	-10.13
ชื่อมโยง	-10.1301
▁เพราะผม	-10.1305
▁ฉันคง	-10.1306
รอส	-10.1317
ตรงข้าม	-10.132
ผมอยู่	-10.1322
วย	-10.1322
ดอร์	-10.1323
▁และถ้า	-10.1326
ปวด	-10.1328
▁เผื่อ	-10.1329
▁เอาเลย	-10.1329
มิส	-10.133
กันแน่	-10.1333
ศิลปิน	-10.1334
กิจกรรม	-10.1334
แฟรงค์	-10.1336
ชี้	-10.1346
ในเดือน	-10.1349
▁เพ	-10.1349
▁เฮ้ย	-10.1351
อร์	-10.1352
วิค	-10.1359
เริ่มจาก	-10.1361
ดับ	-10.1362
ตัวนี้	-10.1363
▁เบล	-10.1365
เมตร	-10.1365
เกิดมา	-10.1368
หมวก	-10.1372
ความกลัว	-10.1376
ถั่ว	-10.138
เมตตา	-10.1381
กันมา	-10.1387
เลิศ	-10.1388
ทางใต้	-10.1389
บวก	-10.139
▁ขอบใจ	-10.1392
โคล	-10.1393
โรม	-10.1395
โคร	-10.1404
▁หมายถึง	-10.1408
นี้ได้	-10.141
เคยทํา	-10.1415
สักพัก	-10.1416
ห้องนอน	-10.1419
หญิงสาว	-10.1423
ใช่ค่ะ	-10.1426
คุกคาม	-10.1426
ไทม์	-10.1426
อ้าว	-10.143
เข็ม	-10.1431
ผู้การ	-10.1431
กอด	-10.1431
แฟร์	-10.1432
โคเคน	-10.1433
▁โดน	-10.1434
สามวัน	-10.1441
▁เอล	-10.1447
ทําผิด	-10.1447
ไต	-10.1449
จับตัว	-10.145
มีพลัง	-10.145
กรีน	-10.1467
จู่	-10.1469
หิมะ	-10.1473
เหยียบ	-10.1473
เธฒเธขเน	-10.1477
เก็บไว้	-10.1479
เธอไป	-10.1496
พูดคุย	-10.1497
▁ฉันเป็น	-10.1498
ก็จริง	-10.1498
ชัน	-10.15
ก็พอ	-10.1508
▁ราคา	-10.1509
ํานวยการ	-10.1519
อิตาลี	-10.1521
ราชวงศ์	-10.1524
ไม่มีการ	-10.1536
▁มกราคม	-10.1541
เท็ด	-10.1542
มาดู	-10.1543
▁ผู้ที่	-10.1543
เพล	-10.1545
▁ผมมี	-10.1547
ไปให้	-10.155
กับลูก	-10.155
บทความ	-10.1552
▁สมิธ	-10.1552
▁ฉันขอ	-10.1552
ริช	-10.1555
ไม่ถูก	-10.1558
เข้าใจนะ	-10.1558
บรา	-10.1559
พ่อฉัน	-10.1565
ท้าทาย	-10.1567
ทรัพย์	-10.157
ยังเด็ก	-10.1576
▁กรกฎาคม	-10.1583
จอห์นสัน	-10.1588
▁เป็นคน	-10.1589
▁และเป็น	-10.1591
▁เธอเป็น	-10.1592
▁ยั	-10.1593
ทาส	-10.1598
ตาราง	-10.16
ข้างล่าง	-10.1602
็ก	-10.1604
มี่	-10.161
เลย์	-10.1614
เซ็กซี่	-10.1615
ในหนัง	-10.1617
กอร์	-10.1618
ว่ายน้ํา	-10.1619
ฉันพูด	-10.1622
มื้อค่ํา	-10.1623
เดต	-10.1625
เงา	-10.1625
▁หวัดดี	-10.1626
เวส	-10.163
ไฟล์	-10.1632
▁ปีเตอร์	-10.1635
อร่อย	-10.1636
คิน	-10.1637
เทียบกับ	-10.1641
▁เธช	-10.1645
ก็ทํา	-10.1646
ปีก	-10.165
อย่างแรก	-10.165
รออยู่	-10.1654
ไม่หรอก	-10.1658
▁ถึงจะ	-10.1659
รังเกียจ	-10.1662
โพสต์	-10.1664
ได้ผล	-10.1667
▁วิ่ง	-10.1667
พลเมือง	-10.1672
แรน	-10.168
ปอด	-10.1683
เธญเธญเธ	-10.1687
ทํามัน	-10.1689
แดนนี่	-10.169
ถึงความ	-10.1691
ฟุต	-10.1697
▁สิงหาคม	-10.1697
หลวง	-10.1698
ถึงได้	-10.1698
ฝ่า	-10.1698
โทนี่	-10.17
ต่อให้	-10.1701
พันล้าน	-10.1706
ย่าง	-10.1712
แมลง	-10.1716
แคม	-10.1719
นิด	-10.1725
▁และเธอ	-10.1726
แจ้งว่า	-10.1726
ไซด์	-10.1729
หน่วยงาน	-10.1729
เธญเธฐ	-10.173
ป์	-10.1731
ไพ่	-10.1734
ให	-10.1736
ตามตรง	-10.1737
แกะ	-10.1737
เอน	-10.1741
บาน	-10.1744
หย่า	-10.1747
นัง	-10.1749
ทั้งคืน	-10.1749
ที่โ	-10.175
พบกัน	-10.175
▁เท	-10.175
งานของ	-10.1752
▁เล	-10.1753
นิตยสาร	-10.1758
▁ผมแค่	-10.1759
แย่มาก	-10.1759
แตะ	-10.176
ได้ทํา	-10.176
ไค	-10.1768
ซาก	-10.177
ทุ่ม	-10.1771
▁มีอะไร	-10.1771
จบลง	-10.1772
▁เพียง	-10.1774
ตื่นขึ้น	-10.1775
กัส	-10.1777
▁เนื่อง	-10.1778
▁เรย์	-10.1783
▁ยูโร	-10.1785
รถบรรทุก	-10.1796
คุณอาจ	-10.1799
บางส่วน	-10.18
ในอดีต	-10.1801
พิซซ่า	-10.1806
นอนกับ	-10.1807
ว่ามันจะ	-10.1814
ตีพิมพ์	-10.1815
ยุ่งกับ	-10.1823
จัดงาน	-10.1827
แย่ง	-10.183
การเลือก	-10.1832
▁ไม	-10.1834
โฟ	-10.1837
ลาน	-10.1839
เลี้ยงดู	-10.1839
แต่เมื่อ	-10.1839
▁ประธาน	-10.184
▁พอล	-10.1841
จักร	-10.1842
สเปน	-10.1842
หน้าอก	-10.1846
ใช้มัน	-10.1849
เท็กซัส	-10.1855
มังกร	-10.1855
ตะโกน	-10.1856
โหดร้าย	-10.1856
ไม่เจอ	-10.1858
มัธยม	-10.1861
ริเวอร์	-10.1866
สูงขึ้น	-10.1868
วอลเตอร์	-10.187
ทัวร์	-10.1871
▁ยิง	-10.1871
ฤดู	-10.1871
▁โมงเช้า	-10.1875
ให้พวก	-10.1876
นึกภาพ	-10.1877
▁ฆ่า	-10.1879
▁นาง	-10.188
▁ก็เป็น	-10.1881
▁49	-10.1886
และการ	-10.1895
พร	-10.1895
นานกว่า	-10.1897
น่าเศร้า	-10.1899
กรรมการ	-10.1902
ชิ้นส่วน	-10.1904
ปฏิวัติ	-10.1904
เบาะแส	-10.1904
กิจการ	-10.1905
ไว้ก่อน	-10.1905
เธออยู่	-10.1911
คือการ	-10.1911
สิทธิภาพ	-10.1912
คิดจะ	-10.1914
▁ฉันทํา	-10.1919
ไม่ใช่คน	-10.1925
เหรอครับ	-10.1928
▁เราได้	-10.1933
เธอไม่	-10.1936
▁ก็ต้อง	-10.1946
เธอต้อง	-10.1946
เป็นของ	-10.1947
ซีย์	-10.1948
▁เมือง	-10.195
▁เคน	-10.195
เลขที่	-10.195
ช่วยฉัน	-10.195
ฒ	-10.1951
กดดัน	-10.1952
ใช่ครับ	-10.1959
ทําเงิน	-10.1962
ความร้อน	-10.1966
▁แต้ม	-10.1966
โหด	-10.1967
ว่ายังไง	-10.197
ตัวละคร	-10.1972
งู	-10.1983
▁ฉันชอบ	-10.1987
▁ข้อหา	-10.1988
เพียงแต่	-10.1988
สั่น	-10.1991
ก่อนนะ	-10.1991
ตอนที่ผม	-10.1994
้ว	-10.1995
ชิคาโก	-10.1999
ทําไมถึง	-10.2
ทะลุ	-10.2002
นายกฯ	-10.2007
ชั่วคราว	-10.2007
่ม	-10.2011
ทิศทาง	-10.2013
ให้ลูก	-10.2013
▁มีนาคม	-10.2015
ซเธฃเธญ	-10.2018
ว่าการ	-10.2027
การทดสอบ	-10.2038
อบอุ่น	-10.2056
พักผ่อน	-10.2056
▁คริส	-10.2058
เหอะ	-10.2058
ว่าเราจะ	-10.2061
ตบ	-10.2062
ไม่แน่ใจ	-10.2063
เขายัง	-10.2071
ถนนสาย	-10.2072
คุณยัง	-10.2075
เกย์	-10.2079
ถ้าเป็น	-10.2079
มันไป	-10.2084
ทรยศ	-10.2085
ที่เคย	-10.2086
แม	-10.209
ก็เลย	-10.2093
▁พฤษภาคม	-10.2098
▁ใกล้	-10.21
รายได้	-10.2104
เคิล	-10.2106
เข	-10.2109
มีงาน	-10.2117
เอ็กซ์	-10.212
ไหมครับ	-10.2131
ก็รู้ว่า	-10.2135
กู้	-10.2136
▁ที่ซึ่ง	-10.2137
▁วันก่อน	-10.2139
ย่าน	-10.214
ตอบว่า	-10.2142
จะพา	-10.2143
มอ	-10.2146
▁เธฒเธข	-10.2147
ที่เราจะ	-10.2149
เวทมนตร์	-10.2151
▁อาจเป็น	-10.2153
▁แซม	-10.2154
ได้ดี	-10.2163
ปีนี้	-10.2163
มันอาจจะ	-10.2166
บัน	-10.2168
แห่งชาติ	-10.2172
มีเพื่อน	-10.2173
เธกเธตเน	-10.2174
นั้นก็	-10.2181
ฮั	-10.2186
หุ้นส่วน	-10.2187
▁39	-10.219
ว่ะ	-10.2197
▁แล้วคุณ	-10.2201
มาตรฐาน	-10.2202
▁เธถเน	-10.2202
ธา	-10.2203
จ๊ะ	-10.2204
บนเตียง	-10.2207
เวสต์	-10.2209
แสดงว่า	-10.2211
เดินหน้า	-10.2211
ต่อวัน	-10.2218
ดาวเทียม	-10.2223
ิลเลี่ยม	-10.2223
เขาถูก	-10.2225
ดง	-10.2228
ปรากฏตัว	-10.2229
ผนัง	-10.2234
คนพวกนี้	-10.2237
25	-10.2238
▁กลุ่ม	-10.2238
รอดชีวิต	-10.2238
แต่งตั้ง	-10.2242
เป็นคนดี	-10.2248
แรกของ	-10.2251
อิทธิพล	-10.2252
คลิป	-10.2252
เว็บ	-10.2254
สีดํา	-10.2259
น่าสงสาร	-10.2262
ไล่ออก	-10.2262
วันหยุด	-10.2263
ในใจ	-10.2267
กันนะ	-10.2273
บอร์ด	-10.2274
▁รู้มั้ย	-10.228
ให้ตาย	-10.2292
เพราะเธอ	-10.2298
สักแห่ง	-10.2299
สูงกว่า	-10.2299
ประมูล	-10.2303
นรับสู่	-10.2307
▁ศพ	-10.2315
จําลอง	-10.2318
▁ในเมื่อ	-10.2322
เจย์	-10.2323
โปร	-10.2324
ทางเดียว	-10.2324
ซะอีก	-10.2328
เชียร์	-10.2333
กัล	-10.2335
เชล	-10.2336
ที่พ่อ	-10.2336
จะรู้	-10.2338
เชื่อฉัน	-10.2342
ภรรยาของ	-10.2343
▁ว่าฉัน	-10.2344
ดีไหม	-10.2348
เห็นได้	-10.2348
เดินเข้า	-10.2354
อะไรบ้าง	-10.2355
ได้ถึง	-10.2356
▁ชาว	-10.2357
ไฟไหม้	-10.2358
ตกหลุม	-10.2358
พันธ์	-10.2359
ผมไม่เคย	-10.2359
▁ภายใต้	-10.2361
เหลือแค่	-10.2368
เคยเจอ	-10.2373
ตั้งใจจะ	-10.2374
▁เจน	-10.2381
ใจดี	-10.2381
วอร์	-10.2388
ลึกๆ	-10.2389
ดูหนัง	-10.2391
ลุกขึ้น	-10.2396
กับใคร	-10.2397
พู	-10.2398
หนุ่มๆ	-10.2401
▁แฮ	-10.2403
โซเวียต	-10.2405
คราวนี้	-10.2406
ถ้ํา	-10.2406
ข่าวกรอง	-10.2406
ข่าวลือ	-10.2409
40	-10.241
ล้อเล่น	-10.2414
มันไว้	-10.2415
พร้อมกัน	-10.2417
ติน	-10.2421
รถยนต์	-10.2427
สูบ	-10.243
เจอกับ	-10.243
หรือไง	-10.2437
▁ออ	-10.2442
เชือก	-10.2457
เสียดาย	-10.2457
อพยพ	-10.2459
เราเป็น	-10.2462
เมอ	-10.2464
ทะเลทราย	-10.2471
กรง	-10.2472
▁ถึงแม้	-10.2472
ได้พบ	-10.2475
วันเสาร์	-10.2475
สระ	-10.2477
คนอย่าง	-10.248
ก่อสร้าง	-10.2481
ลส์	-10.2484
▁แต่ยัง	-10.2485
▁เว้นแต่	-10.2485
เด็ด	-10.249
ปเปอร์	-10.2492
ปิดประตู	-10.2494
ไช	-10.2502
ุภาพสตรี	-10.2502
▁ฝ่าย	-10.2507
อเล็กซาน	-10.2517
ใส่ชุด	-10.2523
๊า	-10.2526
เจค	-10.253
▁เธข	-10.2538
แรงงาน	-10.2539
แด่	-10.254
ปะ	-10.2542
▁มีแต่	-10.2548
ไข	-10.2553
เผย	-10.2553
กระแทก	-10.2561
ครือข่าย	-10.2561
ประสาน	-10.2563
ช่วยคุณ	-10.2565
▁ตามที่	-10.2569
▁ขอโทษนะ	-10.2577
ได้อีก	-10.2582
คราว	-10.2583
▁41	-10.2587
คนงาน	-10.2589
เธฒเธฃเน	-10.2592
เซฟ	-10.2593
▁85	-10.2595
ให้ใคร	-10.2596
หัน	-10.2596
แปลกหน้า	-10.2597
ตรงกับ	-10.26
เคส	-10.2601
▁ระวัง	-10.2602
ชาวบ้าน	-10.2603
อย่าลืม	-10.2605
ซัง	-10.2605
ขึ้นรถ	-10.261
แก้แค้น	-10.2613
▁ดาว	-10.2616
ท้องฟ้า	-10.2619
ที่ข้า	-10.2621
เวอ	-10.2624
▁แดน	-10.2624
ปี้	-10.2626
▁ทีนี้	-10.2626
ริง	-10.2628
ไปก่อน	-10.2629
ไปกว่า	-10.263
นําไปสู่	-10.2632
หมวด	-10.2635
สตีฟ	-10.2638
ตกอยู่ใน	-10.2645
เดร	-10.265
มีทั้ง	-10.2651
มาริ	-10.2665
ตาร์ฟลีท	-10.2666
▁ขนาด	-10.2666
สํารอง	-10.2666
▁ลูกรัก	-10.2668
▁ในห้อง	-10.2672
เขาอายุ	-10.2673
เรามา	-10.2673
▁ที่ทํา	-10.2678
บัง	-10.2679
รู้ดีว่า	-10.2684
ไม่เคยมี	-10.2684
▁ฉันบอก	-10.2688
▁คูณ	-10.2692
ั้	-10.2698
▁บู	-10.27
▁เกือบ	-10.2701
งี้	-10.2702
ซิง	-10.2704
ล่วง	-10.271
เจสัน	-10.2711
ลาออก	-10.2717
กระหม่อม	-10.2719
เอมิลี่	-10.2719
ได้โปรด	-10.2721
เชน	-10.2722
ลุค	-10.2725
ชัดๆ	-10.2726
สองปี	-10.273
แกร่ง	-10.2733
▁แม	-10.2735
เหลืออีก	-10.2738
มั๊ย	-10.2739
อยากเห็น	-10.2746
เคมี	-10.2753
▁บิล	-10.276
เขามา	-10.276
เสา	-10.2761
▁ที่เธอ	-10.2762
น้อยลง	-10.2762
โกะ	-10.2763
ของรัฐ	-10.2767
เร็วกว่า	-10.2769
▁คอน	-10.2774
หาตัว	-10.2776
แบร์	-10.278
ในนามของ	-10.2781
จุดที่	-10.2783
ก็ไม่มี	-10.2786
เป่า	-10.2789
ทางเดิน	-10.2791
ในนี้	-10.2795
สัญญาว่า	-10.2798
ฉันเลย	-10.2801
▁ยังไม่	-10.2802
ทราย	-10.2804
เหมือง	-10.2804
ในป่า	-10.2805
ลงโทษ	-10.2808
พอใจ	-10.2809
ตัวเขา	-10.2816
วิก	-10.2816
ในความ	-10.2818
ดอลล่าร์	-10.2825
บันดาลใจ	-10.2825
เปิดตัว	-10.2828
มาจากไหน	-10.2829
เวลล์	-10.2829
ก็ใช่	-10.283
เราเห็น	-10.2831
กันได้	-10.2832
เราเพิ่ง	-10.2832
ตเมนต์	-10.2833
วงการ	-10.2833
บรู	-10.2839
เซ็กส์	-10.2843
ฏิกิริยา	-10.2848
▁กอง	-10.2851
แบบไหน	-10.2859
แต่ละคน	-10.286
11	-10.2863
ล่าง	-10.2865
คุณเคย	-10.2866
▁ต่อให้	-10.2868
ลิลลี่	-10.2869
ใต้เท้า	-10.2874
มานั่ง	-10.2874
ที่เพิ่ง	-10.2875
ใจเย็น	-10.2878
ปีละ	-10.2878
หาง	-10.2879
เสบียง	-10.2879
สหภาพ	-10.2879
แท็กซี่	-10.288
แฮร์รี่	-10.288
วงจรปิด	-10.288
▁คุณเป็น	-10.288
ลอร์ด	-10.2882
เพราะเรา	-10.2891
▁เธกเธฒ	-10.2897
▁คุณมี	-10.2898
ตอ	-10.2898
บร	-10.2904
ลาส	-10.2912
อุ่น	-10.2914
รึยัง	-10.2914
จากบ้าน	-10.2915
รัด	-10.2916
ผมบอก	-10.2916
ลิ้น	-10.2924
แม่ง	-10.2925
ไส้	-10.293
ไปส่ง	-10.293
จากนี้ไป	-10.2931
สูตร	-10.2931
ด่า	-10.2933
ยุติ	-10.2935
บิลลี่	-10.2936
▁รู	-10.2936
▁ผมเป็น	-10.2938
ปัญญา	-10.2939
▁ในวัน	-10.294
เราจะทํา	-10.2941
ก็เถอะ	-10.2942
▁ไฮ	-10.2942
▁รปภ	-10.2947
▁พวกนาย	-10.2948
ซาร่า	-10.2951
▁คอ	-10.2952
เจ้าสาว	-10.2953
กับคนที่	-10.2954
ตับ	-10.2957
▁ตอนนั้น	-10.296
เบิล	-10.2962
กลัวว่า	-10.2963
▁แทน	-10.2972
แถลง	-10.2984
ไปทํางาน	-10.2987
น่ะสิ	-10.2987
ลินคอล์น	-10.2987
ศรัทธา	-10.2987
เจริญ	-10.2987
ปกปิด	-10.2989
สองครั้ง	-10.2995
▁อะไรนะ	-10.3
โด้	-10.3005
ความจํา	-10.3009
ํ	-10.3011
บนดาว	-10.3012
บุหรี่	-10.3013
▁แม้ว่า	-10.3013
พัค	-10.3014
จบแล้ว	-10.3015
เอ้อ	-10.3016
จ้อง	-10.3017
▁จับ	-10.3027
นําเสนอ	-10.3034
โทรไป	-10.3037
มีผล	-10.3038
วิว	-10.3038
▁ได้ยิน	-10.3042
นโยบาย	-10.3042
เกิล	-10.3045
▁โคล	-10.3056
ผู้พัน	-10.3072
▁ไม่สิ	-10.3072
งั้นก็	-10.3078
นายต้อง	-10.3079
โกง	-10.3084
ล้อม	-10.3087
บีบ	-10.3089
ไม่สน	-10.3091
หกเดือน	-10.3095
ผืน	-10.3096
▁หมายเลข	-10.3097
ปลูก	-10.3098
เชียว	-10.3099
แค่นั้น	-10.3103
มันยาก	-10.3104
มอเตอร์	-10.3106
▁คิม	-10.3108
▁สู่	-10.3109
เพิ่มอีก	-10.3111
เกรซ	-10.3113
แน่น	-10.3115
เทอ	-10.3124
ค่ําคืน	-10.3125
▁แต่นาย	-10.3127
คุณไป	-10.313
ว้าว	-10.3133
็ดเวิร์ด	-10.3134
แต้ม	-10.314
ในรถ	-10.3141
แอนน์	-10.3144
เขาตาย	-10.3151
อนุมัติ	-10.3152
ัญลักษณ์	-10.3152
แก๊ส	-10.3152
เห็นมั้ย	-10.3153
ไต่สวน	-10.3153
จักรยาน	-10.3155
ปธน	-10.3156
พลิก	-10.3158
คุณอาจจะ	-10.316
คอล	-10.3163
คิง	-10.3168
กล่อม	-10.3171
▁พวกเธอ	-10.3175
▁แจ็ค	-10.3177
ขเธฒเธ	-10.3177
ทิศ	-10.3179
โทษที	-10.3181
จูเลีย	-10.3184
จะเจอ	-10.3186
▁แฟน	-10.3192
เขียว	-10.3197
รพ	-10.3198
ลอบ	-10.3198
ได้นะ	-10.3199
มุก	-10.3203
ขวาง	-10.3205
็อง	-10.3208
หุ่นยนต์	-10.3209
เลอ	-10.3214
อยู่ใต้	-10.3214
ผู้ชม	-10.3214
ต่างก็	-10.3216
กันและ	-10.322
ผมเคย	-10.3221
ต้องอยู่	-10.3224
แบ	-10.3227
ทาร์	-10.3229
รึไง	-10.3229
เรส	-10.3236
แมค	-10.3238
มันก็แค่	-10.3238
โดยตรง	-10.3242
ชาน	-10.3245
▁รีบ	-10.3247
ทราบว่า	-10.3248
สามปี	-10.3248
น้อยก็	-10.325
มาร่วม	-10.3251
และถ้า	-10.3253
▁สาวๆ	-10.3259
▁แฟรงค์	-10.3261
▁มอง	-10.3266
เอช	-10.3266
▁ยังคง	-10.3268
ยินดีที่	-10.3269
▁ดื่ม	-10.327
▁คอย	-10.3272
ผมทํา	-10.3274
ไว้ที่	-10.3274
กฏหมาย	-10.3284
ทีหลัง	-10.3284
โมง	-10.3284
ลีก	-10.3286
ผมเอง	-10.3287
ฟอง	-10.3289
ยืม	-10.3291
รู้สึกดี	-10.3291
ทารก	-10.3293
▁คอร์	-10.33
วิถี	-10.3301
แม็ค	-10.3305
ยิว	-10.331
สักที	-10.3315
แม่ฉัน	-10.3315
แจ๊ค	-10.3316
ชาร์	-10.3318
เลยค่ะ	-10.3318
กอ	-10.3319
รําคาญ	-10.332
อุโมงค์	-10.332
ออนไลน์	-10.332
ตอบสนอง	-10.332
ไปพบ	-10.3323
นั่นมัน	-10.3324
เชสเตอร์	-10.3326
เอเชีย	-10.3327
ให้ฟัง	-10.3329
▁ชู	-10.333
สถานะ	-10.3333
สกาย	-10.3333
ซอก	-10.3337
ผู้สมัคร	-10.3342
รักเธอ	-10.3348
ห้าปี	-10.3351
ยินเสียง	-10.3359
ขวัญ	-10.336
มีประ	-10.3362
ริโอ	-10.3366
ทะ	-10.3368
วุฒิ	-10.3374
หัศจรรย์	-10.3376
▁รพ	-10.3376
ระยะทาง	-10.3377
บอสตัน	-10.3379
จะเห็น	-10.3384
▁พี่ชาย	-10.3386
สิ่งต่าง	-10.3386
กซ์	-10.3402
สโตน	-10.3408
มุ	-10.341
ออฟ	-10.3413
กั้น	-10.3413
ต่อย	-10.3414
ยนิ้วมือ	-10.3419
เดือนละ	-10.342
ในรอบ	-10.3421
80	-10.3422
เฮนรี่	-10.3424
▁เจอ	-10.3428
ที่จะได้	-10.3429
ยืด	-10.3431
ขัดขวาง	-10.3434
ตัวเล็ก	-10.3435
เล็บ	-10.3436
แล็บ	-10.3437
ื่	-10.3439
สักครู่	-10.3441
เกิดจาก	-10.3442
▁ยิ่ง	-10.3443
กเกอร์	-10.3444
บ้างไหม	-10.345
▁ต้น	-10.3452
จะเปิด	-10.3452
จะรับ	-10.3453
▁สาย	-10.3455
ทางออก	-10.3455
พวกท่าน	-10.3456
▁วาง	-10.346
ของส	-10.3461
ชอน	-10.3464
การสร้าง	-10.3468
▁เวลาที่	-10.3471
ลัง	-10.3479
สะสม	-10.348
ซิสโก	-10.3481
ค้า	-10.3482
▁จู่ๆ	-10.3485
เบิร์น	-10.3488
กําไร	-10.3491
รม	-10.3491
ไปรับ	-10.3497
ชัดว่า	-10.3508
คาด	-10.3509
▁ยก	-10.3509
ราบ	-10.3514
จดจํา	-10.3515
ข้างบน	-10.3519
ขบวน	-10.3528
▁กรุณา	-10.3529
หรู	-10.3532
เพียงพอ	-10.3532
ส่วนที่	-10.3533
อะไรๆ	-10.3533
▁บราวน์	-10.3533
▁เอาละ	-10.3534
แฟ้ม	-10.3536
สักนิด	-10.3542
ทางจิต	-10.3543
▁รายงาน	-10.3543
▁ขณะ	-10.3544
มุน	-10.3547
เห็นแก่	-10.3547
ปริศนา	-10.3547
โน้มถ่วง	-10.3548
รู้ไว้	-10.3549
เชส	-10.3554
▁98	-10.3557
เธซเธ	-10.356
▁จํา	-10.3562
เบย์	-10.3563
หายนะ	-10.3566
สมุด	-10.3568
ทื	-10.357
ฆ่าตัว	-10.3571
พรี	-10.3578
▁เดล	-10.358
60	-10.3582
เอ็ด	-10.3585
ซัล	-10.359
อยู่ๆ	-10.3593
เมื่อเรา	-10.3593
ช้าง	-10.3593
ต้องจ่าย	-10.3595
เขาพูด	-10.3597
จอ	-10.36
เก็บของ	-10.3603
ต้องตาย	-10.3604
ไม่ทราบ	-10.3605
โด่งดัง	-10.3606
กองทุน	-10.361
ตั้งชื่อ	-10.3616
ด่าน	-10.3618
ว่าเกิด	-10.362
ของชีวิต	-10.3624
▁ว่าไง	-10.3635
ยุ	-10.3635
ทําสิ่ง	-10.3636
ในรัศมี	-10.3638
บุรุษ	-10.3641
▁งั้นก็	-10.3643
กับเด็ก	-10.3643
เป็นพ่อ	-10.3647
ลีโอ	-10.3655
▁แค	-10.3656
แบล็ก	-10.3663
▁รวม	-10.3664
เงื่อนไข	-10.3664
อีเมล	-10.3667
ละลาย	-10.367
ไม่พอ	-10.367
เรือน	-10.3671
หนึ่งปี	-10.3674
14	-10.3674
ดุ	-10.3674
ทองคํา	-10.3675
แต่ผม	-10.3676
ตอบแทน	-10.3679
โร่	-10.368
นี้เลย	-10.368
แวะมา	-10.368
สนง	-10.3681
พูดกัน	-10.3684
▁เฟ	-10.3684
การบิน	-10.3691
ความโกรธ	-10.3692
ว่าเขาจะ	-10.3698
บาป	-10.3701
อยู่ได้	-10.3702
▁กิล	-10.3703
▁ว้าว	-10.3705
▁ซ้าย	-10.3715
ติดตั้ง	-10.3716
พัด	-10.3717
มีเด็ก	-10.3719
เธงเธดเธ	-10.3721
ถัดไป	-10.3722
ชําระ	-10.3722
รถถัง	-10.3725
เธงเน	-10.3725
จุ	-10.3727
นายทํา	-10.3728
เฟร	-10.3731
ตส์	-10.3732
ลัน	-10.3734
ตามมา	-10.3736
▁เช	-10.3737
▁สมัย	-10.3742
ให้ท่าน	-10.3743
▁เธอไม่	-10.3751
สีฟ้า	-10.3753
ซิส	-10.3753
อยู่นะ	-10.3753
โสด	-10.3755
ฆ่าเขา	-10.3755
เควิน	-10.3758
นาซี	-10.3764
▁ทหาร	-10.3769
ไอเดีย	-10.3771
มองดู	-10.3772
ชดเชย	-10.3781
อลิซาเบธ	-10.3781
เบสบอล	-10.3782
ภาระ	-10.3782
เกลือ	-10.3782
ดึงดูด	-10.3783
ผมชื่อ	-10.3794
ต่อปี	-10.3799
ต่างดาว	-10.38
ซะที	-10.3804
จะถึง	-10.3805
ปั่น	-10.3805
ห่วยๆ	-10.3806
โรส	-10.381
คุณคิด	-10.381
ที่ใหญ่	-10.3819
นอร์	-10.3819
▁ใจเย็นๆ	-10.3821
แวะ	-10.3826
เลียน	-10.3835
19	-10.3838
พรสวรรค์	-10.3841
เราเคย	-10.3842
หน่อยนะ	-10.3843
ชายที่	-10.3844
ค่าจ้าง	-10.3851
รัม	-10.3852
ทําเพื่อ	-10.3856
เหลือง	-10.3863
เก็ต	-10.3869
ปอนด์	-10.387
ทริป	-10.3871
พูดได้	-10.3871
การเค	-10.3873
สีขาว	-10.3873
ได้ข่าว	-10.3874
ตรงๆ	-10.3877
▁ควร	-10.388
ไล่ตาม	-10.3882
▁อ๋อ	-10.3884
ฎ	-10.3888
▁มาเร็ว	-10.3889
▁ต่อหน้า	-10.3898
ออกซิเจน	-10.39
ทะเลสาบ	-10.39
มารี	-10.39
ดูดี	-10.3902
ในแง่	-10.3903
▁ไมค์	-10.3907
▁เขาไม่	-10.3907
ลงจอด	-10.391
คลัง	-10.3914
▁เพิ่ม	-10.3916
ให้ทุกคน	-10.3916
ชิม	-10.3921
เลยเหรอ	-10.3923
รับสาย	-10.3925
▁911	-10.3926
ทักษะ	-10.3932
อัตราการ	-10.3933
ยัย	-10.3934
กําลังใจ	-10.3935
ตอนฉัน	-10.3935
ดวงตา	-10.3935
อยู่รอด	-10.3938
ตัวใหญ่	-10.3938
ที่แม่	-10.394
▁แอ	-10.3943
ปรา	-10.3951
ติก	-10.3959
กระป๋อง	-10.396
อาณานิคม	-10.396
กรุ๊ป	-10.396
ระบาย	-10.396
เอเลน่า	-10.396
สก็อต	-10.3961
เพียบ	-10.3965
▁ปล่อย	-10.3966
โจเซฟ	-10.3968
▁แมรี่	-10.3968
ดิส	-10.3968
ย่อม	-10.3971
หนทาง	-10.3974
▁นายก็	-10.3974
ฟังดู	-10.3974
ทําหน้า	-10.3974
เข้าคุก	-10.398
คล	-10.3981
▁180	-10.3986
ทุกที่	-10.3987
▁ไมล์ต่อ	-10.3988
ไม่คิด	-10.3995
้ด	-10.3996
แฮน	-10.3997
▁โด	-10.3999
ห่อ	-10.4002
ยกเว้น	-10.4005
โทรกลับ	-10.4007
เป็นวัน	-10.4011
เถื่อน	-10.4014
บาส	-10.4016
เรื่อย	-10.4017
แขวน	-10.4018
ข้าพเจ้า	-10.402
มุ่งมั่น	-10.402
▁ว่าเขา	-10.4021
▁เธขเน	-10.4022
แท่ง	-10.4022
▁ฟา	-10.4023
การ์เซีย	-10.4024
พราก	-10.4025
เกิร์ล	-10.4026
ยอน	-10.4027
รวมตัว	-10.4035
แลง	-10.4036
รีด	-10.4037
แถม	-10.4039
มรดก	-10.4043
ในกรณี	-10.4044
เกิดการ	-10.4049
แป	-10.405
บัญชา	-10.405
มาตั้ง	-10.4051
ที่เกิด	-10.4056
จะสร้าง	-10.4061
คือคนที่	-10.4067
ที่ชอบ	-10.4067
แทนที่	-10.4071
โอน	-10.4076
ตุ๊กตา	-10.408
ผัก	-10.408
โหวต	-10.408
เละ	-10.4081
ทําไมคุณ	-10.4084
จะมาถึง	-10.4084
ลงเอย	-10.4085
โหล	-10.4087
งานที่	-10.4089
▁โดยการ	-10.4089
ท่าทาง	-10.409
งดงาม	-10.4094
▁53	-10.4101
ให้เงิน	-10.4102
เรเชล	-10.4104
ชีพ	-10.4109
เน้น	-10.411
ไข้	-10.4111
เเ	-10.4111
ต้องรับ	-10.4112
▁พ่อแม่	-10.4113
ต้องรู้	-10.4115
ทําใจ	-10.4117
ชิป	-10.4122
ผิวดํา	-10.4123
บอย	-10.4124
ขอเวลา	-10.4125
ความร	-10.4134
บุกรุก	-10.4135
วิจารณ์	-10.4141
ผลลัพธ์	-10.4141
หวาดกลัว	-10.4141
เหม็น	-10.4141
จะไม่มี	-10.4146
แคร์	-10.4148
▁ขวา	-10.4154
▁ตกลงไหม	-10.4155
เก่งมาก	-10.4155
ไหล่	-10.4157
▁รี	-10.4161
็บ	-10.4161
มุมมอง	-10.4164
▁ไร	-10.4168
▁เข้าไป	-10.4168
เหรอว่า	-10.4173
แม่เหล็ก	-10.4174
มาร์ติน	-10.4174
เราสองคน	-10.4178
▁คุณรู้	-10.4184
▁ใครๆ	-10.4184
▁เก	-10.4185
ซ่อนตัว	-10.4186
▁ตร	-10.4193
ฉันจะได้	-10.4193
ในงาน	-10.4199
เกษียณ	-10.4203
มีแผน	-10.4203
เทศกาล	-10.4203
นัน	-10.4203
แอนดรูว์	-10.4204
กอน	-10.4212
ฟื้น	-10.4215
แลนซ์	-10.4217
▁ผมคง	-10.4217
ฮยอน	-10.4219
มุ่ง	-10.4219
โรเจอร์	-10.422
▁ฉันยัง	-10.4222
ไว้ให้	-10.4222
ตู	-10.4222
ความดัน	-10.4225
ไม่พบ	-10.4235
ยะ	-10.424
ไปเอา	-10.4243
เพี้ยน	-10.4245
งั้นหรือ	-10.4248
▁ตรงนี้	-10.4249
▁ว่าเธอ	-10.4253
การดูแล	-10.4254
สามเดือน	-10.4254
ออร์	-10.426
พอแล้ว	-10.4262
ลงใน	-10.4263
สรรค์	-10.4264
ฝุ่น	-10.4264
สบการณ์	-10.4264
พระเยซู	-10.4264
วีรบุรุษ	-10.4264
ที่จะทํา	-10.4267
ข้อเท็จ	-10.4268
▁ผมได้	-10.4268
รีน	-10.4269
ฉันขอ	-10.427
ชายแดน	-10.4271
ยังไม่มี	-10.4271
แล้วจู่ๆ	-10.4273
ฟิน	-10.4279
▁ด้าน	-10.4286
▁ว่าเรา	-10.4288
▁ฮัน	-10.4292
แคร	-10.4295
สบายๆ	-10.4299
แบน	-10.4302
▁ฮอ	-10.4302
ถ้ามัน	-10.4303
ตกลงกัน	-10.4307
▁คุณคง	-10.4308
▁จง	-10.4309
▁ให้ฉัน	-10.4321
จะทําได้	-10.4326
ภาพยนตร์	-10.4327
บาทหลวง	-10.4327
สไตล์	-10.4327
แบงค์	-10.4328
เฮล	-10.4334
นาร์	-10.4334
▁เพื่อหา	-10.4335
ให้แก่	-10.4337
ที่มัน	-10.4339
เป็นลูก	-10.4339
ให้เวลา	-10.4341
▁ผู้ซึ่ง	-10.4342
▁51	-10.4348
น้อยๆ	-10.4349
เสียสละ	-10.4349
▁เขามี	-10.4353
▁แต่การ	-10.4354
เนท	-10.4355
▁เราก็จะ	-10.4356
ของเมือง	-10.4357
เหยียด	-10.4364
▁มันอาจ	-10.437
▁อู	-10.4371
แดด	-10.4371
การค้า	-10.4372
พร้อมจะ	-10.4372
ไหมคะ	-10.4374
ก็อยาก	-10.4376
▁900	-10.4376
คบกัน	-10.4382
้บ	-10.4384
▁สตาร์	-10.4389
ระดับสูง	-10.439
จะสามารถ	-10.439
ลูกจะ	-10.4399
วั	-10.44
เธออายุ	-10.4405
พบศพ	-10.4408
▁ผมขอโทษ	-10.4409
จิมมี่	-10.441
็ง	-10.441
คืนมา	-10.4411
▁แล้วเรา	-10.4414
เธอยัง	-10.4417
แคท	-10.4421
ปัก	-10.4426
น่ะครับ	-10.4428
เรล	-10.4432
เดฟ	-10.4433
▁ฉันเคย	-10.4436
ที่ยัง	-10.4437
คล้าย	-10.4439
ฤ	-10.4442
ส่อง	-10.4449
ขว้าง	-10.4452
เฮงซวย	-10.4452
เล็ง	-10.4455
ขอบใจ	-10.4459
▁กุมภา	-10.4462
พูดจริงๆ	-10.4466
กก	-10.4469
กวน	-10.4471
ลิซ่า	-10.4473
มอส	-10.4474
▁ยอด	-10.4475
เจรจา	-10.4475
ครีม	-10.448
อีสต์	-10.4486
▁วา	-10.4491
ยอ	-10.4493
ช่วยเรา	-10.4493
บอ	-10.4497
ร้านขาย	-10.4499
อดทน	-10.4503
ชีวิตฉัน	-10.4506
สต	-10.4507
ทรา	-10.4508
แอนนา	-10.451
แน่ะ	-10.451
พ่อผม	-10.4512
ฟื้นฟู	-10.4516
อนุภาค	-10.4516
เชื่อถือ	-10.4518
สท์	-10.4518
ทส์	-10.452
เฮลิ	-10.4521
พึ่ง	-10.4522
23	-10.4526
บ้าบอ	-10.4527
▁แช	-10.4537
เบอร์ลิน	-10.455
ขนาดไหน	-10.4552
เตา	-10.4557
▁ใครจะ	-10.456
▁มอร์	-10.4561
ซิม	-10.4565
ออส	-10.4567
โซล	-10.4576
เชีย	-10.4576
ประดิษฐ์	-10.4579
พิทักษ์	-10.4579
หลอกลวง	-10.4579
▁ฉันจะไป	-10.4581
▁ฉันเห็น	-10.4582
สุภาพ	-10.4582
ปัด	-10.4583
มืออาชีพ	-10.4591
คุณน่าจะ	-10.4591
ที่ท่าน	-10.4593
ของหนู	-10.4596
คลั่ง	-10.46
▁ถูกไหม	-10.4608
เบอ	-10.4614
โอ๊ย	-10.462
ฟ้องร้อง	-10.462
▁64	-10.4624
อีกหลาย	-10.4627
จะยอม	-10.4632
เขาต้อง	-10.4637
▁ชิ	-10.4637
คร	-10.4639
หงุดหงิด	-10.4643
เซรีน่า	-10.4643
▁โซ	-10.4644
ย้ายมา	-10.4645
อพาร์ทเม	-10.4645
เพราะถ้า	-10.4645
สันติภาพ	-10.4646
ฉี่	-10.4649
ปิดบัง	-10.4651
วันนึง	-10.4655
▁ภรรยา	-10.4657
▁คู	-10.4659
ทางนี้	-10.466
มาเพื่อ	-10.4664
วเคลียร์	-10.4665
▁เค้า	-10.4666
ลงไปใน	-10.4667
คุณแม่	-10.4669
ธี	-10.4669
กับผู้	-10.467
▁อัลเลน	-10.4673
▁ถ้	-10.4674
▁54	-10.4679
คนขับ	-10.4679
สกี	-10.4679
ราชการ	-10.4683
ห่างไกล	-10.4685
▁56	-10.4685
โดนจับ	-10.4686
เดอร์สัน	-10.4687
▁ถ้าเป็น	-10.4689
คัล	-10.469
เต็มใจ	-10.4691
ชื่อดัง	-10.4692
▁ลุง	-10.4692
เล่าให้	-10.47
▁ผอ	-10.4706
▁กว่าจะ	-10.4706
ทศวรรษ	-10.4708
ทย์เลอร์	-10.4708
หอม	-10.4709
ลเลอร์	-10.471
สหาย	-10.4713
ทําไมไม่	-10.4714
นิดๆ	-10.4719
วู	-10.4723
ตรงหน้า	-10.4724
มัว	-10.4725
ตต์	-10.473
นักฆ่า	-10.4732
สลาย	-10.4733
ก้าวหน้า	-10.4736
ซิก	-10.4737
ล้ํา	-10.4737
อีกเลย	-10.474
คนตาย	-10.4746
▁ไร้	-10.4748
ว่าฉันจะ	-10.4753
ครัว	-10.4756
▁ภ	-10.4757
▁กรีน	-10.476
ทั	-10.4761
เขาอาจจะ	-10.4762
อือ	-10.4762
ย้อน	-10.4764
ฐก	-10.4765
ใ	-10.4771
งานวิจัย	-10.4772
ฟิสิกส์	-10.4772
รรพบุรุษ	-10.4772
เยอะแยะ	-10.4772
ผ่อนคลาย	-10.4773
ยังต้อง	-10.4773
คุ้นเคย	-10.4774
▁แต่มี	-10.4776
เฮน	-10.4778
งบ	-10.4779
รีบไป	-10.4781
ยังไงก็	-10.4781
ตนเอง	-10.4781
ชายหาด	-10.4782
โน่น	-10.4792
ตรี	-10.4792
ครี	-10.4792
▁เลยนะ	-10.4797
ซุน	-10.4797
จับมือ	-10.4804
นิส	-10.4806
คิดอะไร	-10.4807
เราพบ	-10.4807
▁นิว	-10.481
▁เขต	-10.4811
อยู่ตรง	-10.4812
เป็นหนี้	-10.4815
▁และผมก็	-10.4818
เป๊ะ	-10.4819
มาให้ฉัน	-10.4822
▁ริชาร์ด	-10.4823
บุกเข้า	-10.4824
▁แต่กลับ	-10.483
ที่รู้	-10.4832
แดเนียล	-10.4833
คุ้ม	-10.4833
แม็กซ์	-10.4834
▁กู	-10.4835
บิ๊ก	-10.4835
ครรภ์	-10.4838
อาวุโส	-10.4838
โจโฉ	-10.4838
ฤดูกาล	-10.4838
อึ๊บ	-10.4838
ดับเพลิง	-10.4839
สารเลว	-10.484
ข่าวดี	-10.4845
คําร้อง	-10.4846
▁จําได้	-10.4847
คอนเนอร์	-10.4852
้า	-10.4854
ถือเป็น	-10.4854
▁อ้อ	-10.486
จับได้	-10.4864
ไม่ค่ะ	-10.4871
คลาส	-10.4874
เธอมี	-10.4876
เลี้ยว	-10.4876
▁ไฟ	-10.4878
บัล	-10.4881
▁จอร์แดน	-10.4884
ทุกปี	-10.4884
▁ให้เป็น	-10.4884
รูปร่าง	-10.4885
ทุกคืน	-10.4893
ลูกพี่	-10.4894
โลกนี้	-10.4896
ขัน	-10.4902
แคลร์	-10.4906
ไม่พอใจ	-10.4909
คุณบอก	-10.4918
ซุก	-10.4921
ทีละ	-10.4927
พีท	-10.4927
อยากเป็น	-10.4935
ัว	-10.4939
เลิฟ	-10.4945
▁มม	-10.4949
เอ๊ย	-10.4951
ชัค	-10.4953
เราจะไม่	-10.4955
ยุน	-10.4956
ทั้งโลก	-10.4957
มีผู้ชาย	-10.4958
ใช้ได้	-10.4961
สาบาน	-10.4964
มองว่า	-10.4966
็น	-10.4966
▁ก้าว	-10.4967
ช็อต	-10.497
คณิต	-10.497
ได้ยินมา	-10.497
จับตาดู	-10.497
เนื้องอก	-10.4971
ปรับปรุง	-10.4972
สีเขียว	-10.4972
ผมแค่	-10.4973
เซ่น	-10.4973
ซอส	-10.4976
เกน	-10.4978
คาร์ล	-10.4979
ไว้ว่า	-10.4981
มือปืน	-10.4984
โอกาสที่	-10.4984
▁หญิง	-10.4989
สํานึก	-10.4989
▁ฉันได้	-10.4993
เราจะไป	-10.4998
▁แล้วเธอ	-10.4998
มึง	-10.4999
ต้องให้	-10.5
้ก	-10.5002
ยี่สิบ	-10.5008
โตขึ้น	-10.5009
ที่หนึ่ง	-10.5016
ตอนนี้ผม	-10.5016
เรียกมัน	-10.5024
▁บลา	-10.5025
หม่อมฉัน	-10.5037
ผมรู้จัก	-10.5039
มิตรภาพ	-10.5043
กั้	-10.5044
ก็ถูก	-10.5044
คอส	-10.5044
สลับ	-10.5045
▁ตัด	-10.5047
วัล	-10.5048
นี่ก็	-10.5049
อ่าว	-10.5049
นี้แหละ	-10.5049
▁เจค	-10.5057
ซื่อ	-10.5057
กวาง	-10.5059
หายาก	-10.5062
อาจมี	-10.5064
พาร์	-10.5069
▁ให้ตาย	-10.507
กํา	-10.507
เราไม่มี	-10.5071
ช่วงนี้	-10.5085
แนน	-10.5089
มาทํา	-10.5095
ด้วยว่า	-10.5099
▁นอน	-10.5099
ท่อน	-10.5103
กลยุทธ์	-10.5104
โน้มน้าว	-10.5104
ชุมนุม	-10.5104
เก็บเงิน	-10.5104
แล้วค่อย	-10.5104
เยอะเลย	-10.5106
บ็อบบี้	-10.5107
มาตรา	-10.5108
▁คูเปอร์	-10.5109
วิคเตอร์	-10.5109
ไนท์	-10.5114
คนใน	-10.5116
เกต	-10.5116
เธญเธตเธ	-10.5118
มันอาจ	-10.5118
ถ้าแก	-10.5122
เวียน	-10.5123
อิล	-10.5123
เห็นคุณ	-10.5125
กรุณา	-10.5125
คําให้	-10.513
ในคืนนี้	-10.5132
สลัด	-10.5132
พูดจริง	-10.5136
▁ไม่ให้	-10.5138
▁ที่นาย	-10.5139
เธชเธฑเธ	-10.5141
ตรวจดู	-10.5147
ผมเจอ	-10.515
▁วิน	-10.5153
ไปบอก	-10.5155
เช็ด	-10.5158
▁เล่ม	-10.5159
ตอนบ่าย	-10.516
ถ้างั้น	-10.5161
ฟ์	-10.5162
เห็นเขา	-10.5165
แคมป์	-10.5167
ผลัก	-10.5171
ประโยค	-10.5171
สะดวก	-10.5171
▁เกม	-10.5172
เธีย	-10.5173
ในหัว	-10.5174
โจอี้	-10.5174
หุบเขา	-10.5175
อัพ	-10.5179
ละกัน	-10.5185
▁62	-10.5187
จะออก	-10.5191
ได้บ้าง	-10.5191
ให้เห็น	-10.5191
คนดัง	-10.5193
ข้าศึก	-10.5194
เกราะ	-10.5197
ศาสตร	-10.5207
▁เพื่อจะ	-10.5211
ขอโทษที่	-10.5212
▁ฉันคิด	-10.5212
บล็อก	-10.5214
มาร์ก	-10.5232
ในสงคราม	-10.5235
ดาวน์	-10.5235
ค้ายา	-10.5239
เย็บ	-10.5239
สอด	-10.5239
สะเทือน	-10.5239
สารวัตร	-10.5239
อนเสิร์ต	-10.5239
พิธภัณฑ์	-10.5239
ทักทาย	-10.5239
ผลักดัน	-10.524
เจฟฟ์	-10.5243
เมฆ	-10.5246
ห้าง	-10.5247
ดิ๊ก	-10.5248
โชคร้าย	-10.5248
เป็นบ้า	-10.5248
▁ฟิ	-10.5252
16	-10.5257
สะกด	-10.5259
▁อย่าทํา	-10.5259
แซ	-10.526
ฅ	-10.5261
ผู้ร้าย	-10.5262
▁โดยมี	-10.5263
เวีย	-10.5263
วงโคจร	-10.5265
เดือนที่	-10.5267
ปรากฏว่า	-10.5273
เพนนี	-10.5274
จะจัดการ	-10.5275
บนเรือ	-10.5275
▁ฉันชื่อ	-10.5278
▁86	-10.528
พ่น	-10.528
ปะทะ	-10.5281
▁ซอล	-10.5288
เองนะ	-10.5292
ฉันก็เลย	-10.5292
ทุบ	-10.5295
ห้านาที	-10.5295
ใครก็ได้	-10.5296
นีล	-10.5296
เลค	-10.5297
สองวัน	-10.5298
ที่อื่น	-10.5298
▁ควีน	-10.5298
ให้โอกาส	-10.5299
ศีลธรรม	-10.5308
เธอมา	-10.5308
ข่มขู่	-10.5308
บุคลิก	-10.5308
ท่านพ่อ	-10.5309
อะพาร์	-10.531
ฤดูหนาว	-10.5312
หมัด	-10.5314
มิลเลอร์	-10.5318
▁ถ้ามัน	-10.5318
เป็นแม่	-10.532
▁เวสต์	-10.5328
คล้ายๆ	-10.5328
ผมได้รับ	-10.5338
อลิซ	-10.534
ธง	-10.5342
▁110	-10.5342
▁หวังว่า	-10.5343
ตกเป็น	-10.5346
ี่ยวข้อง	-10.5347
สัง	-10.5355
มันดู	-10.5356
ไม่ผิด	-10.5357
ฉันจะทํา	-10.5357
นี่เอง	-10.5363
ในเขต	-10.5364
เบีย	-10.5366
ต้องรอ	-10.5367
สี่คน	-10.5373
ไปเรื่อย	-10.5375
มวล	-10.5376
จิ๋ว	-10.5377
ศีรษะ	-10.5377
ออกนอก	-10.5378
ซุป	-10.5379
ภาพวาด	-10.5382
▁57	-10.5385
รถบัส	-10.5386
เขาชื่อ	-10.5389
▁01	-10.539
คู่รัก	-10.5391
ไม่ทํา	-10.5392
เขาเคย	-10.5393
ถ้าไม่	-10.5399
ของเด็ก	-10.5402
หน้าร้อน	-10.5404
คนต่อไป	-10.5405
เราอาจจะ	-10.541
เหงื่อ	-10.541
ส่งไป	-10.5411
คเกอร์	-10.5419
เนียน	-10.542
แบก	-10.5421
90	-10.5421
บ่อยๆ	-10.5424
กระทบ	-10.5425
เรด	-10.5428
สิ่งนั้น	-10.5428
▁จํานวน	-10.5429
วาร์	-10.5429
แซน	-10.543
มาเลย	-10.5431
ขนส่ง	-10.5432
เทียน	-10.5432
คุณหมอ	-10.5433
เอมี่	-10.5434
โรมัน	-10.544
อดัม	-10.5441
ทีมงาน	-10.5442
จะหยุด	-10.5443
เนล	-10.5446
วินิจฉัย	-10.5446
ซนติเมตร	-10.5446
เว็บไซต์	-10.5446
เพื่อนผม	-10.5449
ส่วนร่วม	-10.545
ลิฟต์	-10.5454
เดิมพัน	-10.5457
ฟอ	-10.5459
▁ฮิ	-10.5464
▁เพลง	-10.5466
นําทาง	-10.5467
อิง	-10.5467
ห้องสมุด	-10.5468
▁เจ้าของ	-10.5471
รับเงิน	-10.5473
เทส	-10.5477
ทัก	-10.5479
ที่คน	-10.5481
หง	-10.5484
สัญญากับ	-10.5484
ผู้หมวด	-10.5486
ถ้าหาก	-10.5489
ฮิว	-10.5489
▁เธฅเธข	-10.5491
▁2000	-10.5492
ให้แก	-10.5495
ประทาน	-10.5496
งเน	-10.55
17	-10.5503
๘	-10.5505
รับทราบ	-10.5509
ที่เรามี	-10.5516
เปื้อน	-10.5516
แอตแลนติ	-10.5516
ทวีป	-10.5516
ไก	-10.5516
เว้น	-10.5516
กระดาน	-10.5517
มีข้อมูล	-10.5523
ขออภัย	-10.5524
ทูต	-10.5525
เนอะ	-10.5526
เกิดความ	-10.5527
ยัน	-10.5529
ไวท์	-10.553
ขอโทษค่ะ	-10.553
เขาว่า	-10.5531
นอร์ธ	-10.5531
แท้ๆ	-10.5537
▁ผู้คน	-10.5538
เอางี้	-10.5538
ทายาท	-10.5541
แถบ	-10.5543
เสียงดัง	-10.5545
ให้เจ้า	-10.5546
วาล	-10.5548
เเละ	-10.5549
ไม่ได้ผล	-10.5549
โรว์	-10.5552
แบรด	-10.5554
แต่พอ	-10.5555
▁แบบที่	-10.5557
คิดยังไง	-10.556
มาทํางาน	-10.5563
เก่าแก่	-10.5564
ลาดตระเว	-10.5565
ตอนผม	-10.5573
ไว้แล้ว	-10.5573
ฉันคือ	-10.5573
ผมยัง	-10.5575
มากนัก	-10.5576
ถิ่น	-10.558
ตัวคุณ	-10.5582
อุ้ม	-10.5585
กรอบ	-10.5586
หมกมุ่น	-10.5586
แบ่งปัน	-10.5587
ชันสูตร	-10.5587
ไปซื้อ	-10.559
เธอรู้	-10.5591
ดั่ง	-10.5591
▁ถ้ามี	-10.5592
การก่อ	-10.5595
ปีน	-10.5602
บรรทุก	-10.5602
▁ซม	-10.5606
ร้องขอ	-10.5609
บิด	-10.5611
27	-10.5611
เป็นหมอ	-10.5615
ักรพรรดิ	-10.562
เยอะๆ	-10.5624
▁พระ	-10.5626
ใช่สิ	-10.5627
ลิ่ง	-10.5628
ไรก็ตาม	-10.5634
นานๆ	-10.5635
รวด	-10.5635
กองทหาร	-10.5637
▁ปา	-10.5641
แผ่	-10.5646
ผง	-10.5651
จะทําลาย	-10.5651
คนที่มี	-10.5654
อิสรภาพ	-10.5657
สุสาน	-10.5658
แกรนด์	-10.5658
ยั	-10.5658
แปล	-10.5659
ไซค์	-10.566
อุดม	-10.5663
ชมรม	-10.5663
วาร์ป	-10.567
แต่คุณ	-10.567
ฆ	-10.567
▁เลขที่	-10.5671
มิด	-10.5673
สว่าง	-10.5678
ก๊าซ	-10.5678
โคลน	-10.5683
ขึ้นศาล	-10.5684
▁เมอร์	-10.5685
▁ถ้าเกิด	-10.5686
ใส	-10.5687
ในชื่อ	-10.5688
ทําเป็น	-10.5689
ซิ่ง	-10.5693
บอกอะไร	-10.5694
▁กองทัพ	-10.5696
ฉันคง	-10.5699
▁จิม	-10.5704
▁คุณอาจ	-10.5706
วันแรก	-10.5706
ช่วยผม	-10.5708
▁และยัง	-10.5714
แฟนเก่า	-10.5714
ดัก	-10.5724
ไหนก็ได้	-10.5727
ที่สถานี	-10.5729
เซียน	-10.5729
บัลลังก์	-10.5729
อ้วก	-10.5729
โชค	-10.5733
ตายใน	-10.5734
เขาอยาก	-10.5734
มาร์คัส	-10.5735
เจนนี่	-10.5737
▁ซึ่งมี	-10.5739
ใหญ่กว่า	-10.5741
เลดี้	-10.5745
จากความ	-10.5746
กรุง	-10.5748
อึน	-10.5749
ของความ	-10.5749
▁คือว่า	-10.5749
จากโลก	-10.5752
ฮาน	-10.5752
▁มอ	-10.5753
▁ไปกัน	-10.5754
▁โท	-10.5755
ลักษณ์	-10.5757
▁มันต้อง	-10.5764
ขอรับ	-10.5765
▁แค่นั้น	-10.5765
โฮล	-10.5766
ขํา	-10.5772
กระบอก	-10.5775
▁ว่ามัน	-10.5776
▁ถ	-10.5782
ทริ	-10.5785
เน่า	-10.5788
▁ค่อยๆ	-10.5792
ลับๆ	-10.5794
พิ่มเติม	-10.5797
▁ดอน	-10.5797
โดนัลด์	-10.5801
โรแมนติก	-10.5801
แคนาดา	-10.5801
กอล์ฟ	-10.5801
คอปเตอร์	-10.5802
มากว่า	-10.5802
มันอยู่	-10.5802
แผง	-10.5806
▁ฉบับ	-10.5807
ว่าถ้า	-10.5808
เลียนแบบ	-10.581
กันเอง	-10.5813
ทอมมี่	-10.5819
คริสต์	-10.5819
▁ฮู	-10.5825
ผู้มี	-10.5831
ก็น่าจะ	-10.5833
เอาตัว	-10.5844
อัส	-10.5844
แนวคิด	-10.5845
▁ฟิล	-10.5848
▁บ้า	-10.5849
เฉียง	-10.585
มันถูก	-10.5853
▁ปิด	-10.5854
็อกโกแลต	-10.5862
นุษยชาติ	-10.5865
อพาร์ตเม	-10.5866
ายพันธุ์	-10.5866
ฮาร์ท	-10.587
แบล็ค	-10.5873
ทรัพยากร	-10.5873
อัลบั้ม	-10.5873
เวียดนาม	-10.5873
โน้ต	-10.5873
เมล็ด	-10.5874
การช่วย	-10.5874
เข้มแข็ง	-10.5874
คู่แข่ง	-10.5874
ชดใช้	-10.5876
เดม่อน	-10.5876
ผมเพิ่ง	-10.5881
คุณยาย	-10.5886
▁เราอาจ	-10.5887
▁หนุ่ม	-10.5888
แทบจะ	-10.589
13	-10.5891
▁เดวิส	-10.5893
ออกเสียง	-10.5894
สามีฉัน	-10.5894
▁นาน	-10.5899
▁โดยใช้	-10.5899
่น	-10.59
สแตน	-10.5905
ถูกสร้าง	-10.5907
ไม่กล้า	-10.5907
ลูกขุน	-10.5908
ต่อรอง	-10.5916
เขาให้	-10.5916
จะไม่ยอม	-10.5921
มันยัง	-10.5921
ฉันจํา	-10.5924
▁ห่างจาก	-10.5924
ในร้าน	-10.5929
ถา	-10.593
▁ในเมือง	-10.5931
รับเชิญ	-10.5934
▁เอช	-10.5936
จ่ายให้	-10.5936
▁ผมเห็น	-10.5936
มัส	-10.5937
ชายผู้	-10.5943
อยากไป	-10.5946
นิรภัย	-10.5946
บาดแผล	-10.5947
▁ไซ	-10.5953
สละ	-10.5958
ฉันจะไป	-10.596
ลองดู	-10.5961
ฉันรัก	-10.5963
▁58	-10.5963
กบฏ	-10.5964
ลิม	-10.5965
เจตนา	-10.5968
▁อเล็กซ์	-10.5969
แทบไม่	-10.597
ไปงาน	-10.5971
ในระยะ	-10.5972
ร้อยละ	-10.5976
▁คนใน	-10.5977
คนๆ	-10.5977
▁ก็เพราะ	-10.5978
▁เขาต้อง	-10.5987
ไปช่วย	-10.599
เพอร์	-10.599
เวท	-10.5992
ฉันไม่สน	-10.5997
เธออาจ	-10.5998
งเธฒเธก	-10.6
โลว์	-10.6003
เสน่ห์	-10.6006
เดีย	-10.6008
ที่เก่ง	-10.6009
ที่พัก	-10.6015
เทียม	-10.6016
กลืน	-10.602
กําพร้า	-10.602
เบ็ตตี้	-10.602
เศรษฐี	-10.602
ดิบ	-10.6022
มาหลาย	-10.6023
เชียวนะ	-10.6023
▁เกรย์	-10.6024
ประดับ	-10.6024
ขุนนาง	-10.6025
ใบอนุญาต	-10.6028
กลับเข้า	-10.6029
มารวมตัว	-10.6032
▁ระดับ	-10.6032
ตามใจ	-10.6037
เซส	-10.6037
หลังคา	-10.6046
ไหม้	-10.6052
ถ้าเกิด	-10.6063
จะมีการ	-10.6064
มอบให้	-10.6067
▁พบ	-10.6067
ช่วยกัน	-10.6068
▁วิลสัน	-10.6069
▁น้องชาย	-10.6071
พวกที่	-10.6073
เฮเลน	-10.6075
เธขเธฒเธ	-10.6076
▁วิธี	-10.6082
มารับ	-10.6083
นิดเดียว	-10.6085
แหลม	-10.6086
น้ําตา	-10.6089
▁เขาอยู่	-10.609
ร็อด	-10.609
หัด	-10.6092
โชคชะตา	-10.6094
เผยแพร่	-10.6094
▁หน	-10.6095
ห่วยแตก	-10.6096
ซัมเมอร์	-10.6101
ค่าเช่า	-10.6105
สภาวะ	-10.6107
เล็ต	-10.6109
ต้องเจอ	-10.6114
วาฬ	-10.6116
ระยะเวลา	-10.6117
ผู้อื่น	-10.6117
▁ฉันรัก	-10.6117
บอส	-10.6121
แกล้งทํา	-10.6122
ริล	-10.6123
มาเฟีย	-10.6128
มีเซ็กซ์	-10.6132
▁แถว	-10.6133
วัต	-10.6134
พุ	-10.6136
เธออยาก	-10.6138
ที่ถนน	-10.6139
▁คงไม่	-10.6144
เท่	-10.6144
▁คู่	-10.6154
น่ะค่ะ	-10.6154
นด์	-10.6159
ลัส	-10.616
บัดนี้	-10.6161
เฮ่	-10.6161
อิ่ม	-10.6163
นิโคล	-10.6167
แป๊บ	-10.6167
เผื่อ	-10.6168
▁ข้าก็	-10.6168
ซอมบี้	-10.6168
ัตโนมัติ	-10.6168
เวิลด์	-10.6168
เชลดอน	-10.617
ผิวหนัง	-10.6172
สาวน้อย	-10.6174
▁โน	-10.6175
นักร้อง	-10.6176
เทิล	-10.6182
▁แล้วเขา	-10.6183
ใบไม้ผลิ	-10.6188
ล้วน	-10.6191
ผา	-10.6194
เป็นมิตร	-10.6194
มีตัวตน	-10.6198
ต้องบอก	-10.62
ฮอล	-10.62
เธอทํา	-10.6202
ผมจําได้	-10.6208
และผม	-10.6208
เธฃเธญเธ	-10.6211
ฮัล	-10.6214
▁มู	-10.6215
ศิษย์	-10.6216
ภา	-10.6217
แม็ก	-10.622
อยู่เลย	-10.6222
พ่อหนุ่ม	-10.6223
▁ฟัน	-10.6223
แบบที่	-10.6224
รปภ	-10.6225
ดีซี	-10.6229
นี่ไง	-10.6231
ดําน้ํา	-10.6232
ักรวรรดิ	-10.6233
นาม	-10.6241
โทรทัศน์	-10.6244
ผู้คุม	-10.6245
ซัม	-10.6245
แหง	-10.6247
คนขาว	-10.6249
ทําไมล่ะ	-10.6251
ซวย	-10.6252
▁เราจะไป	-10.6253
ไอ้บ้า	-10.6253
หาวิธี	-10.6256
โกดัง	-10.6258
บอนนี่	-10.6259
▁รอย	-10.6261
จอน	-10.6264
ธรรมเนีย	-10.6266
▁ค่อย	-10.6269
ฉันจะบอก	-10.627
มอนต์	-10.6272
จิง	-10.6273
ลัก	-10.6273
ไพ	-10.6275
ฟอร์	-10.6276
พวกเค้า	-10.6278
ต่างจาก	-10.6283
ไว้ได้	-10.6284
เด็กชาย	-10.6284
แล้วค่ะ	-10.6285
▁เรายัง	-10.6286
มิสเตอร์	-10.6287
▁ดึง	-10.6287
ไปเรียน	-10.629
ในคดี	-10.6294
ออกอากาศ	-10.6294
ตรงกลาง	-10.6296
เทศ	-10.6297
ส่งตัว	-10.6301
▁อะไรก็	-10.6302
สมรส	-10.6303
ภักดี	-10.6303
นิ่งๆ	-10.6304
สวยมาก	-10.6307
ท่านจะ	-10.6308
ในรายการ	-10.6314
ให้อภัย	-10.6314
สาหัส	-10.6319
อียิปต์	-10.6319
ม้วน	-10.632
โธมัส	-10.632
อับอาย	-10.632
ถึงจุด	-10.632
เผลอ	-10.632
ยกย่อง	-10.632
เกรงว่า	-10.632
นายท่าน	-10.6324
คุณพ่อ	-10.6328
ฝา	-10.6331
เด้ง	-10.6333
▁ต้องมี	-10.6334
ตกแต่ง	-10.6339
บนโต๊ะ	-10.6339
▁ไปหา	-10.6341
▁อ่า	-10.6342
▁มีใคร	-10.6343
หาเสียง	-10.6345
ดัล	-10.6346
สาบานได้	-10.6346
ขับไล่	-10.6349
แพน	-10.635
▁รุ่น	-10.6354
77	-10.6355
อย่างไม่	-10.6356
มีมูลค่า	-10.636
▁จะมา	-10.6361
วิช	-10.6362
▁โก	-10.6364
ธรรม	-10.6366
คลอ	-10.6371
คนดํา	-10.6372
ยานอวกาศ	-10.6378
กี่คน	-10.638
ก็จะได้	-10.6382
▁กา	-10.6387
▁ถูกต้อง	-10.6388
ให้เกิด	-10.6391
▁พาร์ค	-10.6392
อฟ	-10.6392
เป็นร้อย	-10.6395
กะโหลก	-10.6396
อิจฉา	-10.6396
โอลิมปิก	-10.6396
เปิดโปง	-10.6396
มั่น	-10.6397
ผมอายุ	-10.64
▁๘	-10.6408
▁เฮนรี่	-10.6412
21	-10.6412
ดอง	-10.6413
ผมชอบ	-10.6416
นัส	-10.6416
ที่ยอด	-10.6416
▁เขาบอก	-10.6418
ขอแค่	-10.6422
มั้ยคะ	-10.6427
เธงเธขเธ	-10.6429
▁130	-10.643
ผมเลย	-10.6431
▁ฉันก็จะ	-10.6438
ลินดา	-10.6442
ทุกคนใน	-10.6447
จะได้ไม่	-10.6451
รี้ด	-10.6451
บะ	-10.6452
บนพื้น	-10.6456
ราก	-10.6459
ไม่ได้นะ	-10.646
พื้นดิน	-10.6469
ช่างเถอะ	-10.6469
วงจร	-10.6471
บรรจุ	-10.6473
ประหยัด	-10.6473
อักเสบ	-10.6473
อารยธรรม	-10.6473
ผจญภัย	-10.6473
▁ผล	-10.6475
วุ	-10.6475
สติแตก	-10.6476
▁ในคดี	-10.6476
ที่บาร์	-10.6482
นางฟ้า	-10.6484
เอกชน	-10.6488
ในขณะ	-10.6492
ไล่ล่า	-10.6497
แจก	-10.6499
ดจ์	-10.6503
มั่ง	-10.6507
โพร	-10.6508
รอรี่	-10.6512
เห็นภาพ	-10.6514
เดส	-10.6517
สันหลัง	-10.6522
แอง	-10.6523
▁กับอีก	-10.6523
แต	-10.6525
ทางหลวง	-10.6526
▁ซึ่งจะ	-10.6527
นซ์	-10.6529
จะปล่อย	-10.653
มันไม่มี	-10.6531
สายเลือด	-10.6532
ทําพลาด	-10.6536
มาพบ	-10.6536
เกมส์	-10.6537
แม่จะ	-10.6538
คุณคือ	-10.6541
▁จริงไหม	-10.6543
ลืมไป	-10.6544
ดส์	-10.6544
นวด	-10.6547
ต่อการ	-10.6547
แอด	-10.6549
ปราสาท	-10.655
บัค	-10.655
อึดอัด	-10.655
▁ไรอัน	-10.6552
พับ	-10.6554
ซานฟราน	-10.6555
แห่งการ	-10.6557
สิ้นหวัง	-10.6557
▁เราควร	-10.6558
ผมพยายาม	-10.6558
เขาบอก	-10.6558
ดอกเตอร์	-10.6559
ขนาดเล็ก	-10.656
▁เราเลย	-10.6562
ทําให้คน	-10.6566
▁ขา	-10.6567
เธญเธ	-10.6568
ยากที่จะ	-10.6574
ลูซี่	-10.6575
เบอร์รี่	-10.6575
เวิร์	-10.6578
สูท	-10.6579
คิดว่าจะ	-10.6579
พ่อจะ	-10.6584
ต้าน	-10.6586
กินส์	-10.6589
เบาๆ	-10.6591
เบส	-10.6598
แคส	-10.6599
อรุณ	-10.66
นี่นา	-10.66
▁แล้วเอา	-10.6602
พก	-10.6602
การค้นหา	-10.6603
เขาชอบ	-10.6604
นี้เป็น	-10.6606
กฏ	-10.6607
ตัวฉัน	-10.6608
นายไม่	-10.6611
หมั้น	-10.6612
อีกรอบ	-10.6614
หญ้า	-10.6615
พวกเขามี	-10.6619
▁แต่นี่	-10.662
▁ลูเธอร์	-10.6622
เสี้ยว	-10.6625
เกณฑ์	-10.6625
ตอนตี	-10.6626
ท่านส	-10.6626
ทบทวน	-10.6628
อัศวิน	-10.6628
เหลี่ยม	-10.6628
หลากหลาย	-10.6628
งานศพ	-10.6629
▁ลัย	-10.6629
โอลิเวีย	-10.6629
เธฅเธนเธ	-10.6629
ไบรอัน	-10.663
สก็อตต์	-10.6632
ไม่จริง	-10.6632
ดูแล้ว	-10.6635
▁ยัย	-10.6638
▁สถานที่	-10.6639
▁คุณทํา	-10.6649
จีบ	-10.665
เบลล์	-10.6651
หาด	-10.6651
ฉันชื่อ	-10.6651
เจออะไร	-10.6651
▁ก็คง	-10.6652
ตัวอักษร	-10.6652
น่าสงสัย	-10.6653
แกรี่	-10.6653
ผมอยากจะ	-10.6656
▁บัดนี้	-10.6657
▁59	-10.6658
ผบ	-10.6665
▁ยังมี	-10.6667
ุย	-10.667
พอร์ต	-10.6672
ครอส	-10.6672
ก่อเหตุ	-10.6673
ถูกส่ง	-10.6676
และคุณ	-10.6679
ดีแล้ว	-10.6679
ณะลูกขุน	-10.668
ซื้อของ	-10.6686
ฉันอาจจะ	-10.6686
โล่	-10.6689
สกัด	-10.6693
▁ต่าง	-10.67
เรียนจบ	-10.6704
แจ็ก	-10.6705
มากไป	-10.6706
กัญชา	-10.6707
วิศวกร	-10.6707
ซีอีโอ	-10.6707
รั้ว	-10.6707
ว่าเธอจะ	-10.6709
คืบหน้า	-10.6709
เสรีภาพ	-10.6711
ควรทํา	-10.6711
ม๖	-10.6714
โค้ง	-10.6714
ไลท์	-10.6716
จุดจบ	-10.6716
เจมี่	-10.6716
รุก	-10.6716
พวกมันจะ	-10.6721
กันไป	-10.6722
มาร์ตี้	-10.6726
พวกคน	-10.6727
เพิ่งจะ	-10.6728
รอสส์	-10.6728
เกอ	-10.6728
▁ปีแสง	-10.6731
เฉิน	-10.6733
รุม	-10.6735
▁โมงเย็น	-10.6737
▁โอ๊ย	-10.6738
คียงข้าง	-10.6741
ถ้ามี	-10.6751
ชีวิตที่	-10.6752
พากัน	-10.6755
เคย์	-10.6756
ร่างของ	-10.6763
ลั	-10.6768
▁ถ้าหาก	-10.6769
แค่นี้	-10.677
▁ไหนๆ	-10.6774
กลาย	-10.6782
วิกฤต	-10.6785
แจ๋ว	-10.6786
การ์ตูน	-10.6786
้ร่วมคิด	-10.6786
พลเรือน	-10.6787
ลังเล	-10.6789
ถูกขัง	-10.6791
เจสซี่	-10.6792
เปียก	-10.6794
เคยคิด	-10.6794
เรียบ	-10.6796
▁160	-10.6799
ดูถูก	-10.68
▁เวร	-10.6807
ตัวน้อย	-10.6807
ผลไม้	-10.6807
เวที	-10.6811
รั	-10.6815
เราอาจ	-10.6816
▁ลุค	-10.6817
▁ซาน	-10.682
▁350	-10.682
เข้าหา	-10.6821
ฮัลโหล	-10.6822
▁ก็ยัง	-10.6824
หลักการ	-10.6824
ตอบโต้	-10.6826
อีกหนึ่ง	-10.6838
ธ์	-10.684
ชเว	-10.6841
อ้า	-10.6845
▁87	-10.6853
ปรับตัว	-10.6854
ทัล	-10.6855
เองก็	-10.6855
โซน	-10.6857
รักคุณ	-10.6858
เลือดออก	-10.6859
47	-10.686
แล่น	-10.6863
อ่า	-10.6864
สะท้อน	-10.6866
พยากรณ์	-10.6866
ปราศจาก	-10.6866
แป้ง	-10.6867
ได้อยู่	-10.6869
คทเธอรีน	-10.6876
เรียกเขา	-10.6877
มีเสน่ห์	-10.6882
ต่างชาติ	-10.6883
▁แต่นั่น	-10.6884
ใส่เสื้อ	-10.6887
เคท	-10.6888
วิ่งไป	-10.6888
▁นํา	-10.6889
ทรอย	-10.6891
กวาด	-10.6891
มื	-10.6891
ิก	-10.6901
เห็นไหม	-10.6905
อิรัก	-10.6909
▁น้องสาว	-10.691
ข้ออ้าง	-10.6912
บินไป	-10.6914
ประชา	-10.6915
เบรน	-10.6916
เราใช้	-10.6918
▁โทนี่	-10.6918
ทํานอง	-10.692
บอกตรงๆ	-10.6922
ก็ไม่ใช่	-10.6924
ตรวจพบ	-10.6925
ดะ	-10.6926
็อท	-10.6929
มาเจอ	-10.693
มารยาท	-10.6935
เป็นความ	-10.6938
ลิป	-10.6941
แร่	-10.6945
ลัทธิ	-10.6947
นานาชาติ	-10.6947
สโมสร	-10.6947
▁เป็นผู้	-10.6948
ลอร่า	-10.695
โว้ย	-10.695
สับ	-10.6951
อ่ะ	-10.6951
ฉายา	-10.6952
แมก	-10.6955
ใครจะ	-10.6959
มัวแต่	-10.6965
ลงคะแนน	-10.6966
ผ่านทาง	-10.6966
คอยดู	-10.6967
▁จะไป	-10.6967
▁ลุกขึ้น	-10.697
ยากจน	-10.6975
เลิกกัน	-10.6976
รักกัน	-10.698
รถตู้	-10.698
มอบหมาย	-10.698
แอส	-10.6982
ผมเสียใจ	-10.6982
▁นี่แหละ	-10.6983
▁ผมชื่อ	-10.699
กาล	-10.6992
มีรายงาน	-10.6995
มาเยี่ยม	-10.6999
ได้สิ	-10.7004
▁ฟังดู	-10.7007
กเน	-10.7011
ห้องนี้	-10.7012
เหมาะกับ	-10.7013
หรือว่า	-10.7018
▁63	-10.7018
ที่มีต่อ	-10.7023
▁เอ็กซ์	-10.7025
เทีย	-10.7025
ให้คํา	-10.7026
หมดเลย	-10.7027
ทีน	-10.7027
หล่น	-10.7028
ไปเถอะ	-10.7032
รสชาติ	-10.7032
คาดการณ์	-10.7032
คาดเดา	-10.7034
▁140	-10.7036
โตเฟอร์	-10.7036
หยด	-10.7037
รย์มอนด์	-10.7037
เรซ	-10.7045
▁มิส	-10.7045
โลกครั้ง	-10.7046
หักหลัง	-10.7048
สตรีท	-10.7049
ผมได้ยิน	-10.7051
▁และอีก	-10.7051
มาน	-10.7052
หมดสติ	-10.7052
เมื่อไร	-10.7055
▁เหนือ	-10.7056
คาบ	-10.7057
▁เลน	-10.7059
เด่น	-10.706
ีย	-10.7065
ที่เคารพ	-10.7065
แต่เรา	-10.7067
ให้เสร็จ	-10.7067
อีกสอง	-10.7067
▁ไอ้หนู	-10.707
ควีน	-10.7071
▁97	-10.7073
ฮัม	-10.7074
มีเหตุ	-10.7075
▁อย่าให้	-10.7076
ัน	-10.7083
ร้าง	-10.7084
นั่งเล่น	-10.7084
▁เราคง	-10.7086
มีเซ็กส์	-10.7086
ตัวเลือก	-10.7088
ติ้ง	-10.7091
จากคุณ	-10.7092
เชื่อผม	-10.7096
▁วอล	-10.7096
เต้	-10.7099
อินเตอร์	-10.7102
โศก	-10.711
ัญชาตญาณ	-10.711
เซ็นทรัล	-10.711
ระงับ	-10.7111
ซุ่ม	-10.7111
ลอเรล	-10.7111
คอฟ	-10.7112
▁1980	-10.7114
รู้ดี	-10.7114
กลอน	-10.7116
มั	-10.7117
คัส	-10.7118
ลล่า	-10.7127
▁รูป	-10.7133
ชิล	-10.7136
▁จะให้	-10.7137
แฟนๆ	-10.7139
จะนํา	-10.7145
เรียกฉัน	-10.7145
เชื่อเลย	-10.715
ถ่ายทอด	-10.7156
เนียบขาว	-10.7157
นอกเหนือ	-10.7162
ควัน	-10.7164
รีย์	-10.7168
ทนายความ	-10.7168
นอ	-10.7172
ผูกพัน	-10.7173
▁ผมเคย	-10.7174
ึก	-10.7175
เธอบอก	-10.7177
ฃ	-10.718
ขอบคุณนะ	-10.718
โบร	-10.7183
เอริค	-10.7186
ในโลกนี้	-10.7187
ดื้อ	-10.7193
วันพุธ	-10.7193
คิดผิด	-10.7193
ตื้น	-10.7193
จ๋า	-10.7195
แม่ก็	-10.7196
สนุกกับ	-10.7196
ในสภาพ	-10.72
ตัก	-10.72
กระหาย	-10.7201
คุณจะไม่	-10.7202
็ป	-10.7202
เคิร์ก	-10.7202
เดลต้า	-10.7204
พ่อเธอ	-10.7206
ไปตลอด	-10.7212
▁82	-10.7215
หลา	-10.7215
▁รหัส	-10.7216
หาข้อมูล	-10.7219
วิลลี่	-10.7226
เยล	-10.7228
ไปทํา	-10.7229
ความมืด	-10.723
จริงใจ	-10.7241
สองเดือน	-10.7248
ห่า	-10.7248
ชื่อของ	-10.725
▁96	-10.7251
เจอเขา	-10.7255
ในศตวรรษ	-10.7259
พูดจา	-10.7261
ปกติแล้ว	-10.7261
ฌ	-10.7264
คอก	-10.7269
รียกร้อง	-10.727
▁ดวง	-10.7271
▁ขอโทษที	-10.7271
▁แม็ก	-10.7272
ชอว์	-10.7273
ไหมว่า	-10.7274
คลา	-10.7274
ทารุณ	-10.7276
บันเทิง	-10.7276
เหวี่ยง	-10.7276
โสเภณี	-10.7276
แรงจูงใจ	-10.7279
นั่นไง	-10.7282
อ่าง	-10.7282
ัต	-10.7283
เธชเธธเธ	-10.7286
▁2008	-10.7287
ครั้งนึง	-10.7287
ให้ดู	-10.7288
มีอายุ	-10.7289
ผมจะไม่	-10.7291
▁เขาคง	-10.7295
ที่แสน	-10.7299
ของชาว	-10.7304
เกือบจะ	-10.7304
พรม	-10.7304
เพจ	-10.7305
ปริ	-10.731
เร็วขึ้น	-10.7311
▁แจ็คสัน	-10.7311
การณ์ที่	-10.7313
ส่วนแบ่ง	-10.7314
▁แหม	-10.7315
มีรถ	-10.7317
แล้วเหรอ	-10.7321
ูบบุหรี่	-10.7321
▁วัย	-10.7325
โอ้โฮ	-10.7325
▁ยาน	-10.7327
ทรงพลัง	-10.7327
ดิก	-10.7329
เดินเล่น	-10.7337
ไม่ได้มี	-10.7341
ผ่านการ	-10.7342
▁เยน	-10.7345
ิง	-10.7345
ตรวจจับ	-10.7346
ซอล	-10.7349
กิล	-10.735
เจ๋งๆ	-10.7351
อริ	-10.7355
ก็ช่าง	-10.7356
เข้มข้น	-10.736
สหพันธ์	-10.736
โดดเด่น	-10.7361
สดใส	-10.7361
ปลูกถ่าย	-10.7363
เบิร์ด	-10.7363
ดั๊ก	-10.7365
ให้แม่	-10.7368
น่ะนะ	-10.7372
พิลึก	-10.7372
พึ่งพา	-10.7372
ของดาว	-10.7376
เชื่อใน	-10.7377
หัวข้อ	-10.738
กุ้ง	-10.7383
อาเธอร์	-10.7386
เด็กน้อย	-10.7387
นอนหลับ	-10.7399
ถอยหลัง	-10.74
นับพัน	-10.7401
ด้วยครับ	-10.7403
ลัด	-10.7404
ลุ	-10.7409
เอาเลย	-10.7412
ลอว์	-10.7415
▁ว่าผม	-10.7418
จะมีคน	-10.742
▁ผู้ต้อง	-10.7421
บทที่	-10.7422
ด้านหน้า	-10.7424
ทางอากาศ	-10.7425
000	-10.7426
▁อย่ามา	-10.7429
คนรัก	-10.7432
นานแล้ว	-10.7434
ช่า	-10.744
สงบสุข	-10.7441
▁โรส	-10.7444
▁เเต่	-10.7445
การกุศล	-10.7445
ดั้งเดิม	-10.7445
บกพร่อง	-10.7445
พลาสติก	-10.7445
ครอบคลุม	-10.7445
นิรันดร์	-10.7445
▁แล้วมัน	-10.7448
▁เร็วๆ	-10.7451
เบิก	-10.7455
▁เราจึง	-10.7456
ฝันร้าย	-10.7457
ล่ม	-10.7457
ลอร์	-10.7458
▁2016	-10.7458
มาร์แชล	-10.7458
เด็กที่	-10.7461
ผึ้ง	-10.7462
ต้ม	-10.7464
โม้	-10.7465
วร์	-10.7465
็อก	-10.7466
บทเรียน	-10.7467
รัฐสภา	-10.7469
แอนนี่	-10.747
กลียดชัง	-10.747
ถึงบ้าน	-10.747
เฉียงใต้	-10.7473
หาได้	-10.7476
แค่เพราะ	-10.7477
ถ้าอย่าง	-10.7478
เพราะผม	-10.7482
คุณสองคน	-10.7483
ส่งมา	-10.749
ไม่รอด	-10.7491
เธอพูด	-10.7491
▁ผ	-10.7493
ถูกขโมย	-10.7493
จอดรถ	-10.7494
ับเบิลยู	-10.7495
ตูม	-10.7498
รับโทษ	-10.7504
การเ	-10.7509
ลิฟ	-10.7509
▁เธชเน	-10.751
อาจจะมี	-10.7511
มีเพียง	-10.7511
ต่อจาก	-10.7512
ปืนใหญ่	-10.7517
วอร์ด	-10.7523
แย่กว่า	-10.7527
ยืนหยัด	-10.7531
แซนด์วิช	-10.7531
กาแล็กซี	-10.7531
ซาบซึ้ง	-10.7531
พ่ายแพ้	-10.7531
แฟรงก์	-10.7531
เสียไป	-10.7532
▁บิลลี่	-10.7534
ในศาล	-10.7535
▁2017	-10.7543
ไปเอง	-10.7547
การฝึก	-10.7548
ข้าวของ	-10.755
ฮอต	-10.7551
ห้องพัก	-10.7552
โป๊	-10.7552
ยว	-10.7553
เอย	-10.7554
▁มีแค่	-10.7558
ต่อกัน	-10.7558
▁กอร์ดอน	-10.7561
ขอต้อ	-10.7562
็ม	-10.7562
▁คี	-10.7564
ให้ทํา	-10.7567
ชัย	-10.7568
ได้ใน	-10.757
นี้มี	-10.7571
เดินผ่าน	-10.7571
ญิ	-10.7571
ดังกล่าว	-10.7575
เป็นผล	-10.7576
กรี	-10.7577
ดังๆ	-10.758
ยึดครอง	-10.7585
ไดรฟ์	-10.7585
▁ในชีวิต	-10.7587
ใหญ่โต	-10.7589
▁ในโลก	-10.7589
อยากคุย	-10.7589
ต้นๆ	-10.7593
่อง	-10.7595
จีน่า	-10.7595
อาจไม่	-10.7599
บ้านฉัน	-10.7601
เฮอร์	-10.7603
▁ความรัก	-10.7604
ฮิล	-10.7605
▁ที่ยัง	-10.7605
▁เส้น	-10.7606
ดีใจที่	-10.7607
ชู้	-10.7608
แช่	-10.7608
มูลนิธิ	-10.7617
หพันธรัฐ	-10.7617
แปซิฟิก	-10.7617
กลาโหม	-10.7617
อิสราเอล	-10.7617
เชือด	-10.7617
สตูดิโอ	-10.7617
ทุ่ง	-10.7617
ชะมัด	-10.7617
นามสกุล	-10.7617
▁1998	-10.7617
กินยา	-10.7623
จิตวิทยา	-10.7625
คิดจริงๆ	-10.7625
เป็นแบบ	-10.7626
ก็ควร	-10.763
ฮาร์ด	-10.763
▁จัด	-10.763
▁แล้วยัง	-10.7634
ผมพูด	-10.7635
เป็นแฟน	-10.7637
ก็ได้นะ	-10.764
ผมเป็นคน	-10.7642
จะซื้อ	-10.7649
▁ลาก่อน	-10.7652
มันต้อง	-10.7652
คบกับ	-10.7656
เปลือก	-10.7657
ผู้อ	-10.7657
เพร	-10.7659
เอาจริง	-10.766
เงินทุน	-10.7661
ที่ยาก	-10.7661
เห็นอะไร	-10.7662
ใช่ๆ	-10.7664
แต่มัน	-10.7666
จะรู้ว่า	-10.7668
ในกลุ่ม	-10.7668
นายรู้	-10.7673
▁88	-10.7674
ชะ	-10.7674
นายก็รู้	-10.7676
▁หายไป	-10.7676
▁มอร์แกน	-10.7678
ข้างถนน	-10.7683
ห้องขัง	-10.7684
▁ตอนอายุ	-10.7686
▁ผู้กอง	-10.7687
อยล์	-10.769
นํามา	-10.7691
เด็กหญิง	-10.7691
ใหม่ของ	-10.7691
ที่ชั้น	-10.77
ยศ	-10.7701
โตเกียว	-10.7704
ในชุด	-10.7704
อิม	-10.7705
คุ้มค่า	-10.7707
หากคุณ	-10.7716
พาเธอ	-10.7716
อวด	-10.7717
คิดค้น	-10.7723
คืนที่	-10.7723
เป้	-10.7728
กับเจ้า	-10.773
แมท	-10.7733
ที่ยงคืน	-10.7743
▁ผมบอก	-10.7745
▁เอาไป	-10.7746
อยู่ดีๆ	-10.7749
ซูซาน	-10.7753
คู่ควร	-10.7758
มาเรีย	-10.7759
▁อย่าไป	-10.7761
ฟก	-10.7765
กรีก	-10.7768
ถูกส่งไป	-10.7772
ลัม	-10.7777
▁กระบอก	-10.7784
นับจาก	-10.7788
ก็พูด	-10.7791
รั่ว	-10.7791
ภาวนา	-10.7791
บ่งชี้	-10.7791
แม่นยํา	-10.7792
มองฉัน	-10.7792
ฉลาม	-10.7792
สุ่ม	-10.7793
▁ผมชอบ	-10.7793
ใจกลาง	-10.7794
▁มันคง	-10.7798
ถนัด	-10.7799
ประกาย	-10.7803
สามครั้ง	-10.7805
▁และถูก	-10.7805
จนตาย	-10.7806
รุกราน	-10.7807
▁และพวก	-10.7808
คู่หมั้น	-10.7809
คลุม	-10.781
มีหลาย	-10.781
คราวหน้า	-10.7812
รับฟัง	-10.7817
จะกลับไป	-10.782
หนวด	-10.7824
ในคืน	-10.7825
ฉันก็ไม่	-10.7828
และก็	-10.783
▁หนัก	-10.7833
แอม	-10.7833
ต้องรีบ	-10.7834
สองเท่า	-10.7834
▁สตีฟ	-10.7837
ดูซิ	-10.7841
เอาจริงๆ	-10.7842
จริงด้วย	-10.7844
สาวสวย	-10.7846
เปลือย	-10.7846
ไร้ค่า	-10.7847
เถอะน่า	-10.7849
ผมมั่นใจ	-10.7849
คนเก่ง	-10.7849
เธซเธกเธ	-10.7852
ด้านนอก	-10.7852
▁ออร์	-10.7853
ก็บอกว่า	-10.7854
จะพูดว่า	-10.7854
ที่แย่	-10.7856
เขาไว้	-10.7857
คุณชอบ	-10.7858
▁ทําตัว	-10.7859
กัว	-10.786
อะไรไหม	-10.7861
ื้องหลัง	-10.7867
มีส่วนเก	-10.7869
บึ	-10.787
เธงเธฑเธ	-10.7871
หม้อ	-10.788
คลิงออน	-10.788
คัมภีร์	-10.788
แดสเซีย	-10.788
ชาง	-10.7882
ฐานทัพ	-10.7882
ซ่อมแซม	-10.7882
นาทีก่อน	-10.7884
ได้จาก	-10.7887
มีข้อ	-10.7891
กับข้า	-10.7891
ไต่	-10.7893
ตัส	-10.7899
▁ได	-10.7901
เพียร์ซ	-10.7914
ตตี้	-10.7919
บด	-10.7919
เกีย	-10.792
▁และผู้	-10.792
▁เธงเธข	-10.7924
อัฟ	-10.7925
รักเขา	-10.7927
สามีคุณ	-10.7928
▁ถ้าจะ	-10.793
ไปให้พ้น	-10.7931
ฉันเริ่ม	-10.7931
เมื่อสอง	-10.7931
ซึ	-10.7932
ชีวิตผม	-10.7936
เป็นพยาน	-10.7936
แซง	-10.7936
รก	-10.7939
พรรคพวก	-10.7941
▁เขายัง	-10.7942
เสียเงิน	-10.7943
ชอล	-10.7945
▁มูลค่า	-10.7946
ความสงบ	-10.7946
ไร้ความ	-10.7949
กับเ	-10.795
ตัวเธอ	-10.7951
ใช้วิธี	-10.7952
เข้านอน	-10.7954
ผมจะทํา	-10.7955
็ด	-10.7957
ไว้กับ	-10.7958
มีนัด	-10.7959
มีสิ่ง	-10.796
▁ตู้	-10.7967
แถวๆ	-10.7968
ธรรมนูญ	-10.7969
บัญญัติ	-10.7969
เยาวชน	-10.7969
อเวนิว	-10.7969
อุปสรรค	-10.7969
ค้นคว้า	-10.7971
ไอ้พวก	-10.7972
ป้อน	-10.7973
สิ่งใด	-10.7974
49	-10.7976
ช่วยอะไร	-10.7976
โกลด์	-10.7976
พาไป	-10.7976
๊ป	-10.7979
ในชั้น	-10.798
ในมือ	-10.7981
เล็กซ์	-10.7989
ดีมั้ย	-10.7989
▁ที่เคย	-10.7992
▁คุณได้	-10.7994
ปก	-10.7996
หลงทาง	-10.7997
ทานอาหาร	-10.7997
ยูนิ	-10.7998
สมาธิ	-10.8002
▁การ์	-10.8003
วิง	-10.8009
ของเล่น	-10.8013
▁นักสืบ	-10.8015
เสมอว่า	-10.8015
เธซเธฒเธ	-10.8016
ในทุก	-10.8018
สักครั้ง	-10.802
หนอน	-10.8025
ดรา	-10.8027
อินเดียน	-10.8028
▁68	-10.803
อร์แลนด์	-10.8031
ถ่ายภาพ	-10.8033
ข้อมือ	-10.8035
36	-10.8035
สีน้ํา	-10.8038
ส่งของ	-10.8039
ิต	-10.8041
ผมคิด	-10.8041
มิค	-10.8043
หลายพัน	-10.8045
รถเบอร์	-10.8053
▁เราอยู่	-10.8056
หย	-10.8058
ขออนุญาต	-10.8059
แฝด	-10.8059
ประเพณี	-10.8059
ร์มสตรอง	-10.8059
เยอรมนี	-10.8059
เล่าปี่	-10.8059
กระต่าย	-10.8059
แลร์รี่	-10.806
เข่า	-10.806
อ้างอิง	-10.806
สืบทอด	-10.8061
ตีน	-10.8061
เขารู้	-10.8061
▁เลอ	-10.8061
ปาโบล	-10.8062
▁อุ	-10.8063
าร์นี่ย์	-10.8066
เอเลี่ยน	-10.8066
้นท์	-10.8067
คีย์	-10.8067
นําตัว	-10.8072
บ้านเกิด	-10.8073
▁ผมจะไป	-10.8074
นํ้า	-10.8076
ฉันควรจะ	-10.8076
▁แด	-10.8077
บรูซ	-10.808
สันติ	-10.808
ลูกหลาน	-10.808
เป็นงาน	-10.808
หุบปาก	-10.8081
ของตน	-10.8083
ญา	-10.8084
▁คุณช่วย	-10.8088
ทั่วทั้ง	-10.809
โพล	-10.8091
เอ็ก	-10.8094
คาล	-10.8095
ตามรอย	-10.81
▁ว่าเป็น	-10.81
คืนก่อน	-10.8101
บ้าอะไร	-10.8102
▁โพ	-10.8103
ัล	-10.8103
▁ฮ่า	-10.8109
ครา	-10.811
สูงถึง	-10.8112
หาคน	-10.8112
เธฃเน	-10.8115
ก็ชอบ	-10.8116
ทางซ้าย	-10.8126
▁บางคน	-10.8129
เมสัน	-10.8134
ทําได้ดี	-10.8136
อะไรอีก	-10.8137
จะจ่าย	-10.8138
หน้ากับ	-10.8139
ซ่อนอยู่	-10.814
็ตต์	-10.8141
เท็จ	-10.8145
อุทิศ	-10.8146
เดิมๆ	-10.8146
▁เอฟบีไอ	-10.8149
บรี	-10.815
มัลคอล์ม	-10.815
เสมือน	-10.815
โฉม	-10.815
ชาร์ล็อต	-10.815
ไทมส์	-10.8152
แยกกัน	-10.8153
เธอชอบ	-10.8154
คุณควร	-10.8155
จิตแพทย์	-10.8157
ในทุกๆ	-10.8162
คริป	-10.8163
▁หรือจะ	-10.8164
▁ตื่น	-10.8165
ออม	-10.8168
เป็นเงิน	-10.8168
ทางเข้า	-10.8171
กําลังรอ	-10.8171
▁วู	-10.8172
ดย	-10.8174
แคบ	-10.8178
ฟาด	-10.8179
ฟอน	-10.818
ท่านผู้	-10.8181
นักสู้	-10.819
▁ฮิล	-10.8191
อินเทอร์	-10.8193
ดิล	-10.8197
ชายหนุ่ม	-10.8206
ด้วยเหตุ	-10.8207
▁ดีมาก	-10.8209
▁ซิตี้	-10.8209
กักกัน	-10.821
ก็อาจจะ	-10.8211
ถูกพบ	-10.8212
รอบตัว	-10.8212
เธฅเธญเธ	-10.8214
นั้นคือ	-10.8214
โมงครึ่ง	-10.8217
ก็เห็น	-10.8219
▁ปีต่อมา	-10.8219
แม่บ้าน	-10.8221
ทุกตัว	-10.8221
อีกสัก	-10.8222
กว่าเดิม	-10.8223
▁ดูแล	-10.8225
ื้อเยื่อ	-10.8226
บนยาน	-10.8229
จะโดน	-10.8231
จริงมั้ย	-10.8233
บูชา	-10.8234
ใช้ชื่อ	-10.8235
ริ่ง	-10.8236
▁ล้วน	-10.8237
▁กรัม	-10.8238
▁ชนิด	-10.8239
เฒ่า	-10.8242
ป้อม	-10.8242
ร่ํารวย	-10.8243
ไซม่อน	-10.8243
ลึกซึ้ง	-10.8243
ซาร่าห์	-10.8245
ตัวเล็กๆ	-10.8245
ขี่ม้า	-10.8245
แซ็ค	-10.8245
ฟไ	-10.8248
ซาราห์	-10.8248
ในหมู่	-10.8248
▁กับพวก	-10.8248
เทือกเขา	-10.825
ไปเยี่ยม	-10.825
ให้เจอ	-10.8258
เมียร์	-10.8263
มูน	-10.8269
▁เซอร์	-10.827
ไตร	-10.8271
ยินยอม	-10.8273
จริงสิ	-10.8279
เป็นชาย	-10.8282
▁หยุดนะ	-10.8287
ลงจาก	-10.8288
บุช	-10.8289
ผู้ทรง	-10.829
ยอดขาย	-10.8294
จะไปถึง	-10.8294
▁แก่	-10.8298
ขอให้คุณ	-10.8298
ลองคิดดู	-10.8306
พื้นผิว	-10.8309
การผลิต	-10.8313
โทรหาฉัน	-10.8313
โวล	-10.8314
ได้เข้า	-10.8318
ส่วนมาก	-10.8321
ชนชั้น	-10.8324
ไรอัน	-10.8327
ทํางานใน	-10.8327
พ่อคะ	-10.8328
จะถาม	-10.8332
▁ที่ใช้	-10.8333
เจอเธอ	-10.8334
วิกโยธิน	-10.8335
อะตอม	-10.8335
ทุเรศ	-10.8335
พิชิต	-10.8335
เขาจะได้	-10.8335
ไลฟ์	-10.8336
บาท	-10.8337
ใย	-10.8337
พระบิดา	-10.8337
คนขับรถ	-10.8338
ชาวยิว	-10.8344
ดักฟัง	-10.8346
เนียม	-10.835
มิเกล	-10.8351
สตา	-10.8351
เขาอาจ	-10.8357
ิตภัณฑ์	-10.8357
เงินกู้	-10.8358
จะไปไหน	-10.836
75	-10.836
ด้านการ	-10.8361
ใช่ไหมคะ	-10.8367
พอเรา	-10.8368
ได้อ่าน	-10.8372
ความถี่	-10.8373
▁ฉันคือ	-10.838
ก็เพราะ	-10.8382
มีคนตาย	-10.8383
ดอนน่า	-10.8385
ไม่ครับ	-10.839
ชเน	-10.8392
ในระดับ	-10.8394
าธารณรัฐ	-10.8394
โลกใบนี้	-10.8395
คุณช่วย	-10.8397
โอเวน	-10.8397
ไหมล่ะ	-10.8398
เบค	-10.84
คิดดู	-10.8402
18	-10.8402
▁เรามา	-10.8412
ซึม	-10.8412
ฉันกลัว	-10.8415
ลายเซ็น	-10.8417
นี้คือ	-10.8419
▁ซึ่งก็	-10.842
บาย	-10.8422
ชี่	-10.8426
▁จบ	-10.8427
ซ้ําแล้ว	-10.8427
ประพฤติ	-10.8428
วอแดรนท์	-10.8428
อีธาน	-10.8428
หย่อน	-10.8428
สมดุล	-10.8428
ฌอง	-10.8431
นายอยาก	-10.8431
ปัง	-10.8431
ขอย้ํา	-10.8433
แฮงค์	-10.8434
▁วันแล้ว	-10.8437
กลม	-10.8438
เธขเธงเธ	-10.8438
▁เหล่า	-10.8441
▁แม้จะ	-10.8442
ผมขอโทษ	-10.8445
ทุกที	-10.8449
ทุกคนจะ	-10.8451
ชาร์ลส์	-10.8453
ผมบอกคุณ	-10.8455
ัวร์	-10.8456
็อบ	-10.846
ในนาม	-10.8467
▁ถ้างั้น	-10.8467
ผมทํางาน	-10.8467
ช่วยได้	-10.8474
บนเกาะ	-10.8477
ถูกทิ้ง	-10.8478
วันต่อมา	-10.8478
เลยต้อง	-10.8479
ในวงการ	-10.8485
มิว	-10.849
นิวเคลีย	-10.8493
นาวา	-10.8497
ของจริง	-10.8503
ตอง	-10.8508
ในแบบที่	-10.8508
ในทะเล	-10.8517
ซ้อน	-10.8517
▁รายการ	-10.8517
▁ไวท์	-10.852
ร้ายกาจ	-10.8522
▁ข้าง	-10.8523
เหงา	-10.8523
แท่น	-10.8524
เข็มขัด	-10.8524
โข	-10.8527
มอลลี่	-10.8527
ฆ่าฉัน	-10.8527
จะปิด	-10.8528
นิวส์	-10.8529
ในราคา	-10.853
แล้วแต่	-10.853
▁ในความ	-10.8532
ต้องพูด	-10.8534
เต่า	-10.854
เป็นทนาย	-10.8541
▁สุดยอด	-10.8542
แอค	-10.8542
มีคําถาม	-10.8543
มาหาฉัน	-10.8545
บ์	-10.8546
ทํากับ	-10.8547
ตื่นมา	-10.8551
คุณค่า	-10.8556
ทซ์	-10.8558
45	-10.8559
หนึ่งคน	-10.856
อายุแค่	-10.8562
▁ฟอร์	-10.8562
▁นิค	-10.8563
เธออาจจะ	-10.8572
จะเข้า	-10.8578
พาเขา	-10.8578
บอกใคร	-10.8581
พูล	-10.8582
▁โรค	-10.8583
โซฟี	-10.8584
แรม	-10.8586
▁แล้วพอ	-10.8588
เดี๋ยวๆ	-10.8592
ราห์	-10.8593
▁78	-10.8596
▁จู	-10.861
หลังการ	-10.8611
ในสถาน	-10.8611
ทร	-10.8613
มากนะ	-10.8613
เธฅเธฒเธ	-10.8616
อย่างมี	-10.8616
บํารุง	-10.8618
ฮ่องกง	-10.8618
฿	-10.8618
ไปรษณีย์	-10.8618
หยาบคาย	-10.8618
ออสการ์	-10.8618
คุยด้วย	-10.8619
แคป	-10.8619
เสรี	-10.862
แพะ	-10.8621
สิงโต	-10.8621
พร้อมๆ	-10.8622
ชะตา	-10.8623
▁หล่อน	-10.8627
ที่ใกล้	-10.8628
ให้พ่อ	-10.863
กระสวย	-10.863
สว	-10.8633
สมมติว่า	-10.8634
เร็วมาก	-10.8635
เกา	-10.8636
ฐิ	-10.8645
จะให้ฉัน	-10.8645
ันธุกรรม	-10.8647
จะชนะ	-10.8648
▁โว้ว	-10.865
คุณจํา	-10.8652
ยี	-10.8652
▁ตาราง	-10.8654
หันไป	-10.8654
โทมัส	-10.8655
นั่นก็	-10.8657
ว่าแต่	-10.8665
▁ไปเร็ว	-10.8665
ไอ้นี่	-10.8666
ขอบอก	-10.8667
ที่คุณจะ	-10.8667
เธอจะได้	-10.8671
อะไรให้	-10.8675
▁ไปเถอะ	-10.8677
นอกใจ	-10.8677
ห่างกัน	-10.8677
การส่ง	-10.8678
09	-10.8678
ในสวน	-10.8679
▁สบายดี	-10.8681
ฮุ	-10.8687
▁เธทเธญ	-10.869
เล่นเป็น	-10.8694
โรล	-10.8694
คส์	-10.8696
▁และนั่น	-10.8696
เห็นชัด	-10.8701
▁ศาล	-10.8702
จับเขา	-10.8704
สปริง	-10.8707
ฟอล	-10.8708
▁และจะ	-10.8713
มิวนิสต์	-10.8714
มิแรนด้า	-10.8714
คลินิก	-10.8714
ถาวร	-10.8714
เนรเทศ	-10.8714
อพอลโล	-10.8714
หนีออก	-10.8714
ต้องถูก	-10.8714
ปั้น	-10.8714
แจ่ม	-10.8715
ฝึกหัด	-10.8716
โอ้ว	-10.8716
คลอมเบีย	-10.8716
▁ดีน	-10.8718
แสดงออก	-10.8719
ผอม	-10.8719
เอามัน	-10.8719
24	-10.872
เต็มๆ	-10.872
เมนู	-10.8725
โบล	-10.8727
วฯ	-10.8728
ตอบรับ	-10.8728
▁2015	-10.8736
ได้ครับ	-10.8738
เขาคือ	-10.8739
ดูนี่สิ	-10.8752
พฦ	-10.8753
บูล	-10.8756
จะพบ	-10.8759
รด	-10.8759
เรียล	-10.876
▁ดัน	-10.8763
▁เม็ด	-10.8764
▁เจสัน	-10.8764
ล้า	-10.8765
ตต	-10.8766
วอลล์	-10.8766
สเตรเลีย	-10.8771
▁ที่ร้าน	-10.8772
ได้พบกับ	-10.8777
จ้า	-10.878
ริบ	-10.8781
ตู้เย็น	-10.8784
ื่อ	-10.8785
เจีย	-10.8786
▁เอ็ด	-10.8787
▁ฆาตกร	-10.8789
การค้นพบ	-10.879
คุ้น	-10.8792
แต่มันก็	-10.8793
ไม่รับ	-10.8798
ผู้รับ	-10.88
▁ภาษา	-10.8801
มาสู่	-10.8802
แคล	-10.8803
▁ฝ่าบาท	-10.8806
ทอน	-10.8807
ทําอยู่	-10.8809
32	-10.8809
เสด็จ	-10.8811
วิกฤติ	-10.8813
ม็กซิกัน	-10.8814
ลําไส้	-10.8815
นุ่ม	-10.8815
▁นั่นก็	-10.8816
ซี่โครง	-10.8817
▁แม็กซ์	-10.8821
อาสา	-10.8822
ลอเรน	-10.8824
ทําแบบ	-10.8825
▁2006	-10.8825
▁ด็อก	-10.8827
จอช	-10.8829
สายสืบ	-10.883
ถ้	-10.8831
สิบนาที	-10.8831
บื้องต้น	-10.8831
ซง	-10.8834
ควรเป็น	-10.8836
▁2020	-10.884
ไปเล่น	-10.8844
รีส	-10.8846
ฉันจะให้	-10.8847
คัม	-10.885
เข้าห้อง	-10.8851
เสียบ	-10.8852
บอกได้	-10.8853
แอช	-10.8853
▁รึ	-10.8854
เข้าท่า	-10.8859
พบเห็น	-10.8859
โยง	-10.8866
โฮป	-10.8867
▁คุณหมอ	-10.8869
▁ดาร์	-10.8871
อยู่ต่อ	-10.8873
มีคํา	-10.8875
ต่อม	-10.8879
ลูกจ้าง	-10.8879
เป็นล้าน	-10.8885
เทอม	-10.8888
ผู้ดูแล	-10.889
ติดกับ	-10.8891
ที่พิเศษ	-10.8892
จะเสีย	-10.8892
ฆาตกรต่อ	-10.8895
ดือดร้อน	-10.8904
หลุมศพ	-10.8906
รู้นะว่า	-10.8907
ประกวด	-10.8909
วิวัฒนา	-10.8909
สําเนา	-10.8909
อุตส่าห์	-10.8909
เซลเซียส	-10.8909
แคโรไลน์	-10.8909
แมนฮัตตั	-10.8909
บรรลุ	-10.8909
สโตร	-10.8909
สุริยะ	-10.8909
ทิ่	-10.8912
ชาธิปไตย	-10.8915
ักดิ์ศรี	-10.8915
▁อย่าลืม	-10.8915
วินเซนต์	-10.8916
กลางดึก	-10.8916
ซัด	-10.8917
ฮวา	-10.8917
▁แอบ	-10.8917
บง	-10.8918
ตัวนั้น	-10.892
▁แม่ง	-10.8921
▁ว่าไหม	-10.8922
ก็อาจ	-10.8922
ุน	-10.8926
กรีดร้อง	-10.8926
มวย	-10.8932
หรอกว่า	-10.8933
▁เธฒเธฃ	-10.8934
จะเชื่อ	-10.8936
ในบรรดา	-10.8938
นั้นได้	-10.894
ของทีม	-10.8945
อะไรล่ะ	-10.8948
พอถึง	-10.895
การพัฒนา	-10.8951
ทุกหน่วย	-10.8953
มีสติ	-10.8954
แอท	-10.8957
ั้ง	-10.896
บนเวที	-10.8963
นายยัง	-10.8967
▁แก้ว	-10.8972
โถ	-10.8976
จะรู้สึก	-10.8977
เอ็ดดี้	-10.8978
เกรย์	-10.8979
หาร	-10.898
ตายเถอะ	-10.8986
การยิง	-10.899
ว่าไงนะ	-10.8991
▁คุณคือ	-10.8994
ธั	-10.8997
จะเลือก	-10.8997
เพรส	-10.8997
เปร	-10.9001
คนทั้ง	-10.9003
▁05	-10.9007
ส้ม	-10.9007
ปฏิกรณ์	-10.9008
ปรัชญา	-10.9008
ยับยั้ง	-10.9008
กลอเรีย	-10.9008
แนวโน้ม	-10.9008
ไม่เหมาะ	-10.9009
เมอร์ฟี่	-10.9011
ท็อป	-10.9011
▁พลัง	-10.9014
ก็คิดว่า	-10.9015
▁ปลา	-10.9016
กัง	-10.902
ทําคดี	-10.902
ได้ง่าย	-10.9021
ไคล์	-10.9022
โดนยิง	-10.9024
▁2009	-10.9024
▁2019	-10.9025
▁ปาร์ค	-10.9028
ฉันน่าจะ	-10.9031
กับสาว	-10.9032
เปีย	-10.9032
บอร์ก	-10.9033
▁แฟ	-10.9034
บิว	-10.9041
คําขอ	-10.9043
▁เธชเธด	-10.9046
รัศมี	-10.9051
เป็นต้น	-10.9052
อนาคตของ	-10.9052
วิ่งหนี	-10.9056
ฟิต	-10.906
ห้องแล็บ	-10.9061
งก์	-10.9063
ตอนจบ	-10.9068
มึ	-10.9069
▁อาจารย์	-10.907
ราด	-10.9071
แมนนี่	-10.9074
▁น้อง	-10.9079
ถ้ามีใคร	-10.9081
▁คาร์ล	-10.9082
และมี	-10.9083
ไปที่ไหน	-10.9083
ได้รู้	-10.9087
▁เควิน	-10.9087
กองพล	-10.9089
แอนดี้	-10.909
หลี่	-10.909
ที่หายไป	-10.9091
เป็นพัน	-10.9091
▁ผบ	-10.9092
▁กั	-10.9096
ที่สี่	-10.9099
ลิก	-10.91
▁นายเป็น	-10.9104
เวลาอีก	-10.9106
ลูกรัก	-10.9107
หลงใหล	-10.9108
ไส้กรอก	-10.9108
มั่ว	-10.9108
▁ที่อาจ	-10.9109
▁แต่พ่อ	-10.911
หั่น	-10.911
ห่วงใย	-10.9111
คอยดูแล	-10.9112
▁828	-10.9113
คําสาป	-10.9114
▁พนักงาน	-10.9114
คณ	-10.9114
บ้าคลั่ง	-10.9115
มันน่าจะ	-10.9117
โฮม	-10.9117
เอ็มม่า	-10.9117
ภรรยาผม	-10.9119
เธฑเธงเธ	-10.913
ใจเย็นๆ	-10.9131
รู้กัน	-10.9132
ใช่เลย	-10.9133
▁83	-10.9133
▁ซึ่งมัน	-10.9134
เคยอยู่	-10.9135
ใช้ความ	-10.9136
ความกล้า	-10.9138
จะอธิบาย	-10.914
สปา	-10.9141
ม์	-10.9141
▁แต่ข้า	-10.9142
พาร์ก	-10.9143
ก็ยิ่ง	-10.9143
กางเกงใน	-10.9144
▁ในงาน	-10.9144
ไขมัน	-10.9147
อิเล็ก	-10.9152
▁คุณอยาก	-10.9153
หลักๆ	-10.9154
▁แผ่น	-10.9154
▁สาวน้อย	-10.9157
ว่	-10.9158
เราเริ่ม	-10.916
ฟริ	-10.9161
ปฏิ	-10.9163
มาเร็ว	-10.9164
จะโทรหา	-10.9165
ทางด้าน	-10.9165
อาร์ค	-10.9175
มั้ยครับ	-10.9176
ง่ายขึ้น	-10.9176
มีแฟน	-10.9182
▁มาเรีย	-10.9183
กับชีวิต	-10.9186
ัธยมปลาย	-10.9194
ได้ด้วย	-10.9197
▁เราเป็น	-10.9199
ล้วง	-10.9209
กระโปรง	-10.9209
นิรนาม	-10.9209
อลกอฮอล์	-10.9209
อสูร	-10.9209
ขี้ขลาด	-10.9209
คฤหาสน์	-10.9209
ประถม	-10.9209
ดอกเบี้ย	-10.9209
▁แบ	-10.921
ไมอามี่	-10.9211
ตํารา	-10.9211
▁ใต้	-10.9211
เฝ้าดู	-10.9211
ฟิลิป	-10.9212
ราล์ฟ	-10.9212
ตัวผม	-10.9213
ใช้คํา	-10.9213
บ๊อบบี้	-10.9213
▁คุณควร	-10.9214
ปิ้ง	-10.9215
หลานชาย	-10.9215
▁บิ๊ก	-10.9216
แก้ตัว	-10.9216
เซ็ต	-10.9216
งบประมาณ	-10.9217
เปียโน	-10.9218
ตอนเรา	-10.9218
ทรู	-10.9218
บิดา	-10.9219
นี่ย์	-10.922
▁ลูอิส	-10.922
นิง	-10.922
บูลส์	-10.9221
▁เธฒเธก	-10.9225
จัดฉาก	-10.9229
รอคอย	-10.923
▁ทนาย	-10.9231
▁เขาอาจ	-10.9233
▁2002	-10.9234
ุ่งเรือง	-10.9235
สนุกๆ	-10.9238
ช่วงที่	-10.9243
ว่าย	-10.9246
▁2010	-10.925
ก็เอา	-10.9251
▁ผมทํา	-10.9251
เห็นเธอ	-10.9251
คุณเอง	-10.9256
เอาเป็น	-10.9259
▁นีล	-10.926
ซานตา	-10.9264
ถึงขั้น	-10.9264
▁มาเถอะ	-10.9266
สแต	-10.9266
สลบ	-10.9266
เคิร์	-10.9266
ดีเลย	-10.9268
นานมานี้	-10.9268
▁ขวด	-10.9269
ไม่บอก	-10.9272
▁ดีใจที่	-10.9274
เตอ	-10.9279
นั่นสิ	-10.9279
ชั้นบน	-10.9281
โค่น	-10.9284
จะดีกว่า	-10.9285
ฆ่าเธอ	-10.9286
จะเพิ่ม	-10.9293
ตกลงมา	-10.9294
มาหลายปี	-10.9295
มิเชล	-10.9295
มอล	-10.9297
แลกกับ	-10.9298
▁ให้เขา	-10.9299
สี่ปี	-10.93
สากล	-10.93
เบธ	-10.9304
▁ใช่เลย	-10.9305
เข้ม	-10.9308
▁คอม	-10.9309
▁66	-10.931
เด็น	-10.931
เบนจามิน	-10.9311
สโนว์	-10.9311
สุขสันต์	-10.9311
ฟลิซิตี้	-10.9311
ซื้อมา	-10.9311
ลานจอดรถ	-10.9311
กลิ้ง	-10.9311
เปี่ยม	-10.9311
ธาตุ	-10.9312
หดเหี้ยม	-10.9312
สิ้นเชิง	-10.9312
แบงก์	-10.9312
ไทเลอร์	-10.9313
สถานทูต	-10.9314
เซอ	-10.9314
▁คงจะ	-10.9315
▁ชอว์	-10.9315
โปแลนด์	-10.9316
บ็อบ	-10.9317
ไลน์	-10.9317
▁วันละ	-10.9317
แรกๆ	-10.9317
ชื่อจริง	-10.9318
ล่ะครับ	-10.932
โลแกน	-10.9321
เอ้ย	-10.9321
คงไม่ได้	-10.9322
มิก	-10.9323
▁02	-10.9324
คือใคร	-10.9326
ประลอง	-10.9328
ชื้อชาติ	-10.9329
เบ็ค	-10.9329
ปิดปาก	-10.933
กองพัน	-10.933
▁06	-10.9331
พ่อค้า	-10.9331
▁เฮอร์	-10.9331
เธอตาย	-10.9333
กับดัก	-10.9336
ผมควร	-10.9337
แสบ	-10.9342
▁เธอมี	-10.9342
นี้จะ	-10.9344
ท้า	-10.9347
เวิร์ด	-10.9352
▁ที่ชื่อ	-10.9352
▁หนัง	-10.9355
สองตัว	-10.9357
มันจะไม่	-10.936
โทษนะ	-10.9361
เนี้ย	-10.9364
ชื่อมั่น	-10.9366
ลิค	-10.9369
▁ขโมย	-10.9373
หม่า	-10.9376
ตรงไป	-10.9379
▁แอนนา	-10.9382
▁แผน	-10.9384
ท่าเทียม	-10.9387
ชาร์ล	-10.9388
กลับคืน	-10.9389
▁นายไม่	-10.9391
ในโ	-10.9392
ผมบอกว่า	-10.9392
▁เวลส์	-10.9394
ฉันสัญญา	-10.9395
รอให้	-10.9396
กส์	-10.9396
▁ปัญหา	-10.9399
ลี้	-10.9401
46	-10.9404
▁เคลลี่	-10.9408
▁วอล์ค	-10.9408
โตะ	-10.9412
ลาด	-10.9413
▁67	-10.9414
ที่โต๊ะ	-10.9414
ฏิหาริย์	-10.9414
ทุจริต	-10.9414
พัวพัน	-10.9414
คลาสสิก	-10.9414
สมคบคิด	-10.9414
บาจอร์	-10.9414
▁เธทเธ	-10.9414
ดับเบิ้ล	-10.9414
โต้แย้ง	-10.9414
วัลแคน	-10.9415
โลหะ	-10.9415
เพดาน	-10.9415
อํานวย	-10.9417
ขอบเขต	-10.9417
ชีวภาพ	-10.9418
ช่วยเขา	-10.9422
นอร์ท	-10.9422
จะขอ	-10.9423
กียรติยศ	-10.9423
เบ็น	-10.9424
พ๎	-10.9426
บ่อน	-10.9429
เฟรด	-10.943
▁กับคน	-10.943
กําลังมา	-10.9437
อัป	-10.9438
มั้ยล่ะ	-10.9439
▁รับทราบ	-10.9441
หน้าใหม่	-10.9441
อีกหน่อย	-10.9442
รุ่นพี่	-10.9443
แต่ก็ยัง	-10.9444
ิ่น	-10.9444
เรือลํา	-10.9446
ตอนนี้ก็	-10.9449
ตเตอร์	-10.945
การปล้น	-10.9451
นั่นน่ะ	-10.9451
มันฝรั่ง	-10.9452
▁ของนาย	-10.9456
ข้อแรก	-10.9459
ยุทธ	-10.946
▁แล้วถ้า	-10.9463
▁92	-10.9465
ปากกา	-10.9466
แน่ชัด	-10.9466
เห็นๆ	-10.9467
เปล่าๆ	-10.9472
หมอน	-10.9474
▁ชี	-10.9474
ภาพอากาศ	-10.9479
▁ผู้ช่วย	-10.948
หันมา	-10.948
แบร	-10.9485
โย่	-10.9493
▁ตอนเรา	-10.9495
แต่การ	-10.9499
คนรวย	-10.95
มายา	-10.95
พิการ	-10.9506
เขาเอง	-10.9507
ดํารง	-10.9508
ทางวิทยา	-10.951
มส์	-10.9513
นับแต่	-10.9513
เคลาส์	-10.9517
ก็ตาย	-10.9517
ปลื้ม	-10.9518
จังหวัด	-10.9518
ศักยภาพ	-10.9518
ไอศกรีม	-10.9518
าเดลเฟีย	-10.9518
▁มาตลอด	-10.9518
ฝ่าฝืน	-10.9518
โจรสลัด	-10.9519
ซีแอตเทิ	-10.9519
เรือรบ	-10.952
ดูนี่	-10.952
แค่ต้อง	-10.9522
ยูเอสเอส	-10.9522
มัล	-10.9522
โส	-10.9522
วิหาร	-10.9522
ธรรมดาๆ	-10.9524
ตกงาน	-10.9525
โล่ง	-10.9527
▁ลิลลี่	-10.9531
กําลังหา	-10.9533
๊อก	-10.9539
ที่เขาจะ	-10.9544
นิวเจอร์	-10.9544
กลุ่มคน	-10.9545
สตัน	-10.9547
บราโว	-10.9549
เบบี้	-10.9549
▁ลอร์ด	-10.955
คนแรกที่	-10.955
รถคัน	-10.9554
การลงทุน	-10.9554
หน้าบ้าน	-10.9555
นด์เลอร์	-10.9557
▁นะครับ	-10.9557
ขายได้	-10.9559
▁ของพวก	-10.9559
▁เอามา	-10.9562
เสียงของ	-10.9564
ม่าน	-10.9565
จุดหมาย	-10.9574
ฮาว	-10.9579
ตอนอยู่	-10.9583
ศุกร์	-10.9585
▁ตอนฉัน	-10.9587
เทิร์น	-10.9588
▁ฌ	-10.9594
ด้วยวิธี	-10.9594
โกล	-10.9601
ปราบ	-10.9605
ขุม	-10.9605
ลักลอบ	-10.9606
ช่วยเธอ	-10.9607
▁84	-10.9614
ครึ่งนึง	-10.9617
แว่น	-10.9619
ก็โผล่มา	-10.9619
เตี้ย	-10.9621
แฮโรลด์	-10.9623
อแมนด้า	-10.9623
ด้อย	-10.9624
นธิสัญญา	-10.9624
▁เอน	-10.9624
ลี้ภัย	-10.9624
หละ	-10.9625
แฟชั่น	-10.9625
ซุปเปอร์	-10.9626
สารเคมี	-10.9626
▁มัล	-10.9626
แคร์รี่	-10.9626
กบ	-10.9626
แบ็ค	-10.9626
ผีเสื้อ	-10.9627
จัน	-10.9628
▁แซ	-10.9629
แถลงข่าว	-10.963
▁เราแค่	-10.963
กู๊ด	-10.9632
ั่	-10.9632
หันหลัง	-10.9632
ที่จะให้	-10.9635
ัลยแพทย์	-10.9635
อยู่ในรถ	-10.9636
ทช์	-10.9638
ให้เด็ก	-10.9641
แชร์	-10.9646
ในขณะนี้	-10.9647
เป็นสามี	-10.965
เสียสติ	-10.9652
จอร์แดน	-10.9655
▁ระยะ	-10.9656
ประจําปี	-10.9657
▁ท่านผู้	-10.9658
▁เอ็ดดี้	-10.9659
แฮร์	-10.9661
ะเขือเทศ	-10.9663
▁73	-10.9665
▁จอง	-10.9666
สร้อย	-10.9667
บทบาท	-10.9667
เตีย	-10.9669
เร็น	-10.967
▁ช่วงตึก	-10.9672
▁ไท	-10.9672
ดิง	-10.9672
ําลังกาย	-10.9673
บัส	-10.9675
ทั่วๆ	-10.9676
▁ได้ไหม	-10.9677
อะไรอยู่	-10.9677
ผมคือ	-10.9677
การจัด	-10.9679
สวัสดิ	-10.9683
เหน	-10.9684
เธอเคย	-10.9685
ง่ายกว่า	-10.9691
ไม่งั้น	-10.9692
วันเดียว	-10.9693
▁คลาร์ก	-10.9694
ให้ช่วย	-10.9695
ต้นแบบ	-10.9695
เท่ากัน	-10.9697
ยิ่งขึ้น	-10.9699
ไปไกล	-10.9699
มื้อเย็น	-10.9702
พ่อค้ายา	-10.9705
รับปาก	-10.9707
เผชิญกับ	-10.9709
บอน	-10.9711
บอกไว้	-10.9711
▁เพอร์	-10.9712
เน็ท	-10.9716
เปล	-10.9716
▁นอก	-10.9718
เอาของ	-10.9718
▁นายท่าน	-10.972
▁รอก่อน	-10.972
70	-10.9723
นคร	-10.9724
▁เรด	-10.9727
▁มาตรา	-10.9727
▁ประสบ	-10.973
ไม่ถ้วน	-10.973
ป่านนี้	-10.973
คุกเข่า	-10.9731
ดิแอซ	-10.9732
บอดี้	-10.9732
แขวนคอ	-10.9733
▁ไทเลอร์	-10.9733
▁1990	-10.9734
ร่วมเพศ	-10.9735
าสาสมัคร	-10.9736
าวเวิร์ด	-10.9736
ติง	-10.9737
สดๆ	-10.9737
ร่วมทีม	-10.9737
จะจับ	-10.9738
จัดหา	-10.9738
ทอดทิ้ง	-10.9741
▁ถือเป็น	-10.9742
พันปี	-10.9742
▁ใ	-10.9744
หลายร้อย	-10.9746
ขายหน้า	-10.9747
แวร์	-10.9748
▁รัฐบาล	-10.9749
▁ลืม	-10.975
ค็อก	-10.9754
เดิล	-10.9755
▁ในระยะ	-10.9755
ชื่ออะไร	-10.9757
ลอก	-10.9757
ระยะห่าง	-10.976
สูด	-10.9761
สิง	-10.9763
▁สถานี	-10.9765
สเตฟาน	-10.9771
▁ตราบใด	-10.9772
จิเนีย	-10.9774
คิดได้	-10.9774
▁ในราคา	-10.9775
ควอน	-10.9776
▁มาเป็น	-10.978
ทุ	-10.9782
กลบ	-10.9784
วิลสัน	-10.9785
▁หัวใจ	-10.9785
คุณคงไม่	-10.9791
▁ปืน	-10.9792
แอต	-10.9792
ขับไป	-10.9793
เป็นเกย์	-10.9794
มารวมกัน	-10.9796
▁กล้อง	-10.9798
▁จิมมี่	-10.9804
อี้	-10.9807
ผมจะบอก	-10.9809
ฮิลล์	-10.9812
ึ่ง	-10.9814
มาใช้	-10.9816
ต้องเอา	-10.9816
ดัส	-10.9822
▁93	-10.9824
34	-10.9826
เป็นไรนะ	-10.9834
▁เดฟ	-10.9837
โจทก์	-10.9837
เข้มงวด	-10.9837
ผัน	-10.9838
บราซิล	-10.9838
อยู่เบ	-10.9839
อลัน	-10.9839
ตาบอด	-10.9841
ซ้ําๆ	-10.9841
ของนาง	-10.9843
นายจะได้	-10.9843
เวกัส	-10.9843
เป็ด	-10.9843
อาร์ชี่	-10.9844
เครา	-10.9846
สติปัญญา	-10.9847
เธอน่าจะ	-10.9849
ซี้	-10.9849
ผู้บ	-10.9852
เทอร์รี่	-10.9852
ขอตัว	-10.9854
ทั้งสิ้น	-10.9855
แปร	-10.9857
เรียกผม	-10.9857
อายุครบ	-10.9859
29	-10.9859
เป็นพันๆ	-10.9859
แตะต้อง	-10.986
เกรท	-10.9861
ซอร์	-10.9868
วินเทอร์	-10.9869
วางไว้	-10.9871
ใช้การ	-10.9872
สลัก	-10.9877
โลมา	-10.9878
วิต	-10.9879
ต้องคอย	-10.9879
กลับสู่	-10.9881
ดีแลน	-10.9881
สั่งการ	-10.9883
▁ผู้นํา	-10.9886
▁เท็ด	-10.989
คนใด	-10.989
▁ว่ามี	-10.9891
เย้	-10.9892
พลา	-10.9893
ปวดหัว	-10.9893
สิน	-10.9895
จิก	-10.9899
เจส	-10.99
▁ในเขต	-10.9903
ด้วยเงิน	-10.9904
รอล	-10.9904
แย่ลง	-10.9908
ฮอร์	-10.9909
ของกลุ่ม	-10.9909
เธฃเธ	-10.9911
เข้ากัน	-10.9914
กรด	-10.9917
ยิงปืน	-10.9917
ทางนั้น	-10.9917
ที่สูง	-10.992
▁ผมเพิ่ง	-10.9921
ิด	-10.9924
▁ถอยไป	-10.9926
▁ตอนผม	-10.9927
ฃเธทเธญ	-10.993
ปีมาแล้ว	-10.9933
เอลลิส	-10.9933
มีปืน	-10.9934
คุณย่า	-10.9938
ทํากัน	-10.9945
ลวง	-10.9945
กระท่อม	-10.9946
ปะการัง	-10.9946
ฟลอริดา	-10.9946
บาสเตียน	-10.9946
ทัณฑ์บน	-10.9946
อนุรักษ์	-10.9946
บวม	-10.9946
เคลย์	-10.9947
แอร์โรว์	-10.9947
ฐํ	-10.9947
31	-10.9947
แช่แข็ง	-10.9947
ทุกแห่ง	-10.9948
สารพิษ	-10.9949
คอลลินส์	-10.9949
คนแก่	-10.9949
กําลังไป	-10.9949
▁ขอบใจนะ	-10.995
รูปปั้น	-10.9951
นั่งดู	-10.9951
ทันใด	-10.9952
ฮาวาย	-10.9953
วาดภาพ	-10.9954
ทุกคนก็	-10.9954
ชานเมือง	-10.9955
แม่คะ	-10.9958
▁ป้า	-10.9959
ได้หมด	-10.996
เฟน	-10.996
ทิน	-10.9963
เอาเถอะ	-10.9963
โอนเงิน	-10.9965
▁จา	-10.9966
ช่องว่าง	-10.9966
เนต	-10.9967
▁74	-10.9968
▁ราวกับ	-10.9969
หนุ่มสาว	-10.997
ช็อก	-10.9972
ขอประกาศ	-10.9973
เลเซอร์	-10.9974
▁81	-10.9975
มาเยือน	-10.9976
จะว่าไป	-10.9978
เขียนไว้	-10.9979
งเปล่า	-10.9981
อัม	-10.9982
คนเรา	-10.9983
ซิตี	-10.9985
โนวา	-10.9985
จะเป็นคน	-10.9986
จริงนะ	-10.999
48	-10.999
มาสิ	-10.999
▁คั	-10.9992
จะเรียก	-10.9992
ดั	-10.9993
กรอก	-10.9993
แทรก	-10.9994
กลับจาก	-10.9998
หลายล้าน	-10.9999
▁สแตน	-11.0001
▁เมย์	-11.0001
ชเธฒเธก	-11.0003
ัย	-11.0006
ครับท่าน	-11.0009
คนสําคัญ	-11.0016
เจอคุณ	-11.0018
เบลีย์	-11.0021
ทํานาย	-11.0025
ฤดูใบไม้	-11.0028
ออกก	-11.0029
ร่ม	-11.003
ไอ้โง่	-11.0033
ถูกตั้ง	-11.0034
แต่ก็	-11.0034
พูดอย่าง	-11.0038
▁โกล	-11.004
เข้ารับ	-11.0044
เกิ้ล	-11.0045
ที่ควร	-11.0046
ให้เร็ว	-11.0047
วิท	-11.0048
จะเข้าใจ	-11.0049
เป็นจุด	-11.005
ห้วง	-11.0055
กริฟฟิน	-11.0056
ตอร์ปิโด	-11.0056
ปัจจัย	-11.0056
อ้อนวอน	-11.0056
ินัยกรรม	-11.0056
เริ่มทํา	-11.0056
รัสเซล	-11.0057
เนธาน	-11.0057
ฮู้ด	-11.0058
แบรนด์	-11.006
ฮาร์วาร์	-11.0061
ัฟ	-11.0063
นิทาน	-11.0064
สร	-11.0064
ถู	-11.0065
▁แล้วจะ	-11.0066
มาแทน	-11.0067
กึ่ง	-11.0068
▁เคท	-11.0074
▁ซัก	-11.0075
ซุ	-11.0075
เดียร์	-11.0081
ฟี่	-11.0082
เป็นชิ้น	-11.0084
▁นั่งลง	-11.0086
22	-11.0086
เป็นทหาร	-11.0086
ว่าความ	-11.0088
ที่ผมจะ	-11.0088
ตัวเมีย	-11.0091
ฉันนึก	-11.0096
น่าดู	-11.0097
▁กล่อง	-11.0097
๋ง	-11.0099
ในสนาม	-11.0103
นิติ	-11.0105
เราควรจะ	-11.0107
ในวัย	-11.0125
ห้องเก็บ	-11.0126
็อด	-11.013
นี่นะ	-11.0132
อาจต้อง	-11.0133
อัลฟ่า	-11.0133
๊ะ	-11.0138
▁สโตน	-11.0139
พาคุณ	-11.014
▁ถือว่า	-11.0142
ระวังตัว	-11.0142
บ้านคุณ	-11.0143
เฟอ	-11.0144
นักเต้น	-11.0145
ไปนอน	-11.0148
ไว้นะ	-11.0148
ข้าก็	-11.0149
ชนะเลิศ	-11.0149
ภาพที่	-11.0149
เร้ด	-11.0151
เหี้ย	-11.0151
กันหน่อย	-11.0152
▁ประตู	-11.0153
ค่าแรง	-11.0155
ช่วยด้วย	-11.0156
รอม	-11.0156
เคว	-11.0158
▁มาสิ	-11.0159
▁ปี้	-11.016
▁ฟาร์	-11.0162
ท่วม	-11.0162
เยอร์	-11.0164
หมึก	-11.0165
บ่อ	-11.0166
ระดม	-11.0167
โซเชียล	-11.0167
นาฏกรรม	-11.0167
ปรบมือ	-11.0167
ลิตเติ้ล	-11.0167
าเลนไทน์	-11.0167
โรมูลัน	-11.0167
ไดอาน่า	-11.0167
ประมาท	-11.0167
ัลติมอร์	-11.0167
ศัลยกรรม	-11.0168
อาบ	-11.0168
ยูเครน	-11.0169
มารดา	-11.0169
คลัมเบีย	-11.017
หลบภัย	-11.017
ผู้ว่าฯ	-11.0171
เอิร์ล	-11.0171
แมตต์	-11.0172
หด	-11.0172
ผลการ	-11.0172
กเธ	-11.0175
มันฟังดู	-11.0176
จะมีใคร	-11.0176
แม็กกี้	-11.0179
สวด	-11.0179
▁2007	-11.0181
ไม่เลว	-11.0186
▁อดัม	-11.0188
ยังไงล่ะ	-11.0189
สํา	-11.019
ที่ประตู	-11.0195
และผู้	-11.0196
ตัวหนึ่ง	-11.0197
นัย	-11.02
ห่างไป	-11.0203
▁วอร์	-11.0204
ซีน	-11.0205
บอกนาย	-11.0207
อยู่เสมอ	-11.0208
ด้วยเหรอ	-11.0208
บาล	-11.021
▁ฉันอาจ	-11.0211
รู้วิธี	-11.0211
▁นสพ	-11.0212
ด้วยค่ะ	-11.0213
ถอนตัว	-11.0213
โลกของ	-11.0214
▁ทุกวัน	-11.0214
คุณเพิ่ง	-11.0215
▁เทอร์	-11.0216
▁ผมยัง	-11.0217
รุ่นใหม่	-11.0223
ไปคุยกับ	-11.0223
นี้เอง	-11.0224
ล้น	-11.0225
อีกแค่	-11.0226
ขอขอบคุณ	-11.0226
ไปเมื่อ	-11.0227
เถียง	-11.023
▁94	-11.0233
พริ	-11.0234
หลายแห่ง	-11.0235
ฟังเพลง	-11.0236
▁ลูกๆ	-11.0237
ไอซ์	-11.0237
ร้อยปี	-11.0239
นอกเมือง	-11.024
ปปส	-11.024
มิต	-11.0241
คาร่า	-11.0241
▁เธญเธข	-11.0243
ปน	-11.0246
▁08	-11.0246
ไบร	-11.0248
แกจะ	-11.0257
รื้อ	-11.0258
จัดให้	-11.0259
ในทีม	-11.0259
แค้น	-11.0265
มื้อเช้า	-11.0267
ในตู้	-11.0267
คอร์น	-11.0269
มันแปลก	-11.0274
อีกนาน	-11.0276
เท่านี้	-11.0276
สไตน์	-11.0276
ใช้ยา	-11.0278
จะยอมรับ	-11.0279
ก็คงไม่	-11.0279
ยี่ห้อ	-11.0279
เมเรดิธ	-11.0279
ไอ้งั่ง	-11.0279
ผ้าห่ม	-11.028
การปล่อย	-11.028
เห็ด	-11.028
แฮปปี้	-11.028
▁แค่นี้	-11.0281
เหลวไหล	-11.0281
ข์	-11.0282
ภาพถ่าย	-11.0283
มีบ้าน	-11.0283
▁03	-11.0286
เธอคง	-11.0288
มีวิธี	-11.0288
▁แดเนียล	-11.0289
▁เอเคอร์	-11.029
คอยช่วย	-11.0291
มันคง	-11.0293
แบบไม่	-11.0294
กับทีม	-11.0294
ก็ทําให้	-11.0298
รวมทั้ง	-11.0299
กันดี	-11.0303
▁เจ้านาย	-11.0303
ดัม	-11.0309
สิบสอง	-11.0309
เพาะ	-11.0311
เวย์น	-11.0314
ว่าต้อง	-11.0318
นาร์ด	-11.0319
▁เจ้าจะ	-11.032
บ้างมั้ย	-11.0323
ส่งผล	-11.0324
ทั้งสาม	-11.0325
พริบตา	-11.0328
กง	-11.0328
▁ไปจนถึง	-11.0329
มันบ้า	-11.0329
ดูไม่	-11.0333
ที่แปลก	-11.0334
▁ความดัน	-11.0334
นานมาก	-11.0335
▁ซึ่งผม	-11.0337
ขึ้นกับ	-11.0342
ในระบบ	-11.0347
▁ได้เวลา	-11.0347
คาน	-11.0348
วส์	-11.0351
คัด	-11.0352
รณ	-11.0353
เสียอีก	-11.0356
▁สหาย	-11.0357
▁ไหนจะ	-11.0358
แซค	-11.036
ผู้เสีย	-11.0361
▁ถูกพบ	-11.0362
ในน้ํา	-11.0364
เป็นฝ่าย	-11.037
มาส่ง	-11.037
น้อยมาก	-11.0371
▁76	-11.0371
ตามสบาย	-11.0372
ไม่พูด	-11.0374
พูดออกมา	-11.0376
วันค	-11.0377
ก็คงจะ	-11.0377
ตั	-11.0378
ไปอย่าง	-11.0378
มองข้าม	-11.0379
ลื่น	-11.0379
ลูอิส	-11.0383
กระจอก	-11.0392
งัด	-11.0392
ครูใหญ่	-11.0392
อิหร่าน	-11.0393
ฮัมฟรีย์	-11.0393
▁1994	-11.0393
แกมม่า	-11.0393
คัดค้าน	-11.0393
ซึมเศร้า	-11.0394
รถเมล์	-11.0394
เคยบอก	-11.0395
กู้ภัย	-11.0395
▁ได้สิ	-11.0396
ศพของ	-11.0396
เวิร์ธ	-11.0397
เซาท์	-11.0398
คาถา	-11.0399
กิโล	-11.0403
เสนอให้	-11.0403
เหลือจาก	-11.0403
▁มัวร์	-11.0403
กุม	-11.0404
น้ําลาย	-11.0406
▁79	-11.0406
ตกปลา	-11.0408
อับ	-11.0409
▁แทง	-11.041
หนูก็	-11.0412
วิสกี้	-11.0413
ออกมาได้	-11.0417
▁ลิตร	-11.0417
คอร์ป	-11.0417
เบรก	-11.0423
คนดี	-11.0426
▁อาจมี	-11.0429
ในโรง	-11.0432
กักขัง	-11.0433
ทําไมเรา	-11.0435
เร็ต	-11.0435
โอล	-11.0436
รูปถ่าย	-11.0437
จําไว้นะ	-11.0441
▁ฟอร์จ	-11.0442
สโลน	-11.0446
หนีจาก	-11.0447
แมด	-11.0449
ผู้ตาย	-11.045
คนโง่	-11.0454
ไทร	-11.0454
ไปจนถึง	-11.0457
พวกเด็ก	-11.0458
โทน	-11.0461
จะบอกคุณ	-11.0462
▁ที่ช่วย	-11.0462
▁ฮิลล์	-11.0463
▁เธฑเธง	-11.0463
▁69	-11.0464
ว่าผมจะ	-11.0465
▁ในกรณี	-11.0466
จะต้องมี	-11.0468
ี้	-11.0469
ดดเดี่ยว	-11.0471
เขาเห็น	-11.0471
เห็นหน้า	-11.0478
คารา	-11.0479
▁ห่างไป	-11.0479
อยากเจอ	-11.0479
มายัง	-11.0486
ที่ศูนย์	-11.0489
ไปตั้ง	-11.0489
▁มันแค่	-11.049
การณ์นี้	-11.0491
▁มักจะ	-11.0493
ชเชอร์	-11.0494
ควอเตอร์	-11.0495
คิงส์	-11.0499
จับคู่	-11.0505
▁ผมจะไม่	-11.0506
▁บ็อบ	-11.0507
อะไรเหรอ	-11.0507
ห้อย	-11.0508
ในสายตา	-11.0508
ขีปนาวุธ	-11.0508
ฉ้อโกง	-11.0508
สอดแนม	-11.0508
ฟ็อกซ์	-11.0508
แทรกแซง	-11.0508
จําหน่าย	-11.0509
▁แคลร์	-11.0509
ควินน์	-11.0509
นิโกร	-11.051
▁1999	-11.051
เเต่	-11.0511
▁1970	-11.0511
ถามจริง	-11.0511
ถุงเท้า	-11.0512
คัดเลือก	-11.0512
บ่งบอก	-11.0513
แต่งเพลง	-11.0514
สู้กัน	-11.0514
ลมหายใจ	-11.0517
จะพยายาม	-11.0517
มีทหาร	-11.052
▁2018	-11.0521
ดีต่อ	-11.0527
ฟฟ์	-11.0527
35	-11.0528
▁ไอ้พวก	-11.053
โชคดีที่	-11.0531
ทางขวา	-11.0531
ของคนที่	-11.0532
ต้องเสีย	-11.0534
วอเตอร์	-11.0534
ระดับโลก	-11.0536
ยุ่งยาก	-11.0537
คัพ	-11.0538
แชน	-11.0539
ล็อต	-11.0539
กาก	-11.0541
บอร์	-11.0543
▁เราไป	-11.0543
เราจะมี	-11.0544
นอนอยู่	-11.0545
เดต้า	-11.0545
▁ไค	-11.0547
คําเตือน	-11.0548
คุณกับผม	-11.0551
ควอ	-11.0551
ดิ้ง	-11.0552
พูดให้	-11.0554
ทางสังคม	-11.0556
ความยาว	-11.0561
ใกล้จะ	-11.0562
นอร่า	-11.0562
ลอรี่	-11.0563
ลิซ	-11.0563
ในฝัน	-11.0563
ทาย	-11.0565
ไพร	-11.0567
▁ผู้อ	-11.0572
หนังโป๊	-11.0573
ซัส	-11.0575
▁อลัน	-11.0577
ซั	-11.0581
รุ่ง	-11.0582
ซซี่	-11.0589
แม้จะ	-11.0596
เด็กนั่น	-11.0598
▁ไบรอัน	-11.0599
ถามฉัน	-11.0599
อีกด้วย	-11.0599
บุคคลที่	-11.06
▁นี่ไง	-11.0601
ยังงั้น	-11.0602
นําโดย	-11.0614
ชิก	-11.0615
▁คีน	-11.0617
ฆา	-11.0623
จู๋	-11.0623
เฟร็ด	-11.0624
▁และต้อง	-11.0624
ันนิษฐาน	-11.0624
ปัสสาวะ	-11.0624
ระเบียง	-11.0624
อัศจรรย์	-11.0624
เถิด	-11.0624
ขยะแขยง	-11.0624
เจสสิก้า	-11.0624
วอลเลซ	-11.0624
น่าเชื่อ	-11.0625
ฟอสเตอร์	-11.0626
พระผู้	-11.0626
โบรดี้	-11.0626
แกะรอย	-11.0627
เจาะจง	-11.0628
แซลลี่	-11.0629
ต้องคิด	-11.0631
การลอบ	-11.0634
ลงนาม	-11.0634
คนดู	-11.0636
โคม่า	-11.0636
จูดี้	-11.0637
เมซ	-11.0637
อาจจะไม่	-11.0638
เดี๋ยวสิ	-11.0639
โบว์	-11.064
ขึ้นอยู่	-11.064
ที่มาจาก	-11.064
ที่มีคน	-11.0641
ยกโทษให้	-11.0642
คดีของ	-11.0642
ฟุ	-11.0643
สีเทา	-11.0644
คนที่เรา	-11.0645
ประการ	-11.0646
ตัวตลก	-11.0646
คนสวย	-11.0647
เข้าบ้าน	-11.0649
คร่า	-11.0651
ฟังให้ดี	-11.0652
ขึ้นเป็น	-11.0654
ก้อนหิน	-11.0656
▁เห็นไหม	-11.0656
เราก็จะ	-11.0657
พ่อมด	-11.0658
▁หนุ่มๆ	-11.0664
ซีซาร์	-11.0665
เข้าข้าง	-11.0668
นั่งลง	-11.0669
กักตัว	-11.0669
แดนซ์	-11.067
ติดอาวุธ	-11.0673
ขึ้นไปบน	-11.0673
แค่ว่า	-11.0674
แม่ผม	-11.0675
รอเดี๋ยว	-11.068
ลูกหมา	-11.0698
ไม่หลับ	-11.0704
บ้านพัก	-11.0705
๊ว	-11.0707
ที่ผมเคย	-11.0707
▁วรรค	-11.0707
มีชาย	-11.0708
▁เอ้า	-11.0709
ห้าคน	-11.0709
หอย	-11.0711
แต่ไม่	-11.0712
งเคราะห์	-11.0713
คาลิ	-11.0715
ในกล่อง	-11.0718
เธณเธญเธ	-11.0722
ในยุโรป	-11.0724
สูงส่ง	-11.0725
หาคําตอบ	-11.0725
งานใหญ่	-11.0726
จะเลิก	-11.0727
ข้ามเวลา	-11.0728
ฮิต	-11.0729
ให้หนู	-11.0732
▁ขณะนี้	-11.0733
รถพยาบาล	-11.0736
เลก	-11.0739
▁ในรอบ	-11.0739
ชอร์	-11.074
คว่ํา	-11.0742
สะโพก	-11.0742
ุนทรพจน์	-11.0742
ิมทรัพย์	-11.0742
เพนกวิน	-11.0742
เหตุสมผล	-11.0742
่ะย่ะค่ะ	-11.0742
จัสติน	-11.0742
วู้ดเซ่น	-11.0743
ชะตากรรม	-11.0743
▁ผู้พัน	-11.0744
ชื่นชอบ	-11.0744
แบรดลีย์	-11.0744
โจนาธาน	-11.0745
เร่งด่วน	-11.0745
ปลอด	-11.0747
ภูเขาไฟ	-11.0748
มาเถอะ	-11.075
แฟ	-11.0751
ฉันก็จะ	-11.0756
▁ใต้เท้า	-11.0757
▁ล้านปี	-11.076
บ้านเรา	-11.076
แจ้งให้	-11.076
กองร้อย	-11.076
26	-11.0762
แลม	-11.0762
▁มีเพียง	-11.0764
คลี	-11.0764
เเก	-11.0764
หัวใจวาย	-11.0765
มัง	-11.0774
ถ่ายทํา	-11.0774
เวลานาน	-11.0776
รูธ	-11.0779
เธชเธด	-11.0781
▁นู	-11.0786
พักร้อน	-11.0787
อสังหาร	-11.0787
ขอเตือน	-11.0793
▁ดิฉัน	-11.0793
ไปได้สวย	-11.0794
ร่อน	-11.0795
จังเลย	-11.0796
ัส	-11.0804
โตมา	-11.0805
เวลส์	-11.0807
การตรวจ	-11.0808
▁จอ	-11.0809
▁07	-11.081
เฟีย	-11.0812
ถูกโจมตี	-11.0816
หนักมาก	-11.0816
เนย	-11.0816
ปั๊ม	-11.0823
ตอนปี	-11.0824
นชั่นแนล	-11.0824
ติดยา	-11.0825
▁เพื่อดู	-11.0826
อยู่จริง	-11.083
คงที่	-11.0831
ผมคง	-11.0841
▁กับความ	-11.0842
ว่าพ่อ	-11.0845
▁ตัดกับ	-11.0845
โลน	-11.0846
อาญา	-11.0848
ฏ	-11.0848
ใบสั่ง	-11.085
แวะไป	-11.0855
เหลียง	-11.0861
แฟรงคลิน	-11.0861
แอฟริกัน	-11.0861
กีตาร์	-11.0861
เอลเลียต	-11.0861
ร์กาเร็ต	-11.0861
เเค่	-11.0861
วูล์ฟ	-11.0862
ภป	-11.0862
พิธีกร	-11.0863
ฟินน์	-11.0864
โซอี้	-11.0865
▁ยังไงก็	-11.0865
ตังค์	-11.0865
เดนนิส	-11.0866
▁ฉันควร	-11.0868
ิลลิกรัม	-11.0868
โอไฮโอ	-11.0868
เท็ดดี้	-11.0869
▁หุบปาก	-11.0871
เพศชาย	-11.0871
มอนด์	-11.0873
อ้อม	-11.0874
เขาเพิ่ง	-11.0874
เอียน	-11.0878
ถุงมือ	-11.0878
▁หรืออาจ	-11.0878
▁2013	-11.0878
0	-11.088
เปน	-11.0882
คิดออก	-11.0883
แบ่งแยก	-11.0883
ทหารราบ	-11.0886
นนิเฟอร์	-11.0887
อักษร	-11.0889
ได้คะแนน	-11.089
▁แอนดี้	-11.0891
อะไรน่ะ	-11.0892
สาบานว่า	-11.0892
▁89	-11.0893
▁แคล	-11.0895
หยวน	-11.0898
สมิธ	-11.0899
ถูกแทง	-11.0901
มอร์แกน	-11.0901
นิวตัน	-11.0903
อบปากคํา	-11.0908
▁170	-11.0908
บินอวกาศ	-11.0909
ตอนไหน	-11.091
ค้าน	-11.091
คุณถึง	-11.0912
มันแย่	-11.0912
ตามปกติ	-11.0913
มีอารมณ์	-11.0914
ในยาม	-11.0915
อวยพร	-11.0915
และเขาก็	-11.0917
รถเข็น	-11.0918
ในรัฐ	-11.0919
หวง	-11.092
รัล	-11.0923
▁ผมจึง	-11.0925
▁91	-11.0926
เขียนบท	-11.0927
จนได้	-11.0927
ฮอฟ	-11.0936
ของเหลว	-11.0936
ก่อให้	-11.0939
จากเหตุ	-11.094
การเล่น	-11.0941
แพท	-11.0942
▁ดอล	-11.0945
ขอถาม	-11.0949
▁คุณเคย	-11.095
มาร	-11.0959
มองหน้า	-11.0959
อ๊ะ	-11.0961
ไปได้ว่า	-11.0964
▁เขาเลย	-11.0966
ไม่ง่าย	-11.0969
ถูกฝัง	-11.0969
เบเกอร์	-11.097
▁แกรี่	-11.0972
ก่ออ	-11.0977
▁วิท	-11.0977
เบิ้ล	-11.0978
หาอะไร	-11.0978
ยืนกราน	-11.0981
๐	-11.0981
หีบ	-11.0981
คาสิโน	-11.0982
ไม่ตาย	-11.0982
▁เธอทํา	-11.0982
กดปุ่ม	-11.0982
เธฅเธฐเน	-11.0983
ลีน่า	-11.0983
ธเน	-11.0983
ฮั่น	-11.0983
▁1988	-11.0984
แสงแดด	-11.0984
บคทีเรีย	-11.0984
▁ก็น่าจะ	-11.0985
▁เธอคง	-11.0987
ลูคัส	-11.0988
เนลสัน	-11.0988
อ่อนไหว	-11.0988
นิเจอร์	-11.0991
ร้อนๆ	-11.0993
นําพา	-11.0995
กายภาพ	-11.1001
ตง	-11.1002
คุมขัง	-11.1003
▁2003	-11.1009
รับจ้าง	-11.1011
▁101	-11.1011
เทพเจ้า	-11.1013
จะขึ้น	-11.1019
▁อัลฟ่า	-11.1019
65	-11.1019
▁เอมี่	-11.1021
ไม่เหลือ	-11.1025
▁เธกเธฑเ	-11.1029
▁ถ้าอยาก	-11.1033
แบลร์	-11.1033
ตั้งท้อง	-11.1033
▁ถ้าลูก	-11.1035
งง	-11.1035
แสงสว่าง	-11.1037
ราตรี	-11.1037
บัว	-11.104
เขาน่าจะ	-11.1041
ตัดหัว	-11.1043
ตายเพราะ	-11.1045
สโต	-11.105
น้ําเงิน	-11.1053
เล่มนี้	-11.1056
▁แคสเซิล	-11.1058
▁190	-11.1058
▁ไอ้เวร	-11.1059
กี่ครั้ง	-11.106
เอ้า	-11.1062
แห	-11.1063
เล่นกัน	-11.1069
ว่าท่าน	-11.1071
ก้อ	-11.1072
▁ผมอาจ	-11.1074
ขึ้นใหม่	-11.1077
▁คุณก็จะ	-11.1077
สงสาร	-11.1079
เราจะหา	-11.1081
มีรอย	-11.1081
กระต	-11.1082
▁ชาร์ลส์	-11.1083
น่าตกใจ	-11.1083
▁ในข้อหา	-11.1084
เอาสิ	-11.1084
คั	-11.1084
เป็นปี	-11.1084
▁มาร์แชล	-11.1084
สอนให้	-11.1086
▁ทางนี้	-11.1088
ชีว	-11.1088
เป็นสาว	-11.109
จากร้าน	-11.1091
มีเสียง	-11.1092
▁บนถนน	-11.1093
56	-11.1093
คนธรรมดา	-11.1093
ผ่อน	-11.1094
รายแรก	-11.1095
แกล	-11.1098
ขอให้ฉัน	-11.11
ที่ฉันจะ	-11.11
ธนู	-11.1101
ราส	-11.1103
จะกลับ	-11.1103
สจ๊วต	-11.1103
หยุดยั้ง	-11.1103
ไรเฟิล	-11.1103
รอบคอบ	-11.1103
หยาบ	-11.1104
ด้านบน	-11.1104
แคนซัส	-11.1104
แฟรง	-11.1104
▁1997	-11.1105
เขาคง	-11.1105
เชอ	-11.1106
เบรดี้	-11.1107
น่าสมเพช	-11.1108
ขึ้นจาก	-11.1108
น้ําท่วม	-11.1109
จากห้อง	-11.1111
โจน	-11.1112
ไอริช	-11.1113
ภาคภูมิ	-11.1114
ล่าสัตว์	-11.1115
หลานสาว	-11.1115
แอรอน	-11.1116
ระบุตัว	-11.1117
็อค	-11.1118
เจ๋งมาก	-11.1119
▁มาย	-11.112
คิดไว้	-11.1122
ได้ดู	-11.1122
มิท	-11.1123
เรดาร์	-11.1124
เคาะ	-11.1124
▁แล้วบอก	-11.1127
ลวก	-11.113
สุก	-11.113
ใดก็ตาม	-11.1131
ฮ่า	-11.1133
อนุ	-11.1141
อืมม	-11.1142
ส่งให้	-11.1142
จมน้ํา	-11.1142
อล	-11.1142
อู่	-11.1143
เหลว	-11.1147
แต่งหน้า	-11.115
ไม่รู้จะ	-11.1153
ไปกิน	-11.1155
อีกฝ่าย	-11.1155
พาร์ค	-11.1157
ขอโทษที	-11.1159
ก็จะมี	-11.116
ให้มีการ	-11.1162
อยู่นอก	-11.1165
ทิล	-11.1166
เว้นแต่	-11.1169
เชื่อฟัง	-11.117
ขับรถไป	-11.1172
เธฒเธงเธ	-11.1172
คูณ	-11.1173
ทอร์	-11.1173
จุดหนึ่ง	-11.1175
▁แคท	-11.1178
ลงแข่ง	-11.1179
เรื่องดี	-11.1181
สึ	-11.1181
ในอวกาศ	-11.1181
▁โทมัส	-11.1181
นายหน้า	-11.1181
ให้แน่ใจ	-11.1188
ฆั	-11.1189
พวกเราจะ	-11.119
บัด	-11.1194
เลี่ยน	-11.1196
แม่เธอ	-11.12
คดีที่	-11.1201
เล่นเพลง	-11.1202
เว่น	-11.1204
เทรน	-11.1206
ลู่	-11.1208
เอกซ์	-11.121
ละทิ้ง	-11.1213
เธชเธ	-11.1213
กุก	-11.1214
ซอย	-11.1215
ริด	-11.1217
จัดตั้ง	-11.122
อีกด้าน	-11.1222
ขายให้	-11.1227
ราบรื่น	-11.1227
โกลาหล	-11.1227
๗	-11.1227
จารึก	-11.1227
มหึมา	-11.1227
วีดีโอ	-11.1227
ล่มสลาย	-11.1227
ในสมอง	-11.1227
อร์ลีนส์	-11.1227
เบาะ	-11.1228
ถูกใช้	-11.1229
ในเกม	-11.123
หลุมดํา	-11.1237
ยม	-11.1237
จากเมือง	-11.1241
มิตร	-11.1243
ชีวิตคน	-11.1244
ลงสมัคร	-11.1248
จะได้ไป	-11.1249
จราจร	-11.125
ผลกําไร	-11.1252
▁เวย์น	-11.1252
ดอล	-11.1262
ฟิช	-11.1265
พลังของ	-11.1268
เก้	-11.127
มืดมิด	-11.127
เดียม	-11.1272
เราจึง	-11.1274
โจว	-11.1275
ชั้นสูง	-11.1276
มีเดีย	-11.1279
ปุ	-11.1282
ด้วยล่ะ	-11.1283
▁ซีซี	-11.1285
ต่อนาที	-11.1286
▁ศาสตร	-11.1298
จัก	-11.1298
นสพ	-11.1299
▁125	-11.1301
▁ราตรี	-11.1301
รักฉัน	-11.1301
ตราบใด	-11.1304
ตายแน่	-11.1304
เน่	-11.1305
ย้อนไป	-11.1307
ฉี	-11.1308
ชาม	-11.131
ขอเชิญ	-11.1317
ตาแก่	-11.1317
หวน	-11.1317
ซื้อขาย	-11.1318
37	-11.1322
ในย่าน	-11.1323
▁ทอมมี่	-11.1324
ความงาม	-11.1326
ฉันควร	-11.1331
ผลตรวจ	-11.1334
▁ผมคิด	-11.1335
ปรากฎ	-11.134
ควบ	-11.1344
สรุปว่า	-11.1348
ปรุง	-11.1348
85	-11.135
ถูกตัด	-11.135
กล้วย	-11.135
จอร์เจีย	-11.1352
สหประชา	-11.1352
อื้อฉาว	-11.1352
เฮ้าส์	-11.1352
เฉิง	-11.1352
หมากรุก	-11.1352
โปรตีน	-11.1352
หาว่า	-11.1354
แนนซี่	-11.1355
เจา	-11.1355
กอบกู้	-11.1355
โฟร์	-11.1357
เอลวิส	-11.1358
ไปนั่ง	-11.136
ขี้เมา	-11.136
▁450	-11.1361
ไซมอน	-11.1361
ชุน	-11.1362
เซนเซอร์	-11.1363
โดรน	-11.1363
โรงละคร	-11.1364
ขายยา	-11.1366
ส่งเสียง	-11.1369
คาดคิด	-11.137
▁ตอบด้วย	-11.1374
ตรงที่	-11.1374
ไปบ้าง	-11.1376
ฟาร์	-11.1379
ถูกเลือก	-11.1379
เมแกน	-11.1379
ริท	-11.138
ที่ไร้	-11.1384
เธกเธญเธ	-11.1387
ฆ่าคุณ	-11.1391
บงการ	-11.1396
จริงหรือ	-11.1397
ร่วมห้อง	-11.1399
นําไป	-11.1404
ข้าคือ	-11.1405
▁นั่นล่ะ	-11.1411
การเสีย	-11.1415
▁ผู้การ	-11.1415
▁เธกเธต	-11.1417
ไทย	-11.142
ฝึกซ้อม	-11.142
▁ฮัลโหล	-11.1422
ชาวนา	-11.1423
▁ซูซาน	-11.1425
แฮร์ริส	-11.1426
คาร์บอน	-11.1427
▁อะไรๆ	-11.1434
เซิร์ฟ	-11.1438
สมัยใหม่	-11.1438
แมทธิว	-11.1441
ตอนคุณ	-11.1446
บ๊อบ	-11.1447
บีช	-11.1448
28	-11.145
กับท่าน	-11.1454
เวลาแค่	-11.146
เจ๊	-11.146
เฮย์	-11.1461
แรด	-11.1462
แก่ตัว	-11.1463
ต้องหยุด	-11.1465
ที่นอน	-11.1467
รู้เลย	-11.1467
โรย	-11.1472
ณช	-11.1475
ยังเหลือ	-11.1475
สู่โลก	-11.1477
ปุ่ม	-11.1478
ซะหน่อย	-11.1478
เคี้ยว	-11.1478
วโรนิก้า	-11.1478
สวดมนต์	-11.1478
เขี้ยว	-11.1478
กระชาก	-11.1478
ลอเรไล	-11.1478
สนุกสนาน	-11.1479
เธฅเธตเน	-11.1479
ดโนเสาร์	-11.148
กลอง	-11.1481
กดขี่	-11.1481
ภูมิภาค	-11.1482
▁ผมก็เลย	-11.1482
พูดมา	-11.1482
ไว้บน	-11.1483
ไอ้หนุ่ม	-11.1483
พล่าม	-11.1484
จะไปหา	-11.1484
คุกกี้	-11.1486
โม่	-11.1486
ขี้แพ้	-11.1487
พิน	-11.1487
ติดหนี้	-11.1487
ทึ่ม	-11.1488
ตัดผม	-11.1489
หลอน	-11.1489
กัก	-11.149
จะจัด	-11.1491
วยเหลือ	-11.1492
▁ในทุก	-11.1492
สามมิติ	-11.1492
ฮุน	-11.1496
ที่โดน	-11.1496
อยู่ตลอด	-11.1498
เขาฆ่า	-11.15
คาร์ลอส	-11.1502
▁โซล	-11.1503
กิ้ง	-11.1505
ดีมากๆ	-11.1505
ตัวแสบ	-11.1507
อาจทํา	-11.1508
ยากมาก	-11.1509
คงอยู่	-11.151
แต่ฉันก็	-11.151
ของร้าน	-11.1512
คราบ	-11.1512
ยารักษา	-11.1514
พบปะ	-11.1514
คริสเตีย	-11.1519
▁บอกให้	-11.1523
ผมบลอนด์	-11.1525
มีคนมา	-11.1529
หน้าผา	-11.1529
ได้ค่ะ	-11.1533
ไฟร์	-11.154
เห็นแล้ว	-11.1541
รถชน	-11.1544
กับแฟน	-11.1548
ดดี้	-11.1548
เคป	-11.1548
ภาพของ	-11.1549
น้ํายา	-11.155
ปลอมตัว	-11.155
▁แลกกับ	-11.155
▁เขาคือ	-11.1555
แบต	-11.1556
ฉันเชื่อ	-11.1556
▁คุณถูก	-11.1556
สปาร์	-11.1562
ิ่ง	-11.1564
ในไม่ช้า	-11.1565
เคยพูด	-11.1567
เคีย	-11.1572
▁นึกออก	-11.1575
กับสิ่ง	-11.1576
ให้พร้อม	-11.158
ไกลจาก	-11.1581
แนวหน้า	-11.1582
▁แบรน	-11.1583
ขอเสนอ	-11.1589
ปาร์ค	-11.1589
หลับตา	-11.1591
โรด	-11.1593
เซา	-11.1595
มีข่าว	-11.16
พวกเด็กๆ	-11.1601
▁ชัค	-11.1603
มันช่าง	-11.1605
ขืน	-11.1606
กะทันหัน	-11.1607
บรอดเวย์	-11.1607
บริโภค	-11.1607
อาณาเขต	-11.1607
ไอ้จ้อน	-11.1607
ขอพูด	-11.1607
เอื้อม	-11.1607
รําลึก	-11.1608
▁1992	-11.1608
อิซาเบล	-11.1608
รสนิยม	-11.1608
เราค่อย	-11.1609
คาเฟ่	-11.1609
▁1985	-11.1609
โซเฟีย	-11.161
ปลอมแปลง	-11.1614
ทําเอง	-11.1614
สป	-11.1616
งานศิลปะ	-11.1617
พระราชา	-11.1618
ช่าย	-11.1619
โดร	-11.1619
ต้อน	-11.1621
ดื่มกาแฟ	-11.1621
เธชเธญเธ	-11.1622
คนเลว	-11.1623
ตาร์ลิ่ง	-11.1623
▁แอส	-11.1624
▁รูปี	-11.163
ก็จะไม่	-11.1631
เก้น	-11.1632
ชีวิตคู่	-11.1633
ร้าว	-11.1635
คนเดิม	-11.1639
ผมนึกว่า	-11.164
โทรม	-11.1645
ไม่เพียง	-11.1651
ตกลงมั้ย	-11.1652
ในตํานาน	-11.1652
คลาน	-11.1653
ความน่า	-11.1653
ไรท์	-11.1654
ร่อง	-11.1655
จะทิ้ง	-11.1658
พอร์	-11.1658
อร่อยๆ	-11.1658
ยินดีต้อ	-11.1661
ตะวัน	-11.1661
แฉ	-11.1662
นั่งรถ	-11.1665
สมัยก่อน	-11.1666
มน	-11.1668
▁ปีมานี้	-11.1671
นิน	-11.1671
นายทหาร	-11.1677
มด	-11.1677
พาเราไป	-11.1679
กับภรรยา	-11.1679
จิบ	-11.1679
เซิล	-11.1685
นั่นเอง	-11.1687
สิ่งดีๆ	-11.1688
ขอความช่	-11.1688
อยู่หลัง	-11.1689
รอยสัก	-11.1691
ได้กลิ่น	-11.1696
สูญ	-11.1696
ใช่มั๊ย	-11.1697
ตช์	-11.1697
สองนาที	-11.1698
ห้องครัว	-11.1702
ดัด	-11.1704
รักลูก	-11.1706
▁ฌอน	-11.1707
ขวบ	-11.1709
กราด	-11.1709
เอเวอร์	-11.1709
หอบ	-11.171
นัล	-11.1711
ราม	-11.1713
สมมติ	-11.1713
กลับกัน	-11.1714
จะจบ	-11.1716
ตกต่ํา	-11.1718
มีแผล	-11.1722
ทําท่า	-11.1722
มูล	-11.1726
ชัวร์	-11.1726
คอร์ด	-11.1727
ียน	-11.1727
โทรแจ้ง	-11.1734
ป่วน	-11.1736
วัคซีน	-11.1737
แชมเปญ	-11.1737
กานิสถาน	-11.1737
ฉลิมฉลอง	-11.1737
เผด็จการ	-11.1737
แอปเปิ้ล	-11.1737
มิง	-11.1737
เกล็น	-11.1738
กระทง	-11.1738
อุบัติ	-11.1738
เกิดอุ	-11.1739
ชาร์ลส	-11.1739
็ล	-11.1742
ค้อน	-11.1746
คิวบา	-11.1746
รอยยิ้ม	-11.1747
มีผู้เ	-11.175
ชุดนี้	-11.1751
ทุกเช้า	-11.1752
เห็นมัน	-11.1752
จะเล่น	-11.1755
ไงคะ	-11.1756
แปะ	-11.1756
▁2005	-11.1757
▁71	-11.1762
จะหายไป	-11.1766
เอ็มไอ	-11.1769
ไปต่อ	-11.1771
จะไม่ทํา	-11.1772
ห์น	-11.1773
บิง	-11.1774
งานพรอม	-11.1775
▁2001	-11.1775
จุดอ่อน	-11.1778
ราวของ	-11.1778
จะทํางาน	-11.1782
เจฟ	-11.1783
มาร์โก	-11.1783
▁แต่แม่	-11.1785
ผุ	-11.179
อาบู	-11.1791
นอฟ	-11.1792
เวียร์	-11.1795
บริดจ์	-11.1795
▁จุดนี้	-11.1796
มีรูป	-11.1801
เต็มตัว	-11.1804
กวี	-11.1806
ควง	-11.1808
ดิ่ง	-11.1811
สั	-11.1815
▁แบลร์	-11.1815
▁และช่วย	-11.1816
ตรึง	-11.1819
อาลี	-11.1819
แฟลช	-11.1827
ิน	-11.1828
รูดี้	-11.1831
คือผู้	-11.1831
ใครคือ	-11.1834
ฤทธิ์	-11.1843
▁เขาได้	-11.1845
สมัยนั้น	-11.1845
อิส	-11.1853
เธฅเธ	-11.1853
โรซา	-11.1854
พระราช	-11.1854
อย่างไร้	-11.1856
เอ็ดการ์	-11.1857
คุณธรรม	-11.1858
มันผิด	-11.1858
▁ทุกสิ่ง	-11.1859
▁ว่าการ	-11.1861
บิต	-11.1861
พาฉันไป	-11.1862
มืองหลวง	-11.1862
ชายอายุ	-11.1863
สูงมาก	-11.1863
สามารถหา	-11.1864
เบี้ย	-11.1864
ปิศาจ	-11.1868
เยียวยา	-11.1868
ตําหนิ	-11.1868
มั่งคั่ง	-11.1868
เจ้าบ่าว	-11.1868
หรูหรา	-11.1868
ข้าวโพด	-11.1868
ไปตายซะ	-11.1869
ลอดจ์	-11.1869
กระเพาะ	-11.187
เอียง	-11.187
ฉาง	-11.187
▁1944	-11.187
▁1995	-11.187
บาว	-11.1871
หอคอย	-11.1873
ุ่ย	-11.1874
เดือด	-11.1874
ช้อน	-11.1874
วินัย	-11.1874
ดีจัง	-11.1875
ข้อสอง	-11.1876
ชั	-11.1878
เพิร์ล	-11.1878
ทราน	-11.1881
ชีวา	-11.1881
เกิดใหม่	-11.1883
เหล่าผู้	-11.1885
เอลเลน	-11.1889
ลอยด์	-11.1889
แรงดัน	-11.1889
มดลูก	-11.1889
ได้มั้ง	-11.1889
อริส	-11.189
หางาน	-11.189
สปีด	-11.1896
และเราก็	-11.1898
ิงตัน	-11.1899
สาด	-11.1903
▁บ๊อบ	-11.1903
ที่เหมาะ	-11.1904
ผมจํา	-11.1905
แกรม	-11.1908
ตามกฎ	-11.1911
น่าอาย	-11.1914
ในคืนที่	-11.1915
โคจร	-11.1916
สีหน้า	-11.1917
ใจร้าย	-11.1917
ของยาน	-11.1918
ฉันอ่าน	-11.1919
เธฒเน	-11.1919
ตอนเหนือ	-11.192
นอล	-11.1926
บุญคุณ	-11.1929
ฮันเตอร์	-11.1929
เลา	-11.1932
ชาร์จ	-11.1933
เลียม	-11.1935
ต้องส่ง	-11.1935
พาเขาไป	-11.1935
รวมกับ	-11.1939
ไปอยู่ใน	-11.194
อย่าให้	-11.1942
แอป	-11.1945
แก่กว่า	-11.1946
▁สเตฟาน	-11.1947
เราเสีย	-11.1948
มาเยอะ	-11.1953
ลึกลงไป	-11.1954
แบล	-11.1956
▁61	-11.1957
วุ่น	-11.1962
ก็ยังไม่	-11.1966
ตลอดทั้ง	-11.1971
สตอร์ม	-11.1972
พบคุณ	-11.1973
เอ่ย	-11.1975
▁ผมก็จะ	-11.1975
หยุดก่อน	-11.1975
▁แกจะ	-11.1976
สยอง	-11.1977
บอร์น	-11.1978
บอม	-11.198
เคลลี่	-11.1982
วัยเด็ก	-11.1982
▁พ่อก็	-11.1982
สิ่งแรก	-11.1984
ณ์	-11.1986
หนูน้อย	-11.1988
▁เบ็น	-11.1992
ลวด	-11.1996
อยู่เฉยๆ	-11.1996
นึกได้	-11.1998
ห่างออก	-11.1999
บู๊	-11.2
ตามแผน	-11.2001
ครอบงํา	-11.2001
สแควร์	-11.2001
ต้มตุ๋น	-11.2001
สเตท	-11.2002
ให้หลัง	-11.2002
เอเวอรี่	-11.2002
เปิล	-11.2002
โศกเศร้า	-11.2003
▁1989	-11.2003
เธอไว้	-11.2003
ขั้วโลก	-11.2004
ล้ําค่า	-11.2007
มากิน	-11.2008
พรมแดน	-11.2011
บส์	-11.2012
จุดนี้	-11.2015
เจ้าพ่อ	-11.2017
ในคืนวัน	-11.2017
การวิจัย	-11.2018
เมอร์ลิน	-11.2018
หลงรัก	-11.2019
ดอนนี่	-11.202
▁2004	-11.2021
คุณภาพ	-11.2022
วาระ	-11.2022
ทําไมเธอ	-11.2026
ลิสต์	-11.2027
ผ้าเช็ด	-11.203
ฮาล	-11.2032
เหมา	-11.2033
นางแบบ	-11.2033
มป์	-11.2034
กินอะไร	-11.2034
บ้านเลข	-11.2038
มัดระวัง	-11.2038
พั	-11.2038
▁แพท	-11.2039
▁แมทธิว	-11.2041
ได้ยาก	-11.2047
บุญ	-11.2047
ฉันจะเอา	-11.2049
ระยะไกล	-11.2051
▁ฮอลล์	-11.2051
เน็ด	-11.2052
ไอ้นั่น	-11.2052
พยายามหา	-11.2054
โธ	-11.2055
กราฟ	-11.2057
ไม่สิ	-11.2059
ในส่วน	-11.2064
เนิน	-11.2075
ขโมยเงิน	-11.2082
โดยการ	-11.2086
บอกลา	-11.2087
▁บรูซ	-11.2088
ปีใหม่	-11.2095
ผู้ใช้	-11.2095
▁มาเลย	-11.2096
เราคง	-11.2098
▁ช่างมัน	-11.2098
จิล	-11.2099
สัตย์	-11.21
สวิส	-11.21
▁จากความ	-11.21
มยอง	-11.2101
หลอม	-11.2104
ที่ตายไป	-11.2106
อนา	-11.2107
มาเล่น	-11.2108
พูดคํา	-11.2109
มอนโร	-11.2111
▁เพราะมี	-11.2111
สัม	-11.2114
ลาออกจาก	-11.2119
โว้	-11.2119
ลงบน	-11.2122
ณี	-11.2122
คนบ้า	-11.2123
รอนนี่	-11.2125
ก็หายไป	-11.2126
ซาตาน	-11.2129
หนุน	-11.2131
ระฆัง	-11.2137
มิชิแกน	-11.2137
ไก่งวง	-11.2137
กัมมันต	-11.2137
ภายหลัง	-11.2137
พาวเวอร์	-11.2137
เผ่น	-11.2137
ทวด	-11.2137
ดัลลัส	-11.2137
เทนนิส	-11.2138
เมดิ	-11.2138
แฟรงกี้	-11.2138
โอลด์	-11.2139
ประมุข	-11.2139
ล้านวอน	-11.214
ว่าจะไม่	-11.214
ฟิตซ์	-11.2141
ถือหุ้น	-11.2142
เย่	-11.2143
▁1940	-11.2144
โพรง	-11.2147
จอย	-11.2148
ดินเนอร์	-11.2148
คนอายุ	-11.2149
สกุล	-11.2151
ยุง	-11.2152
ความดี	-11.2153
ทอร์เรส	-11.2156
▁ข้าไม่	-11.2156
ถ้ามีคน	-11.2158
มาสาย	-11.2159
▁คือความ	-11.2159
ในครัว	-11.2162
▁โย่	-11.2164
ฮวน	-11.2165
ชีพจร	-11.2166
ควิน	-11.2168
คืนวัน	-11.2171
▁2012	-11.2174
นะจ๊ะ	-11.2174
ฮึ	-11.2175
▁และอาจ	-11.2175
จนหมด	-11.2176
▁มันน่า	-11.218
ช่วงปี	-11.2182
88	-11.2183
ยืมเงิน	-11.2184
สาบานเลย	-11.2186
นุ	-11.2194
บุตรชาย	-11.2195
▁แต่อย่า	-11.2195
ชง	-11.2196
▁พอแล้ว	-11.2197
คนคนนั้น	-11.22
รํา	-11.22
▁เบลีย์	-11.2201
เปอ	-11.2207
อื่นใด	-11.2211
▁เป็นค่า	-11.2211
สมรู	-11.2211
ในบัญชี	-11.2213
▁ซึ่งอาจ	-11.2214
กลายมา	-11.2217
▁เอาเป็น	-11.2219
การเจรจา	-11.2223
ผมรักคุณ	-11.2223
โปรดของ	-11.2227
ก้าวไป	-11.2227
ปลอก	-11.2228
ฉิน	-11.223
ฝึกงาน	-11.2231
▁หยวน	-11.2232
ฉันซื้อ	-11.2233
เหม	-11.2235
ุส	-11.2235
นึกออก	-11.2239
ไปทําไม	-11.224
หนึ่งวัน	-11.2242
สวะ	-11.2243
ฆ่าตาย	-11.2244
กรู	-11.2245
มีใครให้	-11.2245
ในบริเวณ	-11.2255
ของพี่	-11.2258
ปล่อง	-11.226
พ่อก็	-11.2266
เปิดใจ	-11.2266
นิวอ	-11.2267
พาตัว	-11.2268
ก็รู้สึก	-11.2269
การรบ	-11.227
นัท	-11.2273
ือรือร้น	-11.2274
โมเลกุล	-11.2274
สัยทัศน์	-11.2274
สําเนียง	-11.2274
อสังหาฯ	-11.2274
เคลือบ	-11.2274
ข่าน	-11.2274
จิ้ม	-11.2274
แมงมุม	-11.2274
บาวเออร์	-11.2274
เจ้านี่	-11.2274
หารือ	-11.2274
มายากล	-11.2275
รีซ	-11.2276
อุ๊ย	-11.2276
มาตรการ	-11.2277
แครอล	-11.2278
กิ๊ก	-11.2278
ชีวิตใน	-11.2279
กรุงโซล	-11.2279
64	-11.2279
ไหนล่ะ	-11.228
วิคกี้	-11.2281
ว่าจะมี	-11.2281
เปิดร้าน	-11.2282
วอร์เรน	-11.2282
สูญหาย	-11.2284
ผู้เข้า	-11.2284
วงดนตรี	-11.2284
ซึง	-11.2285
ฉันอาจ	-11.2287
การรัฐ	-11.2288
ซือ	-11.229
ซะแล้ว	-11.2293
เพนซ	-11.2294
หนักกว่า	-11.2294
ดาวหาง	-11.2295
งด	-11.2297
▁เราอยาก	-11.2301
แข่งกับ	-11.2301
หากเรา	-11.2302
สนิทกัน	-11.2304
ทิส	-11.2309
ในตอน	-11.2313
ไม่กลัว	-11.2316
ยูเอส	-11.2319
ริฟ	-11.2321
งั้นรึ	-11.2321
กั	-11.2326
ยาพิษ	-11.2328
ฝึกฝน	-11.2329
มาทางนี้	-11.2331
สาน	-11.2332
กลไก	-11.2333
ชีวิตรอด	-11.2335
▁ได้ถูก	-11.2336
แบด	-11.2339
ต้องดูแล	-11.234
ขอบอกว่า	-11.2341
จิตเวช	-11.2342
นายพูด	-11.2342
เธอควร	-11.2343
ทอย	-11.2344
อ็อก	-11.2345
33	-11.2346
ต้องโทษ	-11.2351
เราอยาก	-11.2352
เวลานั้น	-11.2353
ก่อนสิ	-11.2353
พาเธอไป	-11.236
ล์มเมอร์	-11.2362
ชีวิตคุณ	-11.2365
แพม	-11.2372
ฟิก	-11.2374
สนุกมาก	-11.2376
ตัวต่อ	-11.2382
▁ชีพจร	-11.2383
ยีน	-11.2385
เก่งๆ	-11.2385
รีฟ	-11.2388
ได้ชัด	-11.239
จะมอบ	-11.2394
ลนเนิร์ด	-11.2395
ผมเดาว่า	-11.2397
เฉ	-11.24
เธอเพิ่ง	-11.2402
ได้ง่ายๆ	-11.2402
พวกคุณจะ	-11.2404
หนูจะ	-11.2406
ว่าแก	-11.241
เตอร์ดัม	-11.2411
เฮโรอีน	-11.2412
แอนเจลิส	-11.2412
โวยวาย	-11.2412
สเปียร์	-11.2412
นาตาลี	-11.2413
▁ถึงได้	-11.2413
โปรดิว	-11.2413
ปกคลุม	-11.2413
องค์ชาย	-11.2414
ดัดแปลง	-11.2414
ไถ	-11.2415
ผัว	-11.2415
เคอ	-11.2415
อย่ามา	-11.2415
แก้ผ้า	-11.2416
เจล	-11.2418
ทําพิธี	-11.2418
รอบโลก	-11.2418
ซิลเวอร์	-11.2418
เวนดี้	-11.2419
แก้ต่าง	-11.2421
จะคิด	-11.2421
ดรีม	-11.2424
แจ้งความ	-11.2425
กินเนื้อ	-11.2425
ฟัล	-11.2425
หมาก	-11.2428
สี่ทุ่ม	-11.243
วาดรูป	-11.2433
งา	-11.2434
ถูกเรียก	-11.244
ระบบดาว	-11.244
▁ฟรานซิส	-11.2441
อิก	-11.2443
เรแกน	-11.2445
ยานลํา	-11.2445
มาย	-11.2446
ฉก	-11.2447
▁บอกมา	-11.245
เธญเธกเธ	-11.2452
เลขา	-11.2452
หยิ่ง	-11.2458
▁แกรนท์	-11.2458
▁เจส	-11.2461
และมันก็	-11.2463
งอ	-11.2464
อันเป็น	-11.2464
๊ค	-11.2469
จะเดิน	-11.2471
สิบเอ็ด	-11.2473
ทนายของ	-11.2475
▁หนูจะ	-11.2475
ซ่อนไว้	-11.2477
มอบตัว	-11.2478
เสียที	-11.2479
งานฉลอง	-11.2482
ลงมาจาก	-11.2485
อยด์	-11.2486
เนื้อหา	-11.2487
โจนส์	-11.2488
มุ่งไป	-11.2491
ฟราน	-11.2491
▁โอเค้	-11.2491
ติดกัน	-11.2491
▁ออล	-11.2492
กันบ้าง	-11.2493
▁สตาร์ค	-11.2494
ทางทหาร	-11.2503
เริ่มการ	-11.2504
ท่านคะ	-11.2505
พันคน	-11.2505
ปีนเขา	-11.2508
บิท	-11.2508
คงมี	-11.2512
ของปี	-11.2517
มันเกิด	-11.2529
งั้นฉัน	-11.253
ตัวร้าย	-11.2534
ด้วยมือ	-11.2535
ขึ้นเรือ	-11.2536
ส่งผลต่อ	-11.2537
การพนัน	-11.2539
สสาร	-11.2542
รู้มั๊ย	-11.2542
พอร์ท	-11.2546
ไปใช้	-11.255
เขาจะไม่	-11.255
เร้า	-11.255
ตายจริง	-11.255
การบุก	-11.255
▁รมต	-11.255
กาม	-11.2551
ออง	-11.2551
หวังจะ	-11.2552
วิด	-11.2552
ถัดมา	-11.2553
บรรทัด	-11.2553
มณฑล	-11.2553
เฟรนช์	-11.2553
แขวง	-11.2553
ฮิวจ์	-11.2554
เธงเธขเน	-11.2554
สีชมพู	-11.2555
ล้มละลาย	-11.2555
▁ออนซ์	-11.2555
เมดิสัน	-11.2556
ทิป	-11.2557
ฮาเวิร์ด	-11.2559
รูด	-11.2559
เฮีย	-11.256
วางยา	-11.256
เธกเธทเน	-11.2562
▁ตามด้วย	-11.2564
ก็จะเป็น	-11.2565
ิบ	-11.2567
นิยาม	-11.2568
ท้องถนน	-11.2573
เเม่	-11.2573
้ย	-11.2573
กลับไปหา	-11.2574
ซีดี	-11.2574
ทราบแล้ว	-11.2577
ยอดเขา	-11.2582
โอ๊ะ	-11.2583
ราวกับ	-11.2583
เรอะ	-11.2584
มีรายได้	-11.2586
ลิโอ	-11.2586
หลังบ้าน	-11.2588
ริต้า	-11.259
เคยไป	-11.2591
▁แต่ผมก็	-11.2591
เอสเอส	-11.2592
ฉันเขียน	-11.2593
ลูกสาวผม	-11.2594
คุณจะทํา	-11.2594
หมายจับ	-11.2596
ร้านค้า	-11.2596
กี่นาที	-11.2597
นายเคย	-11.2597
ชื่อมต่อ	-11.2598
แสนดี	-11.2598
เป็นภัย	-11.26
เฮด	-11.2604
ลงชื่อ	-11.2605
ถ้าจะให้	-11.2608
ยี่	-11.261
คนรับใช้	-11.2614
เล่นๆ	-11.2615
ปส์	-11.2617
ที่ผมทํา	-11.2619
บนโลกนี้	-11.2619
อยากบอก	-11.2623
ต่อเดือน	-11.2625
ตัวเดียว	-11.2627
ครูสอน	-11.2628
ฟเวอร์	-11.2634
ที่มีการ	-11.2638
กรอง	-11.264
มีสิทธิ	-11.2644
ชีวิตเธอ	-11.2647
เดียน	-11.2647
ฝันถึง	-11.2648
เมย์	-11.2648
รับได้	-11.2649
พิก	-11.2653
แฟนฉัน	-11.2653
ตอร์	-11.2655
จะขาย	-11.2655
▁เขาก็จะ	-11.2655
ดีใจมาก	-11.2657
สนุกกัน	-11.2658
ร็อบ	-11.2659
▁จะอยู่	-11.2659
คนที่คุณ	-11.2662
ซื้อบ้าน	-11.2664
ผมก็อยาก	-11.2666
ฉันจะพูด	-11.2667
แต่ทว่า	-11.2669
ชิค	-11.2671
ถ้าผมไม่	-11.2671
ฉลาดมาก	-11.2672
ไดั	-11.2673
น่าจะมี	-11.2674
ใช้พลัง	-11.2675
เชค	-11.2675
การสนทนา	-11.2681
ส่วนผสม	-11.2687
บอท	-11.2688
จะปกป้อง	-11.2692
ตะโกนว่า	-11.2693
แห่	-11.2693
นี่สิ	-11.2694
ก้ม	-11.2696
หลั่ง	-11.2696
บรรเทา	-11.2696
๕	-11.2696
ปฏิญาณ	-11.2696
▁บ้าเอ๊ย	-11.2696
ูญพันธุ์	-11.2697
แอ็	-11.2697
ชีววิทยา	-11.2698
สตู	-11.2698
สารพัด	-11.2699
ห่าน	-11.27
สีเหลือง	-11.27
เกร็ก	-11.27
พฤหัสบดี	-11.2701
แจ็กสัน	-11.2701
จากศูนย์	-11.2701
ไททัน	-11.2702
พี่ใหญ่	-11.2702
▁งั้นเรา	-11.2703
แฟล	-11.2703
ี้ย	-11.2703
เจียง	-11.2704
โดมิเนีย	-11.2707
สาป	-11.2707
ฮวัง	-11.2711
โอเวอร์	-11.2711
ชิ่ง	-11.2712
ปัน	-11.2713
ในชุมชน	-11.2714
ครอว์	-11.2715
จะได้เจอ	-11.2715
อื่นอีก	-11.2719
ขอบอกเลย	-11.272
มีพยาน	-11.2722
ต่อไปนี้	-11.2722
เขาเสีย	-11.2723
อยู	-11.2729
ล่าช้า	-11.2732
รอบชิง	-11.2735
แบ่งกัน	-11.2736
เตือนภัย	-11.2737
อาตัวรอด	-11.2739
เธงเธ	-11.2739
มือขวา	-11.2741
ซักผ้า	-11.2743
บินได้	-11.2745
สเบิร์ก	-11.2745
มันก็ไม่	-11.275
ติดตัว	-11.2751
คยอง	-11.2751
สมัยนี้	-11.2752
ฮง	-11.2753
เข้ารหัส	-11.2755
ทิ้งฉัน	-11.2757
ส่งต่อ	-11.276
เธซเธฒ	-11.2766
เอาใจ	-11.2767
อีเมล์	-11.2771
ขอดู	-11.2778
นักดนตรี	-11.2779
เชียน	-11.2779
ที่สนาม	-11.2784
ฝนตก	-11.2788
▁ผมจะได้	-11.279
▁รอให้	-11.2791
คืนหนึ่ง	-11.2797
คาส	-11.2797
คู่มือ	-11.2798
มันซะ	-11.28
แจ็คสัน	-11.28
เรือง	-11.2806
ตัวผู้	-11.2806
เยื่อ	-11.281
งอก	-11.2812
มาดูกัน	-11.2814
ติว	-11.2817
ก็กลับมา	-11.2819
ที่ประสบ	-11.2825
ปล่อยฉัน	-11.2825
ถ่ายทอดส	-11.2826
โชคดีนะ	-11.2826
แคต	-11.2827
ร่ํา	-11.2831
รูปภาพ	-11.2833
คนขาย	-11.2837
ไอ้คน	-11.2838
มนตร์	-11.2841
จิ้งจอก	-11.2841
ผับ	-11.2841
มงกุฎ	-11.2841
สรรเสริญ	-11.2841
เกลียว	-11.2841
ฮอร์โมน	-11.2841
เหนียว	-11.2841
เอ๋ย	-11.2841
ซีรีส์	-11.2841
สาธารณชน	-11.2842
ผ้าอ้อม	-11.2842
ก้าวร้าว	-11.2843
ชั้นล่าง	-11.2843
โค่	-11.2844
แรนดี้	-11.2844
บ่า	-11.2845
โบนัส	-11.2845
คาวบอย	-11.2846
เกลี้ยง	-11.2846
ถวาย	-11.2846
ฟอกเงิน	-11.2846
เติมเต็ม	-11.2852
ซานต้า	-11.2854
แอนโทนี่	-11.2856
ดิ้น	-11.2856
ผิดๆ	-11.2859
๋อ	-11.2863
▁2014	-11.2868
ทัส	-11.2869
ุ้ง	-11.287
อยู่บ้าง	-11.2872
ออกแบบมา	-11.2873
เวช	-11.2874
ในเลือด	-11.2878
เรียม	-11.2882
ลูกชายผม	-11.2882
จาร์	-11.2884
จะยัง	-11.2887
ตัดขาด	-11.2888
ข่าวร้าย	-11.2889
วิถีทาง	-11.289
ขายของ	-11.289
พิธีกรรม	-11.2895
มีใครรู้	-11.2895
คนชั่ว	-11.2898
คํานึง	-11.2898
ตลกดี	-11.2902
มันเริ่ม	-11.2902
ั่ง	-11.2906
รักษาตัว	-11.2908
หมดเวลา	-11.2911
ชนบท	-11.2912
ดาวดวง	-11.2913
บอกข้า	-11.2914
้ค	-11.2916
▁น็อต	-11.2918
ดาล	-11.2919
้ํา	-11.2921
ลดความ	-11.2921
สมัยที่	-11.2923
หาเรื่อง	-11.2927
แก่ๆ	-11.2931
มันควรจะ	-11.2934
เข้าไว้	-11.2936
ตํ	-11.2936
การเต้น	-11.2937
อุด	-11.2937
บอกชื่อ	-11.294
นายน่าจะ	-11.294
▁ถ้าเจ้า	-11.294
กับคดี	-11.2941
ผมเชื่อ	-11.2941
นั่งรอ	-11.2943
ปืนกล	-11.2943
คอต	-11.2943
แค่ครั้ง	-11.2944
ดูทีวี	-11.2945
ฉันเองก็	-11.2946
สัตว์ป่า	-11.2946
เบท	-11.2947
ตัวนึง	-11.2948
มีนาคม	-11.295
ชนกัน	-11.2952
ิ้ล	-11.2953
เฟส	-11.2954
สมมุติ	-11.2956
พัล	-11.2956
ก็อด	-11.2957
ภู	-11.2957
68	-11.2961
อยู่แถว	-11.2963
มาหาผม	-11.2966
วอท	-11.2966
อย่างนึง	-11.2967
ดีมากเลย	-11.2967
ผมยินดี	-11.2968
ชิด	-11.2968
ช้าลง	-11.297
ถ้าอยาก	-11.2977
▁ฑื	-11.2977
เป็นทีม	-11.2977
ขบวนการ	-11.2978
แนบ	-11.2979
เขาเริ่ม	-11.2979
เธงเธฒเธ	-11.298
เถียงกัน	-11.2982
เป็นธรรม	-11.2985
ตอก	-11.2986
ควอนตัม	-11.2988
ชํานาญ	-11.2988
สะดุด	-11.2988
อันธพาล	-11.2988
เสี่ยว	-11.2988
ไตร่ตรอง	-11.2988
▁แกลลอน	-11.2988
สบู่	-11.2988
เดเรค	-11.2988
วอร์ป	-11.2989
ต้องทน	-11.299
▁1941	-11.299
▁1996	-11.299
▁1987	-11.299
เชลบี้	-11.2991
เคาน์ตี้	-11.2991
แก๊งค์	-11.2991
ปัญหาคือ	-11.2992
แคนดี้	-11.2992
เพ็น	-11.2994
โรงไฟฟ้า	-11.2995
ป๊อป	-11.2996
ฮอลลี่	-11.2996
ยานพาหนะ	-11.2998
อายุน้อย	-11.2999
จุง	-11.3001
รุ่งขึ้น	-11.3002
จึงต้อง	-11.3002
จะเข้าไป	-11.3003
เม็ก	-11.3005
อะไรวะ	-11.3007
ปรี	-11.3008
การนํา	-11.3008
การวิ	-11.3009
จากกล้อง	-11.301
รอดจาก	-11.301
อะไรหรอก	-11.3011
เป็นปกติ	-11.3013
โปรดทราบ	-11.3016
แฮะ	-11.3017
ขี้ยา	-11.3022
เครน	-11.3023
ฝังศพ	-11.3023
ก็เจอ	-11.3024
▁แบส	-11.3027
ฮอร์น	-11.3028
ฐานะ	-11.3028
รู้นะ	-11.3028
เป๊ะๆ	-11.3031
โรซ่า	-11.3035
นานถึง	-11.3035
ส่งมอบ	-11.3037
จะตก	-11.3038
สิบห้า	-11.3039
วิชาการ	-11.3039
สมองของ	-11.3041
ราน	-11.3043
ื้	-11.3044
▁เธฃเธฑเ	-11.3048
ภรรยาเขา	-11.3058
ต้องขอ	-11.3061
จัดขึ้น	-11.3064
ชายหญิง	-11.3065
ห้องโถง	-11.3069
▁มันก็จะ	-11.307
คนทั่วไป	-11.3072
และเธอก็	-11.3072
อีกฝั่ง	-11.3073
ไอ้เด็ก	-11.3076
38	-11.3076
จงใจ	-11.3078
ไซส์	-11.3081
ตัวตนของ	-11.3083
เดินมา	-11.3084
อีฟ	-11.3088
เอาชีวิต	-11.3089
ผู้กํา	-11.3091
มาไกล	-11.3093
เบนนี่	-11.3093
มากถึง	-11.3093
พ่อรู้	-11.3094
ายการบิน	-11.3096
เยือน	-11.3097
ลูกบอล	-11.3099
พาฉัน	-11.3101
ดีล่ะ	-11.3101
จะประกาศ	-11.3102
หล่ะ	-11.3102
อีกเหรอ	-11.3102
59	-11.3111
ขโมยของ	-11.3116
แม่สาว	-11.3116
ฝากข้อ	-11.3118
โน้น	-11.312
ว่าไม่มี	-11.3127
กับงาน	-11.3129
กินมื้อ	-11.3129
เมียผม	-11.3133
▁สามีของ	-11.3135
กิ้น	-11.3137
จลาจล	-11.3137
ชพเพิร์ด	-11.3137
เละเทะ	-11.3137
บตเตอรี่	-11.3137
พิคาร์ด	-11.3137
นิติเวช	-11.3138
ล็อบบี้	-11.3138
เจฟเฟอร์	-11.3138
แล้ง	-11.3138
มาดาม	-11.3139
แท็ก	-11.3139
เชอร์ชิล	-11.3139
เคนเนดี้	-11.3139
อสโกบาร์	-11.3139
อึ้ง	-11.3139
ุ่งเหยิง	-11.3139
เธอเอง	-11.314
การขาย	-11.314
เสพยา	-11.3141
โดนัท	-11.3141
ชี้ให้	-11.3142
ลิซซี่	-11.3142
เกียร์	-11.3143
บอกหน่อย	-11.3143
อ่อนโยน	-11.3143
เรี่ยน	-11.3144
ซ้ําเล่า	-11.3146
โค้ด	-11.3149
คีธ	-11.3154
ที่ผมพูด	-11.3155
แครี่	-11.316
ิ้ง	-11.316
ได้ฟัง	-11.316
พักพิง	-11.3162
มิสซิส	-11.3162
ถูกส่งมา	-11.3163
ลดราคา	-11.3163
ปิดกั้น	-11.3164
42	-11.3166
▁2011	-11.3167
ร่าย	-11.3168
หลายวัน	-11.3168
ทุกชนิด	-11.3172
ริดจ์	-11.3174
ยูริ	-11.3177
ตามหลัก	-11.3177
ถามอะไร	-11.3179
ลายล้าง	-11.3179
เลยนะคะ	-11.318
ยังจํา	-11.318
จะชอบ	-11.3185
ชิพ	-11.3186
นักท่อง	-11.3191
เล่	-11.3193
เห็นความ	-11.3194
เร่	-11.3195
เสื้อยืด	-11.3203
ไม่น่าจะ	-11.3204
รักแท้	-11.3206
▁นายคง	-11.3206
พอลลี่	-11.3209
ขนของ	-11.3211
เหว	-11.3218
ทอล	-11.3218
อยู่ห้อง	-11.3221
แพร	-11.3221
เป็นรูป	-11.3221
ตซ์	-11.3223
มาบ้าง	-11.3228
ตามนั้น	-11.3229
ความแ	-11.3229
มีอา	-11.3236
เจ็ดปี	-11.3236
แองเจลิส	-11.324
ถูกปิด	-11.324
ง่ายมาก	-11.3241
อะไรมั้ย	-11.3243
ด้านข้าง	-11.3246
กูล	-11.3246
ให้ยา	-11.3248
ท่านหญิง	-11.3249
ระลึกถึง	-11.325
เลือน	-11.325
ในด้าน	-11.325
ู้	-11.3252
01	-11.3255
ของชาติ	-11.3257
ตอนเด็ก	-11.3258
องค์การ	-11.3265
หากท่าน	-11.3268
ศัลย	-11.3271
ไอ้หนู	-11.3272
พีช	-11.3278
ถ่วง	-11.3281
ควัก	-11.3284
ฟิลลิป	-11.3284
คูเปอร์	-11.3286
เทา	-11.3287
เรียส	-11.3288
หาเศรษฐี	-11.3289
สถาปนิก	-11.3289
ฮ่องเต้	-11.3289
เปราะบาง	-11.3289
โง่เง่า	-11.3289
ใบขับขี่	-11.3289
▁1991	-11.3289
พิบัติ	-11.3289
มรณะ	-11.3289
แจ๊ส	-11.3289
สอดคล้อง	-11.3289
ริชชี่	-11.329
ออสติน	-11.329
รอยัล	-11.3291
รูหนอน	-11.3292
ไมโคร	-11.3294
กําลังดู	-11.3295
แพทริค	-11.3295
ชั่ง	-11.3297
แซมมี่	-11.3297
สิ่งของ	-11.3297
ราคาถูก	-11.3299
น้อยนิด	-11.3304
ใหญ่มาก	-11.3304
แสวงหา	-11.3305
ชาวเมือง	-11.3305
ย้อนเวลา	-11.3307
นิกกี้	-11.3307
ฟลาย	-11.3309
ภว	-11.331
เบนเน็ต	-11.3311
คัดตัว	-11.3312
ข้อเท้า	-11.3313
ชอบธรรม	-11.3314
สื่อข่าว	-11.3316
ไม่มีคน	-11.3317
เพย์	-11.3318
ครู่	-11.3321
อยากช่วย	-11.3321
โบ้	-11.3323
ความสนุก	-11.3323
ทําตัวดี	-11.3326
คุณกลับ	-11.3328
คนโปรด	-11.3331
ภบ	-11.3331
ในรูป	-11.3333
วชาญด้าน	-11.3335
มัวร์	-11.3336
มิช	-11.3338
ของสหรัฐ	-11.3341
เย็นชา	-11.3344
เชย	-11.3344
แบ็ก	-11.3345
พูดภาษา	-11.3346
มองไปที่	-11.3346
รํ	-11.3347
คิดดูสิ	-11.3347
วัตต์	-11.3351
ข้อสอบ	-11.3353
ชรา	-11.3355
มาหาคุณ	-11.3357
▁1000	-11.3358
ผู้ใด	-11.3358
เช่	-11.3361
ทั้งตัว	-11.3362
บาด	-11.3362
ปลายทาง	-11.3363
บทกวี	-11.3366
ซี่ย์	-11.3371
เธกเธฒ	-11.3373
ทง	-11.3378
เจอรี่	-11.3378
ฝีมือของ	-11.3381
เปิดเพลง	-11.3385
โซฟา	-11.3385
และสุ	-11.3386
เขตแดน	-11.3388
หลิง	-11.3388
สอบถาม	-11.3389
▁แล้วนะ	-11.339
เรามาถึง	-11.3391
เขาเรียก	-11.3392
ล่อง	-11.3397
คืองี้นะ	-11.3398
เห็นใจ	-11.3399
ออกเดท	-11.3399
ด้วยตัว	-11.3406
ผู้กล้า	-11.3407
▁112	-11.341
สิวะ	-11.3413
ให้จบ	-11.3417
บัต	-11.3418
กลั่น	-11.3421
เข้าออก	-11.3426
ในการทํา	-11.3431
อย่างโ	-11.3433
ซับ	-11.3435
มันได้ผล	-11.3436
บ่อน้ํา	-11.3438
บั๊	-11.344
รั้ง	-11.3441
ฟัก	-11.3442
กระหน่ํา	-11.3443
อุทธรณ์	-11.3443
เจอรัลด์	-11.3443
กางเขน	-11.3443
วรรณกรรม	-11.3443
เคอร์ติส	-11.3443
ทาวเวอร์	-11.3443
คลินตัน	-11.3443
แอปเปิล	-11.3443
ทุ่งหญ้า	-11.3443
คาเมรอน	-11.3443
เคยอ่าน	-11.3443
ระดมทุน	-11.3444
โธ่เอ๊ย	-11.3444
หนูรู้	-11.3445
สะกดจิต	-11.3445
ดิเอโก้	-11.3445
ทหารเรือ	-11.3445
ยิม	-11.3446
ช้ํา	-11.3446
ซีซั่น	-11.3446
เพลย์	-11.3446
ฟีบี้	-11.3447
วายร้าย	-11.3447
ดอม	-11.3447
ด้านล่าง	-11.3448
กระสอบ	-11.3451
จูเลียต	-11.3451
95	-11.3451
ตามตรงนะ	-11.3452
น้ําพุ	-11.3456
เอามันไป	-11.3457
ดีเจ	-11.3457
กาลเวลา	-11.3457
รมต	-11.3458
มึน	-11.3459
มอนท์	-11.3461
ยุบ	-11.3462
รุส	-11.3463
ภฯ	-11.3466
ดูรายการ	-11.3467
ดิโอ	-11.3471
ตราบเท่า	-11.3472
ไอริส	-11.3473
ยามา	-11.3475
กฎข้อ	-11.3479
ความอดทน	-11.3479
สกา	-11.3481
เนอ	-11.3481
เด้น	-11.3484
เลสลี่	-11.349
ทวน	-11.3494
กับหนู	-11.3496
๊ต	-11.3497
มีอาวุธ	-11.3499
กับลูกๆ	-11.3502
▁เร็วสิ	-11.3503
จะหมด	-11.3508
ดับเบิล	-11.3509
ลัว	-11.3509
โทษทีนะ	-11.351
ผู้คนที่	-11.351
พริก	-11.3512
อีริค	-11.3512
ผลงานของ	-11.3514
▁ถ้าท่าน	-11.3515
อันน่า	-11.3515
เดลี่	-11.3521
แง่	-11.3521
มาเจอกัน	-11.3521
ซีเรีย	-11.3524
ยังไงดี	-11.3528
นักแข่ง	-11.3533
ุ่น	-11.3537
มันออกมา	-11.3542
อยากพูด	-11.3548
หือ	-11.3549
โทรเรียก	-11.355
ีน้ําตาล	-11.3552
▁750	-11.3553
คิดถูก	-11.3555
แบค	-11.3556
ผมอาจ	-11.3556
เนลลี่	-11.3558
ทธ	-11.3564
ผมอ่าน	-11.3566
ว่าหนู	-11.3568
ไอ้เวร	-11.3568
มาสเตอร์	-11.3572
โมงเช้า	-11.3572
ตอนเด็กๆ	-11.3574
▁ครูซ	-11.3576
ชายวัย	-11.3577
เครก	-11.3578
เหี่ยว	-11.3578
ฟิว	-11.3584
ได้ไหมคะ	-11.3588
เนลล์	-11.3589
คัท	-11.359
ซีที	-11.3594
จึงเป็น	-11.3595
จะให้ผม	-11.3597
แย้ง	-11.3598
การงาน	-11.3598
ตะกร้า	-11.3599
อริโซน่า	-11.3599
อาละวาด	-11.3599
เพิกเฉย	-11.3599
ไวลด์	-11.3599
ค้างคาว	-11.3599
พนง	-11.36
สีม่วง	-11.36
ล้างแค้น	-11.36
ยุ่งมาก	-11.36
หนาแน่น	-11.36
ในที่ที่	-11.3601
เธขเธดเธ	-11.3601
▁1986	-11.3601
มวลสาร	-11.3601
แบทแมน	-11.3601
รากฐาน	-11.3602
ติดสินบน	-11.3602
โคลอี้	-11.3602
รันเวย์	-11.3602
ในสังคม	-11.3603
ถอดรหัส	-11.3603
วงกลม	-11.3604
เฟรเซอร์	-11.3604
นิ่ม	-11.3605
บทสนทนา	-11.3605
ล์ฟ	-11.3606
พาคุณไป	-11.3606
ฉบับนี้	-11.3607
ร้องให้	-11.3607
สี่วัน	-11.3607
ไม๊	-11.3607
โทรล	-11.3608
แบบฟอร์ม	-11.3608
เคนนี่	-11.3609
ฟิชเชอร์	-11.3609
จิตรกร	-11.3611
ฟรานซิส	-11.3612
ตามคํา	-11.3613
ละเลย	-11.3616
ผิง	-11.3617
กุหลาบ	-11.362
ไบโอ	-11.3622
เชื้อสาย	-11.3623
มาร์วิน	-11.3625
วว	-11.3629
เธอชื่อ	-11.3632
ก็สามารถ	-11.3632
ดดิงตั้น	-11.3633
เฟซ	-11.3636
ืด	-11.3636
สารอาหาร	-11.3637
รูม	-11.3637
ได้สัก	-11.3638
อัลฟา	-11.3638
99	-11.364
ออล	-11.3643
ข่าวจาก	-11.3644
ผมคุยกับ	-11.3644
ชอง	-11.3647
โอ้โห	-11.3651
ภรรยาคุณ	-11.3653
ข้าเห็น	-11.3654
ิลลิเมตร	-11.3656
เซ็	-11.3657
เลสเตอร์	-11.3657
ยกระดับ	-11.366
สู้รบ	-11.3664
มาคุย	-11.3667
มากเลยนะ	-11.3667
มาชิกสภา	-11.3669
สุรา	-11.367
▁กว่าๆ	-11.3671
ั้น	-11.3675
ออกจะ	-11.3675
ก็ยังคง	-11.3679
แน่ล่ะ	-11.368
เธขเน	-11.3694
ไร้บ้าน	-11.3695
ที่ซ่อน	-11.3695
▁ส่วนฉัน	-11.3696
อีกเยอะ	-11.3697
เธฑเน	-11.3697
ข้ามไป	-11.3699
จะแสดง	-11.3701
ลาม	-11.3703
าน	-11.3709
จากดาว	-11.3709
ที่ฉลาด	-11.3709
ถือปืน	-11.371
อัง	-11.3713
หรอกครับ	-11.3714
ลั่น	-11.3715
นําอยู่	-11.3726
สเก็ต	-11.373
พูดไป	-11.3733
รับบท	-11.3737
มองไปรอบ	-11.3739
กัม	-11.3744
ฮาร์ต	-11.3745
นามว่า	-11.3748
ถึงฉันจะ	-11.3749
▁ก็บอก	-11.3751
หวังให้	-11.3752
ในรูปแบบ	-11.3753
ผิวสี	-11.3754
นัดพบ	-11.3757
ซิด	-11.3757
บลอสซั่ม	-11.3758
บํานาญ	-11.3758
โคโลราโด	-11.3758
สตีเว่น	-11.3758
ยักยอก	-11.3758
ถกเถียง	-11.3758
เร่ร่อน	-11.3758
ช่องทาง	-11.3759
ระยํา	-11.3759
จุ๊บ	-11.3759
▁1971	-11.376
▁ฟังก่อน	-11.376
โนอาห์	-11.376
หนีไปได้	-11.376
ยั่ว	-11.3761
คลาย	-11.3762
แอมเบอร์	-11.3763
ธฆ	-11.3764
การรับ	-11.3764
ท่าที	-11.3767
▁แต่หนู	-11.377
มีบางคน	-11.3773
67	-11.3774
อดอยาก	-11.3775
มาคิดๆ	-11.3776
ราคาแพง	-11.3778
จบสิ้น	-11.378
หกคน	-11.3781
▁เธอก็จะ	-11.3782
เดวี่	-11.3782
ไนต์	-11.3782
รีบๆ	-11.3783
เกินขนาด	-11.3785
ก็ยังมี	-11.3785
ส่งผลให้	-11.3786
เอารถ	-11.3787
ในลอนดอน	-11.3789
เอามือ	-11.379
ทันสมัย	-11.3791
ฉันก็แค่	-11.3791
คนที่ถูก	-11.3793
ิคตอเรีย	-11.3795
ฌอน	-11.3796
สองทุ่ม	-11.3796
บราวน์	-11.3798
ล้านคน	-11.3799
เดรีย	-11.38
กรัม	-11.38
สวมชุด	-11.3802
ข่าวด่วน	-11.3802
ตั้งค่า	-11.3804
เธญเธทเน	-11.3804
ผู้แทน	-11.3806
คาดว่าจะ	-11.3807
ห้าสิบ	-11.3811
ยกมือ	-11.3812
ลอด	-11.3817
เคา	-11.3818
▁ก็เพื่อ	-11.3819
เป็นทาส	-11.3825
รังแก	-11.3825
คลิฟ	-11.3829
มีปัญญา	-11.3829
การเขียน	-11.383
ฉีดยา	-11.383
▁พร้อมนะ	-11.3843
ทําลงไป	-11.3846
ชั้นใน	-11.3846
ฟื้นตัว	-11.3848
เทม	-11.3849
▁เขาจึง	-11.3851
เสาร์	-11.3851
คุณควรจะ	-11.3851
ในแต่ละ	-11.3853
อรัล	-11.3854
จะออกจาก	-11.3856
ยาวๆ	-11.3856
ล้มลง	-11.3856
ยังมีอีก	-11.3857
เกท	-11.3859
คิดว่าไง	-11.3864
▁นิวแมน	-11.3865
ฟราย	-11.3865
นอร์แมน	-11.3868
เดซี่	-11.3868
มีเรือ	-11.387
ก็แปลว่า	-11.3872
โทรหาผม	-11.3876
น็อก	-11.3879
อายุเท่า	-11.388
ได้ดีมาก	-11.3881
คาย	-11.3881
ที่จะไม่	-11.3882
แสนสวย	-11.3883
หลบซ่อน	-11.3884
รู้ได้ไง	-11.3884
พิง	-11.3886
หลังเลิก	-11.3887
จะผ่าน	-11.3889
ตายอย่าง	-11.389
กาว	-11.3891
▁ผมคือ	-11.3891
ตอนใต้	-11.3892
43	-11.3893
ผู้สร้าง	-11.3898
ยํา	-11.39
ไปไกลๆ	-11.3901
100	-11.3903
กังวลว่า	-11.3907
เยน	-11.3907
▁ซึ่งถูก	-11.3908
ผมไม่ชอบ	-11.391
การลับ	-11.3911
บี่ยงเบน	-11.3912
ฉื	-11.3914
เกลี้ย	-11.3914
ได้เร็ว	-11.3914
ของหน่วย	-11.3916
ซัลลิแวน	-11.3919
ตระหนก	-11.3919
สาบสูญ	-11.3919
ฮาโลวีน	-11.3919
ฟลินน์	-11.3919
บัซ	-11.3919
เก่งกาจ	-11.3919
รัชทายาท	-11.3919
เอเลนอร์	-11.3919
นิโคลัส	-11.392
โลส	-11.392
สสารมืด	-11.392
ลิ้นชัก	-11.3921
หว่าน	-11.3921
ถังขยะ	-11.3921
ฮอลแลนด์	-11.3922
รง	-11.3922
บอนด์	-11.3922
หลักสูตร	-11.3923
ร็อคกี้	-11.3924
ดาดฟ้า	-11.3925
เข้ามหา	-11.3925
เจ็ท	-11.3925
เพศหญิง	-11.3926
เพื่อแลก	-11.3926
มิทช์	-11.3926
ฝูงชน	-11.3927
ตํา	-11.3929
ของนัก	-11.393
โนะ	-11.393
อย่างแรง	-11.3931
คุณก็จะ	-11.3931
ปีหน้า	-11.3938
รื	-11.3939
ไลต์	-11.3939
มายืน	-11.3942
ที่มีประ	-11.3942
เจียน	-11.3951
เลือดแดง	-11.3951
ใครจะรู้	-11.3951
จะเข้ามา	-11.3952
ิโอ	-11.3954
มาให้เรา	-11.3955
หวู	-11.3956
เธญเธขเธ	-11.3958
อยากฟัง	-11.3959
ของเค้า	-11.3959
ไขคดี	-11.3963
▁กลางๆ	-11.3964
ผู้ร่วม	-11.3964
ใต้น้ํา	-11.3965
ในข้อหา	-11.3965
เป็นเหตุ	-11.3965
เป็นพิษ	-11.3966
ต้องห้าม	-11.3967
เวิร์ค	-11.3967
ค่าไถ่	-11.3973
ฟอร์ม	-11.3974
คลาร์ก	-11.3974
ใส่ร้าย	-11.3976
อาจช่วย	-11.3976
เดทกับ	-11.3978
โกรธแค้น	-11.3983
รัค	-11.3984
เคยพบ	-11.3986
นิสัยดี	-11.3986
ในตึก	-11.3987
วางสาย	-11.3999
51	-11.3999
รองรับ	-11.4
ชัง	-11.4
เมิน	-11.4001
เป็นชาว	-11.4003
กู้ด	-11.4003
แรงๆ	-11.4003
ในตลาด	-11.4011
กับไอ้	-11.4011
ยิงกัน	-11.4016
สู่ความ	-11.4017
คุณปู่	-11.4018
ริป	-11.4018
คามิ	-11.4019
แม่นาย	-11.4021
ทท์	-11.4024
เร็ค	-11.4029
ส่วนกลาง	-11.4032
หน้าจอ	-11.4034
โยก	-11.404
▁เธฉเธ	-11.405
วอร์ชั่น	-11.4056
ต้องเข้า	-11.406
ที่ได้มา	-11.4061
อยู่ตาม	-11.4062
อบรม	-11.4064
เรียกเธอ	-11.4064
ฉั	-11.4066
แต่งกับ	-11.4073
ลโล่	-11.4075
ตื	-11.4076
สเปซ	-11.4078
เบิร์ท	-11.4079
๚	-11.408
บับ	-11.4082
หดหู่	-11.4083
อุปถัมภ์	-11.4083
เดียงสา	-11.4083
โสโครก	-11.4083
หิ้ว	-11.4083
แฮมิลตัน	-11.4083
อาหรับ	-11.4083
รณาธิการ	-11.4083
คาราเต้	-11.4083
ไฮโดรเจน	-11.4083
วุฒิสภา	-11.4085
เบาหวาน	-11.4085
สตาร์เบส	-11.4086
จอมพล	-11.4087
อีกครึ่ง	-11.4087
▁1945	-11.4088
ฟังฉันนะ	-11.4089
เจ็บป่วย	-11.4091
เสพ	-11.4091
แอนดรูส์	-11.4091
แนวรบ	-11.4091
เทรซี่	-11.4092
ที่โบสถ์	-11.4095
เอด	-11.4095
ค้ํา	-11.4095
ลิบ	-11.4096
พระเอก	-11.4098
เวสท์	-11.41
คลอดลูก	-11.41
ล่ะคะ	-11.4101
โญ	-11.4101
ดิค	-11.4102
อ๊า	-11.4106
กรีด	-11.4107
หาเจอ	-11.4109
▁240	-11.411
▁เธฅเธฐ	-11.4112
ปูน	-11.4114
ทิ่ม	-11.4121
ผชิญหน้า	-11.4125
ถูกปล่อย	-11.4126
นายอาจจะ	-11.4126
รัช	-11.4129
คืนเดียว	-11.4133
พ้นจาก	-11.4134
ฉลาดกว่า	-11.4136
คกี้	-11.4136
เกลน	-11.4136
จูน	-11.4137
เซย์	-11.4139
คล้ายกับ	-11.4141
เห่า	-11.4142
ดาน	-11.4142
สวนสัตว์	-11.4143
แน่ใจนะ	-11.4148
ในท้อง	-11.4151
ในดินแดน	-11.4152
คชั่น	-11.4153
ฮร์ริสัน	-11.4155
น้ําทะเล	-11.4156
ร้อนแรง	-11.416
เก็บตัว	-11.4161
หลักของ	-11.4166
ราฟ	-11.417
าวน์โหลด	-11.4173
กระนั้น	-11.4176
หอก	-11.4176
ตัวอ่อน	-11.4178
ในอากาศ	-11.4179
ฟูล	-11.4183
ไปรอบ	-11.4189
44	-11.419
สไต	-11.4192
กลุ่มผู้	-11.4192
ย่ํา	-11.4193
แต่ผมไม่	-11.4195
พาเรา	-11.4202
ซาลา	-11.4202
ชอ	-11.4202
ธุระ	-11.4203
วอร์ฟ	-11.4204
ผนึก	-11.4206
คุณจะบอก	-11.4208
รู้หรอก	-11.4208
การตลาด	-11.4209
ปลอมๆ	-11.421
ที่ว่าง	-11.4215
ทหารม้า	-11.4216
โอเคไหม	-11.4219
ปริญญา	-11.422
เพิ่งได้	-11.4224
ผมจะได้	-11.4226
เอว	-11.4228
พื่อนซี้	-11.4232
ละครั้ง	-11.4233
ซีล	-11.4234
ซักอย่าง	-11.4234
โฟล	-11.4234
หนีบ	-11.4235
ธอร์	-11.4235
ไม่กี่คน	-11.4235
ไพรซ์	-11.4238
เมื่อถึง	-11.424
ขาน	-11.4241
วันพฤหัส	-11.4242
ชื่อเขา	-11.4243
ปกติดี	-11.4243
▁ซาล	-11.4245
ประทับ	-11.4248
แคว้น	-11.425
วาเนสซ่า	-11.425
อุกกาบาต	-11.425
แมชชีน	-11.425
แข้ง	-11.425
▁1983	-11.425
ผจก	-11.425
ิลเวเนีย	-11.425
ผสมผสาน	-11.425
ลาสเวกัส	-11.425
องุ่น	-11.4251
สปิริต	-11.4251
ออสเตรีย	-11.4251
สตาลิน	-11.4252
เจค็อบ	-11.4253
ชิคาโก้	-11.4259
โรบินสัน	-11.426
ไซรัส	-11.426
ดื่มให้	-11.4261
อั้น	-11.4262
นิกสัน	-11.4262
ปิน	-11.4263
ย้ายออก	-11.4264
ผมจะไป	-11.4265
ถูกเผา	-11.4267
คอนโด	-11.427
บลูม	-11.4278
พูดตรง	-11.4281
ท้องทะเล	-11.4283
ผิดจริง	-11.429
บางทีอาจ	-11.4294
▁360	-11.4296
ยิน	-11.4305
ที่เธอจะ	-11.4309
ดฯ	-11.431
▁ป็	-11.4311
ความลึก	-11.4315
จบจาก	-11.4318
เอาคืน	-11.4322
คาร์บอนไ	-11.4323
ของดวง	-11.4325
แวนเดอร์	-11.4329
เธอจะไม่	-11.4332
ถอนเงิน	-11.4337
เพื่อหา	-11.4341
คิท	-11.4343
มกราคม	-11.4343
กันยายน	-11.4343
วาร์ด	-11.4344
หัวมุม	-11.4344
นะเนี่ย	-11.4353
อ่อ	-11.4355
ย้อนหลัง	-11.4358
บีบให้	-11.4363
นับเป็น	-11.4368
ถอยไป	-11.4369
เธฒเธชเธ	-11.4371
เมายา	-11.4375
สักสอง	-11.4377
เธอเห็น	-11.4378
สิคะ	-11.4378
ขโมยไป	-11.4381
บ้านนอก	-11.4382
องค์หญิง	-11.4383
ร่	-11.4384
เริ่มงาน	-11.4387
เพอ	-11.4387
ก็โดน	-11.4388
สงสัยเลย	-11.4391
เธอก็รู้	-11.4392
เราไปถึง	-11.4395
ลีอา	-11.4395
ฮอว์ค	-11.4397
นู่น	-11.44
แนวทาง	-11.4401
กล่าวไว้	-11.4404
ยัก	-11.4415
ตว	-11.4416
อัมพาต	-11.4419
เลื่อย	-11.4419
แปรปรวน	-11.4419
ร่าเริง	-11.4419
แหลก	-11.4419
ดีทรอยต์	-11.4419
กระซิบ	-11.4419
มิทเชลล์	-11.4419
ทดแทน	-11.4419
เผ็ด	-11.4419
ระยะยาว	-11.4419
ฟีนิกซ์	-11.442
ที่ดีมาก	-11.442
ทราวิส	-11.442
ขาดแคลน	-11.4421
แน่นหนา	-11.4421
วอลดอร์ฟ	-11.4421
ผลัด	-11.4421
จีพีเอส	-11.4421
▁1955	-11.4422
▁1942	-11.4422
น้ําชา	-11.4423
แพทริก	-11.4423
โจรกรรม	-11.4423
ฮอน	-11.4424
พาสปอร์ต	-11.4424
อลิสัน	-11.4425
ผญ	-11.4426
ที่คลับ	-11.4426
เรเน่	-11.4427
จะรีบ	-11.4427
เออร์เนส	-11.4428
จ้าว	-11.4428
เชอร์รี่	-11.4429
ช็อค	-11.4432
เธญเน	-11.4432
ต่อเมื่อ	-11.4434
ลอฟ	-11.4434
เชอร์แมน	-11.4438
พูดง่ายๆ	-11.4442
เพคะ	-11.4443
เพิล	-11.4443
ไปรอบๆ	-11.4443
แหล่ะ	-11.4443
ของระบบ	-11.4446
เรายังมี	-11.4449
55	-11.4452
บอด	-11.4452
▁ตอนเขา	-11.4453
ปรับแต่ง	-11.4455
ถามเขา	-11.4457
มีอาหาร	-11.4461
เกรย์สัน	-11.4464
เรียนมหา	-11.4465
เบคอน	-11.4468
หัวขโมย	-11.4472
กะจะ	-11.4472
แม่เจ้า	-11.4476
คนผิวดํา	-11.4477
สามสิบ	-11.4478
อุ่นๆ	-11.448
โรงหนัง	-11.4482
ครั้งละ	-11.4485
จุดยืน	-11.4485
ตด	-11.4485
โรงรถ	-11.4488
ทรงผม	-11.4492
อย่าทํา	-11.4492
หนูอยาก	-11.4499
ควิ	-11.4499
ป๋า	-11.4505
จุดนั้น	-11.4506
ดื่มกัน	-11.4507
ลาห์	-11.4507
ที่จอดรถ	-11.4507
โตร	-11.4508
ซะก่อน	-11.4509
ค่อน	-11.451
โอ๊ค	-11.4512
่อน	-11.4515
บนชั้น	-11.4516
ตั้งเยอะ	-11.4516
ในแถบ	-11.4524
หนาน	-11.4524
โลหิต	-11.4527
ธันวาคม	-11.4532
กอร์ดอน	-11.4533
ฮอลล์	-11.4533
ทําไง	-11.4543
ให้หน่อย	-11.4544
เอเจ	-11.4547
เครือ	-11.4555
เยาว์	-11.4556
ขุน	-11.4557
เอวา	-11.456
โฟน	-11.456
หล	-11.4564
แฮก	-11.4567
ึง	-11.457
ทริก	-11.4576
▁ผมสัญญา	-11.458
แอนดรู	-11.4582
เห็นชอบ	-11.4583
สินบน	-11.4586
มีกล้อง	-11.4589
ไม่สบาย	-11.4591
ของผมคือ	-11.4591
ทรอนิกส์	-11.4592
โรนัลด์	-11.4592
โลเปซ	-11.4592
วิตามิน	-11.4592
สตีเฟน	-11.4592
คริสตัล	-11.4592
หยั่ง	-11.4592
เว่ย	-11.4592
เทศบาล	-11.4592
เขี่ย	-11.4592
ปิ๊ง	-11.4592
วิศวกรรม	-11.4592
ดออกไซด์	-11.4592
ค็อกเทล	-11.4592
บัก	-11.4593
บัดดี้	-11.4593
▁1993	-11.4593
มาร์เซล	-11.4594
เรอ	-11.4594
เขย่า	-11.4594
ปลาวาฬ	-11.4595
นักเลง	-11.4597
โชคไม่ดี	-11.4597
สตีเวนส์	-11.4597
สีผิว	-11.46
เสพติด	-11.46
สติก	-11.4601
อาเจียน	-11.4601
ชั้นนํา	-11.4604
มาร์ธา	-11.4604
วิตก	-11.4605
โรคระบาด	-11.4607
เนียล	-11.4607
การทูต	-11.4608
โยคะ	-11.4609
ชอบมัน	-11.461
ไดแอน	-11.4612
ป่าว	-11.4612
ซีด	-11.4613
เบต	-11.4614
คาเรน	-11.4615
นเดซ	-11.4615
หยุดมัน	-11.4617
คุง	-11.4618
สกอต	-11.462
หยาม	-11.4623
บนนั้น	-11.4624
ใบไม้	-11.4628
ที่ฉันมี	-11.463
จ้องมอง	-11.4632
ไหนก็ตาม	-11.4633
เป็นวิธี	-11.4637
ขวาน	-11.4643
เอซ	-11.4644
สิ้นดี	-11.4647
สตรา	-11.4647
ที่คอ	-11.4647
อยากมี	-11.465
เมส	-11.4651
เธซเธฅเธ	-11.4653
เคิร์ท	-11.4653
พี่จะ	-11.4654
ควาย	-11.4656
อานา	-11.4657
คลิก	-11.4663
เอาผิด	-11.4664
ไปหาหมอ	-11.4666
ที่คุณมี	-11.4667
าธิการ	-11.4667
หายดี	-11.4669
ลูกอม	-11.4676
เเล	-11.4676
เดอร์ส	-11.4678
ได้ภายใน	-11.4678
มองตา	-11.4679
คนหาย	-11.4685
สั่งสอน	-11.4685
มมี่	-11.4686
ชาลี	-11.4688
นายอาจ	-11.4689
บ้านั่น	-11.469
หกปี	-11.469
อยู่เฉย	-11.4691
ผู้ถูก	-11.4691
โถง	-11.4695
แต่แรก	-11.4695
ในหลุม	-11.4701
จะเขียน	-11.4707
เรม	-11.4708
ในบาร์	-11.4709
เเลว	-11.4712
เขาจะทํา	-11.4715
เฟิร์	-11.4716
คําโกหก	-11.4716
๊ย	-11.4717
ในสหรัฐ	-11.4717
เกรก	-11.472
▁ว่ามั้ย	-11.4723
โดยใช้	-11.4726
ขยายตัว	-11.4732
ห่างๆ	-11.474
มีงานทํา	-11.4741
เขียนถึง	-11.4743
ก็ใช้	-11.4744
เป็นภาษา	-11.4745
สมองส่วน	-11.475
ลิช	-11.475
ให้เด็กๆ	-11.4751
เชี่ย	-11.4751
▁นอต	-11.4752
ชิว	-11.4752
ช่วยนาย	-11.4754
สปอร์ต	-11.4762
สนามพลัง	-11.4763
เล่าว่า	-11.4764
ข้อสรุป	-11.4764
ของอ	-11.4764
หากิน	-11.4766
ที่เกาะ	-11.4767
เฟลิกซ์	-11.4767
เยอทะยาน	-11.4767
จิ๋ม	-11.4767
นักบวช	-11.4767
พัสดุ	-11.4767
พันธบัตร	-11.4767
คาสเซิล	-11.4767
ทรัมป์	-11.4767
ฟิลิปปิน	-11.4767
สตาแกรม	-11.4767
บุญธรรม	-11.4767
รักชาติ	-11.4768
ล่อลวง	-11.4768
้ดดิงตัน	-11.4768
ชิงโจว	-11.4768
กวาดล้าง	-11.4769
วอล์ก	-11.4769
เฟรดดี้	-11.4769
อลลีวู้ด	-11.477
ข่ม	-11.477
ผู้เชี่ย	-11.4771
เบิร์ค	-11.4771
ไว้อาลัย	-11.4771
ยื้อ	-11.4772
ขอร้องละ	-11.4774
ฟรีๆ	-11.4775
ดาวเด่น	-11.4775
ร้านกาแฟ	-11.4775
▁1960	-11.4775
การอ่าน	-11.4776
เถอะนะ	-11.4776
เสก	-11.4777
สแตร	-11.4777
บอกแม่	-11.4777
วางเพลิง	-11.4778
เรอร์	-11.4779
พุง	-11.4779
เมนต์	-11.4779
รูปหล่อ	-11.478
มีลักษณะ	-11.4785
ยึดติด	-11.4791
จะดูแล	-11.4791
ขึ้นเวที	-11.4794
เคยถูก	-11.4797
กองเรือ	-11.48
นักบุญ	-11.48
กิจ	-11.48
ไทเกอร์	-11.4805
ได้มีการ	-11.4806
▁175	-11.4809
คิล	-11.4812
มีจุด	-11.4813
ตรอน	-11.4814
ซื้อตั๋ว	-11.4816
ฉันพนัน	-11.4816
▁ตอนคุณ	-11.4821
ตึง	-11.4824
จะระเบิด	-11.4824
แม่ชี	-11.4828
พิส	-11.4834
อเล	-11.4835
ชี้ว่า	-11.4836
ลาวา	-11.4839
อารี	-11.4842
ต้องผ่าน	-11.4842
ในออฟฟิศ	-11.4842
แอก	-11.4844
รียบง่าย	-11.4845
สเตร	-11.4849
ผมพบ	-11.4851
สู้เพื่อ	-11.4853
โต้ตอบ	-11.4856
ปราการ	-11.4859
ชิงแชมป์	-11.4861
ค่าหัว	-11.4864
คนนอก	-11.4868
ลืมตา	-11.4868
สี่เดือน	-11.4869
คุณคะ	-11.4872
เถอะครับ	-11.4874
รายใหญ่	-11.4879
เคยดู	-11.488
ช่วยคน	-11.4883
ถ้าคุณจะ	-11.4883
ทางพันธุ	-11.489
แซก	-11.4893
เล่นบท	-11.4896
ถูกลงโทษ	-11.4897
พักอยู่	-11.4901
เฮ้อ	-11.4902
คนเล็ก	-11.4902
คอร์ท	-11.4904
มาคุยกัน	-11.4905
แต่ละวัน	-11.4914
องศา	-11.4914
ดีงาม	-11.4915
ฉันสาบาน	-11.4916
เร็	-11.4921
กาง	-11.4926
กอส	-11.4929
การลงโทษ	-11.4934
สวอน	-11.4937
ชอบเขา	-11.4942
บื้อ	-11.4945
บิดเบือน	-11.4946
กระดุม	-11.4946
ดับบลิว	-11.4946
บุคลากร	-11.4946
พินาศ	-11.4946
วัสดุ	-11.4946
สําส่อน	-11.4946
หิวโหย	-11.4946
โซพราโน่	-11.4946
สก๊อต	-11.4946
ธนบัตร	-11.4946
เชื้อโรค	-11.4946
ปฏิทิน	-11.4946
อยู่ในใจ	-11.4946
ริชมอนด์	-11.4946
▁105	-11.4946
ชะลอ	-11.4947
เกรน	-11.4947
นารี	-11.4947
คิ้ว	-11.4948
โกเมอรี่	-11.4948
แอชลีย์	-11.4948
แซนดี้	-11.4948
นองเลือด	-11.4949
66	-11.4949
ล้างจาน	-11.495
จิ๊ก	-11.495
กูเกิล	-11.4951
แอนนาลิส	-11.4951
พุ่งชน	-11.4951
เก็บกวาด	-11.4953
เผาไหม้	-11.4953
มาร์เก็ต	-11.4953
ภาคสนาม	-11.4953
ยอมจ่าย	-11.4954
ซุง	-11.4954
เทนเดอร์	-11.4955
แมกซ์	-11.4956
คอร์ส	-11.4957
ฟังคํา	-11.4958
ทองแดง	-11.4958
ชาลส์	-11.496
รอว์	-11.4962
เธชเธดเธ	-11.4963
ลองคิด	-11.4963
กับชาย	-11.4965
ไลล่า	-11.4969
ไซต์	-11.4971
รูบี้	-11.4972
ตึกนี้	-11.4974
ออกัส	-11.4976
ฟังผม	-11.4979
▁370	-11.498
อันแสน	-11.4985
เธฃเธงเธ	-11.4985
เมเจอร์	-11.4987
สีสัน	-11.4988
เคด	-11.4988
หึ	-11.4988
รหัสผ่าน	-11.4989
เดรส	-11.499
ไงครับ	-11.499
ภพ	-11.4992
หมอก	-11.4995
อยากดู	-11.4995
หวานใจ	-11.4995
มีจํานวน	-11.4997
คิดจริง	-11.4998
หาทางออก	-11.4999
ดีพอ	-11.4999
ไม่มีข้อ	-11.5
ในโรงแรม	-11.5001
จูบกัน	-11.5005
ลีออน	-11.5006
ข้ามคืน	-11.501
เขากลับ	-11.5011
▁ลูกต้อง	-11.5015
การสอบ	-11.502
หยียดผิว	-11.5023
สามีเธอ	-11.5023
ผมคิดถึง	-11.5025
ตั้งตัว	-11.5028
ยอล	-11.5029
ของฝ่าย	-11.503
พวกมันก็	-11.5032
หายไปไหน	-11.5034
ก็ไม่เคย	-11.5036
มีคําว่า	-11.5038
เป็นรอง	-11.5038
จะลืม	-11.5041
ทีแรก	-11.5043
ขนย้าย	-11.5048
ขม	-11.5048
ส่งเสริม	-11.5051
ๆๆๆ	-11.5052
กล่าวถึง	-11.5053
มินิ	-11.5056
ดื่มน้ํา	-11.5059
อิตาเลีย	-11.506
เก่งกว่า	-11.5061
ขึ้นรถไฟ	-11.5063
ไคร	-11.5066
สุขภาพดี	-11.5068
เราจะใช้	-11.5068
กลีบ	-11.5081
ยน	-11.5085
รักภักดี	-11.5085
39	-11.5088
ดอลล์	-11.5089
รับประ	-11.5093
คิดอย่าง	-11.5094
ฝ้าระวัง	-11.5097
และคุณก็	-11.5097
สวีท	-11.5097
อายุเกิน	-11.5098
๋า	-11.5102
นาโน	-11.5106
วอส	-11.5106
จ้อ	-11.5107
ไกลออกไป	-11.5107
จ่อ	-11.5114
ประมวล	-11.5121
ขอให้ผม	-11.5121
ยูไนเต็ด	-11.5127
เปลื้อง	-11.5127
จริยธรรม	-11.5127
ตะกั่ว	-11.5127
ปากีสถาน	-11.5127
ฟลอริด้า	-11.5127
▁ฮอลโลว์	-11.5127
ไตรมาส	-11.5128
สง่างาม	-11.5128
อังเดร	-11.5128
ปนเปื้อน	-11.5128
ในตัวฉัน	-11.5128
ที่จะนํา	-11.5128
เสแสร้ง	-11.5129
รั่วไหล	-11.5129
บราเธอร์	-11.513
เธชเธถเธ	-11.513
อยู่ไกล	-11.513
าร์ด	-11.5131
ล่วงลับ	-11.5132
ขอมอบ	-11.5132
ผมถาม	-11.5133
็มอาร์ไอ	-11.5133
ป๊อบ	-11.5134
บางคนก็	-11.5137
ขนาน	-11.5138
คนของผม	-11.5139
คําเดียว	-11.5139
โป๊ป	-11.5141
ฉันจะส่ง	-11.5145
เป็นแรง	-11.5145
หน้าตาดี	-11.5145
ประปา	-11.5146
พันเอก	-11.5147
นับร้อย	-11.5147
โคน	-11.515
ซ้ําอีก	-11.5151
ลายมือ	-11.5152
ทางด่วน	-11.5153
ละติน	-11.5156
เจอร์รี	-11.5156
แกรน	-11.5157
ซีซี	-11.5159
เเน่	-11.5159
ว่าจะทํา	-11.5159
อิซ	-11.516
อึด	-11.5165
ฟอร์ท	-11.5166
ควรรู้	-11.5168
จะถูกส่ง	-11.5168
ไซเบอร์	-11.5169
เอ็ง	-11.5172
เบรค	-11.5175
สามนาที	-11.5178
แสดงถึง	-11.518
ในหลายๆ	-11.518
ย่อง	-11.5181
สลัม	-11.5183
ต่อสาย	-11.5183
แต่บางที	-11.5183
ี่ยน	-11.5184
ไม่ลืม	-11.5184
อัต	-11.5189
โคดี้	-11.5196
หนาม	-11.5197
ฉันถาม	-11.5199
แพต	-11.5199
แต่ก็นะ	-11.52
จํานอง	-11.5202
ลี้ยวขวา	-11.5203
นักเตะ	-11.5208
▁ในภาษา	-11.521
อีกสองคน	-11.5211
เจเจ	-11.5217
ฒเธฐเธ	-11.5219
เอาท์	-11.5225
กับพี่	-11.5232
โลง	-11.5234
ดีเด่น	-11.5237
ช่างภาพ	-11.5238
ลูก้า	-11.524
บ้าเอ๊ย	-11.5242
ไหนจะ	-11.5244
ที่อาศัย	-11.5246
ให้ลูกๆ	-11.5248
▁พอได้	-11.525
ล้อมรอบ	-11.5255
โกร	-11.5256
ริสเตียน	-11.5256
ที่มีแต่	-11.5257
▁เวอร์จิ	-11.5258
สป็อค	-11.526
มเมอร์	-11.5261
เขาเล่น	-11.5262
กลับมาหา	-11.5265
ฆ่ามัน	-11.5265
ฬ	-11.5267
แชป	-11.5268
ค่าปรับ	-11.527
งั้นถ้า	-11.527
โทรหาคุณ	-11.5271
ฉวยโอกาส	-11.5273
ทวง	-11.5273
ชิ้นๆ	-11.5275
จับภาพ	-11.5277
▁แต่ผมจะ	-11.5277
หัวล้าน	-11.5281
ถาด	-11.5282
เธฅเธดเธ	-11.5288
เล็ม	-11.5288
งเธฑเธ	-11.5292
08	-11.5302
ยิ	-11.5304
มีน้ําใจ	-11.5305
พิล	-11.5307
เขาเขียน	-11.5307
นิดนึง	-11.5308
ผลาญ	-11.5309
พวกเราก็	-11.5311
หลังเหตุ	-11.5312
เธญเธฑเธ	-11.5312
ีโอพัตรา	-11.5313
หน่วง	-11.5313
เจฟฟรีย์	-11.5313
แฮนนาห์	-11.5313
มะนาว	-11.5313
เลฮีย์	-11.5313
ก็อตแธม	-11.5313
ง่ายดาย	-11.5313
ลิดเพลิน	-11.5313
เร่าร้อน	-11.5313
เมิร์	-11.5313
ปานามา	-11.5313
ลอยนวล	-11.5313
เขิน	-11.5313
ซิดนีย์	-11.5313
อําพราง	-11.5316
ไปถาม	-11.5317
เพรสตัน	-11.5319
ไมเยอร์	-11.5319
จูลส์	-11.532
จะติดต่อ	-11.5321
ไว้วางใจ	-11.5321
เซเว่น	-11.5322
อัลเฟรด	-11.5322
วอล์ค	-11.5324
พันตรี	-11.5324
น็อค	-11.5324
พฤษภาคม	-11.5324
ร้อยโท	-11.5324
ควรได้	-11.5325
เอริก	-11.5326
เคทลิน	-11.5326
อุทิศตน	-11.5329
เฮ็	-11.5329
โดนฆ่า	-11.5332
ตลาดหุ้น	-11.5332
โรงอาหาร	-11.5333
เผื่อว่า	-11.5334
เผ	-11.5334
ผมจึง	-11.5336
ร้ายๆ	-11.5338
ทาสี	-11.534
ต้องฆ่า	-11.534
อีเกิล	-11.5343
กุญแจมือ	-11.5343
ในปีนี้	-11.5343
ชู้ต	-11.5344
แปดปี	-11.5344
โอกาสนี้	-11.5346
ผ่านพ้น	-11.5347
สายตรวจ	-11.5347
แล้วผมจะ	-11.5348
๊ง	-11.5351
โพลี	-11.5353
ช้าไป	-11.5353
สองคนนี้	-11.536
บีเอ็ม	-11.5361
ขบ	-11.5362
มาร์ท	-11.5365
ไปร่วม	-11.5366
แคลน	-11.5366
พลทหาร	-11.5367
เพี้ยนๆ	-11.537
คราวก่อน	-11.5372
นองนั้น	-11.5374
มันง่าย	-11.5377
ทรั	-11.5378
ฟาง	-11.5378
คืนเงิน	-11.5379
แชด	-11.5385
ผมพูดว่า	-11.5386
บนด	-11.5389
เหตุใด	-11.539
ไม่ว่าง	-11.5391
ืย	-11.5392
ลําตัว	-11.5393
ผู้สมรู	-11.5401
เสนอชื่อ	-11.5402
ไม่สมควร	-11.5405
รัว	-11.5408
งั้นสิ	-11.5409
นายบอก	-11.541
เบี้ยว	-11.542
จะได้รู้	-11.5422
ประสบอุ	-11.5425
ท้ายรถ	-11.5426
ลิท	-11.5429
ทีละคน	-11.544
ที่ระลึก	-11.5444
บอกทุกคน	-11.5445
จะค่อยๆ	-11.5447
นิ้วมือ	-11.5448
มาจากการ	-11.5453
เฟิร์ส	-11.5454
ลินด์	-11.5454
อะไรทํา	-11.5462
▁ที่มหา	-11.5463
ท่อน้ํา	-11.5466
ผมส่ง	-11.5466
ไม่เชิง	-11.5469
ปีแรก	-11.5471
มาถึงจุด	-11.5471
ในบาง	-11.5476
▁กว่าปี	-11.5479
ระบุไว้	-11.5482
▁เธฒเธง	-11.5482
ใช้ปืน	-11.5485
ลิต	-11.5485
ซึ้ง	-11.5491
ข้ารู้	-11.5491
เชลย	-11.5494
ร้อยล้าน	-11.5494
ผมควรจะ	-11.5494
แลว	-11.5495
โดยรวม	-11.5495
ตะลึง	-11.5499
โหลด	-11.55
หวั่น	-11.55
คนที่ทํา	-11.5501
ชุ่ม	-11.5501
ดิ้นรน	-11.5501
ธรณี	-11.5501
ปราศรัย	-11.5501
อภิปราย	-11.5501
ทัศนคติ	-11.5501
เดโมแครต	-11.5501
เราะเยาะ	-11.5501
คณบดี	-11.5501
อารักขา	-11.5501
▁1972	-11.5501
79	-11.5501
ทรุด	-11.5501
เเบบ	-11.5502
แฟกซ์	-11.5502
ถ่านหิน	-11.5502
สังสรรค์	-11.5502
หย่าร้าง	-11.5502
ฮาร์เล็ม	-11.5502
ดราม่า	-11.5503
มีระบบ	-11.5503
▁1969	-11.5503
แพ็ค	-11.5504
ใครซักคน	-11.5504
ขยัน	-11.5505
เบอรี่	-11.5505
แม่ต้อง	-11.5506
โต้คลื่น	-11.5508
มอสโก	-11.5508
เวนเจอร์	-11.5508
กรีนเดล	-11.5509
แฮ็ค	-11.5509
แบรนดอน	-11.5509
ผมยังไม่	-11.551
เค็ม	-11.5512
กิ้นส์	-11.5512
ูซิเฟอร์	-11.5513
ผมต้องไป	-11.5513
▁1950	-11.5514
รอฟ	-11.5514
ยีนส์	-11.5514
อิฐ	-11.5515
อร่อยมาก	-11.5517
มาหาเรา	-11.5517
สานต่อ	-11.5518
่าเถื่อน	-11.5519
เดนเวอร์	-11.5519
ยุคใหม่	-11.5522
ผ่านศึก	-11.5523
ยังงี้	-11.5528
ฮิวส์	-11.5529
ตรวจตรา	-11.5529
เบ่ง	-11.553
ซารา	-11.5531
ฟ่า	-11.5532
ศอก	-11.5533
ไฟว์	-11.5534
นับถึง	-11.5534
▁บ่	-11.5534
ลําแสง	-11.5535
ซิสเตอร์	-11.5535
ฝี	-11.5537
สามทุ่ม	-11.554
ใบเสร็จ	-11.5542
ทําข่าว	-11.5547
ผลผลิต	-11.5548
คิส	-11.5557
ใส่สูท	-11.5557
ใกล้ตาย	-11.5558
รักษาโรค	-11.5565
เคต	-11.5567
ิต้า	-11.5571
เหนี่ยว	-11.5572
แองเจล	-11.5572
ปีต่อมา	-11.5573
แสนวิเศษ	-11.5576
เบอร์รี	-11.5578
แทม	-11.5582
ด้านขวา	-11.5584
บอกให้ผม	-11.5588
สารคดี	-11.5591
เข้ายึด	-11.5592
ทุกคนเลย	-11.5594
พักฟื้น	-11.5595
อภัย	-11.5596
เมียฉัน	-11.5599
มอร์ตี้	-11.5602
เจ้าต้อง	-11.5605
สื้อคลุม	-11.5606
ไห	-11.5612
ที่เต็ม	-11.5612
คําสาบาน	-11.5617
เรียนต่อ	-11.5623
เด็กเล่น	-11.5625
ทําไมนาย	-11.5626
การแก้ไข	-11.563
จะทําการ	-11.5633
ก้	-11.5634
ริกส์	-11.5635
จากประสบ	-11.5635
เขาโดน	-11.5638
ฟฟี่	-11.564
เล็น	-11.5646
ีเกียรติ	-11.5648
แอ็ก	-11.5651
ี่ยม	-11.5653
ให้ทีม	-11.5662
คาะประตู	-11.5663
วินซ์	-11.5665
ถง	-11.5666
กับสามี	-11.5667
ทางไกล	-11.5668
ใหญ่ขึ้น	-11.5671
เส้นสาย	-11.5673
จ้างคน	-11.5675
เป็นครู	-11.5677
ของโ	-11.5679
เด็กดี	-11.5679
หนีออกมา	-11.5685
แถวนั้น	-11.569
▁ถ้าพ่อ	-11.569
อยู่รอบๆ	-11.5691
ขี้เกียจ	-11.5694
ทรทรรศน์	-11.5694
ปราบปราม	-11.5694
ผัด	-11.5694
สมรภูมิ	-11.5694
สัมมนา	-11.5694
อิลลินอย	-11.5694
เว่อร์	-11.5694
เสมียน	-11.5694
แคมเปญ	-11.5694
สัญชาติ	-11.5694
สําราญ	-11.5694
ฮาร์วีย์	-11.5694
แคปซูล	-11.5694
โง่เขลา	-11.5694
แคเรฟ	-11.5694
ฟิล์ม	-11.5694
ลงจากรถ	-11.5694
ลิ้มรส	-11.5694
ปักกิ่ง	-11.5694
สวาท	-11.5694
แทรกซึม	-11.5694
คอสมิก	-11.5694
แพ็ก	-11.5694
อว์เรนซ์	-11.5694
ลิสบอน	-11.5695
ทวีต	-11.5695
นอร์เวย์	-11.5695
ประมวลผล	-11.5696
▁แล้งๆ	-11.5696
โฮเซ่	-11.5696
เฮนรี	-11.5697
กติกา	-11.5697
สนุกดี	-11.5698
ประพันธ์	-11.5699
ว่านายจะ	-11.5699
ปากคํา	-11.5699
มาช้า	-11.5701
ทิศเหนือ	-11.5702
ที่จะหา	-11.5703
แต่เขาก็	-11.5703
อื้อ	-11.5703
ฟลอยด์	-11.5705
วอลลี่	-11.5705
▁เมกะ	-11.5708
ต้นฉบับ	-11.571
เข้าทาง	-11.5713
▁เอิ่ม	-11.5713
เบอร์โทร	-11.5714
เบื้องบน	-11.5714
เมโทร	-11.5714
มองย้อน	-11.5716
คีน	-11.5716
ชินกับ	-11.5719
ยับ	-11.5719
หุ้ม	-11.5722
บอกเล่า	-11.5725
เคลเลอร์	-11.5725
ผมดีใจ	-11.5725
เมาท์	-11.5725
แค่เพียง	-11.5727
ตู้เซฟ	-11.5729
▁ออกๆ	-11.5731
ก็มาถึง	-11.5732
คนดูแล	-11.5734
กัต	-11.5738
โกรธมาก	-11.5738
คับ	-11.5742
เนินเขา	-11.5744
เลต	-11.5745
สิงหาคม	-11.5745
ยินมาว่า	-11.5746
มีกลิ่น	-11.5749
ยืนขึ้น	-11.5752
บินตก	-11.5754
ยอมทํา	-11.5755
นุษยธรรม	-11.5762
เซียม	-11.5763
สตีน	-11.5764
จนทําให้	-11.5766
บารา	-11.5767
พวกเธอจะ	-11.5768
ในบริษัท	-11.5773
ซะด้วย	-11.5774
บล็อค	-11.5774
ยอก	-11.5778
น้ําร้อน	-11.5778
ไปให้ถึง	-11.578
เซี่ย	-11.5781
ลีฟ	-11.5783
เดินตาม	-11.5783
เกิดปี	-11.579
เงินทอง	-11.5791
ยุทธการ	-11.5795
ไม่กี่ปี	-11.58
เจเน็ต	-11.58
้อน	-11.5803
ค้นพบว่า	-11.5804
แสงไฟ	-11.5808
ฦ	-11.5809
เขาก็จะ	-11.581
คํามั่น	-11.5811
แปลกมาก	-11.5812
เราก็แค่	-11.5813
มาเกือบ	-11.5818
วางแผนจะ	-11.5822
กล่อมให้	-11.5824
ในที่นี้	-11.5834
นาซา	-11.5836
กับกลุ่ม	-11.5836
ถูกยึด	-11.5836
ข้อดี	-11.5837
แพทย์ปร	-11.5839
ตามถนน	-11.5841
เป็นช่วง	-11.5848
หมายศาล	-11.585
ิฟ	-11.585
นับล้าน	-11.5852
ตั้งนาน	-11.5854
หลอดไฟ	-11.5854
บิส	-11.5857
ยังอยาก	-11.586
พารา	-11.5864
คู่นี้	-11.5866
จบเรื่อง	-11.5869
ไปตามถนน	-11.587
คําสอน	-11.5871
ควีนส์	-11.5871
รถคันนี้	-11.5872
คนสองคน	-11.5873
นอง	-11.5876
ภิ	-11.5877
งเธฅเธฒ	-11.588
พักอาศัย	-11.588
ไปเยอะ	-11.5886
ผิวน้ํา	-11.5886
ใจกว้าง	-11.5889
ลิขิต	-11.589
ทัชดาวน์	-11.589
พาณิชย์	-11.589
ภัตตาคาร	-11.589
มอนิก้า	-11.589
อดิเรก	-11.589
อธิษฐาน	-11.589
โอเปร่า	-11.589
น่าขนลุก	-11.589
รีพับลิ	-11.589
หลิว	-11.589
พาสต้า	-11.589
ไกลๆ	-11.589
รัชเชอร์	-11.5891
วัตถุดิบ	-11.5891
ผูกมัด	-11.5892
อิท	-11.5892
ทุกเมื่อ	-11.5892
สเต็ก	-11.5892
น็อกซ์	-11.5893
ว่าจ้าง	-11.5894
าร์บาร่า	-11.5895
แฮ็ก	-11.5895
วินสตัน	-11.5896
หากข้า	-11.5897
ตารางฟุต	-11.5898
จับมัน	-11.59
ใบนี้	-11.5901
ดูหมิ่น	-11.5902
▁นายควร	-11.5903
ลงใต้	-11.5903
วิกเตอร์	-11.5903
ริคกี้	-11.5904
น้ําหอม	-11.5905
ไม่สนว่า	-11.5907
▁อดัมส์	-11.5907
นิกซ์	-11.5908
นักวิจัย	-11.5908
เซ็ง	-11.5909
ท่านผู้ม	-11.5911
87	-11.5913
มากสุด	-11.5913
ก็เคย	-11.5914
ในกองทัพ	-11.5915
ตกจาก	-11.5916
สิ้นโลก	-11.5918
เวิร์น	-11.592
ก๊อก	-11.5923
78	-11.5923
ชารอน	-11.5926
ข้อสงสัย	-11.5928
▁650	-11.5928
บอยล์	-11.5934
แก้ม	-11.5935
โอไบรอัน	-11.5935
นาซ่า	-11.5937
นอกบ้าน	-11.5942
ตรงเวลา	-11.5944
นพ	-11.5944
ถึงแม้จะ	-11.595
ในหน่วย	-11.5952
แถวบ้าน	-11.5952
หรูๆ	-11.5956
ฮเย	-11.596
58	-11.5961
ลูกศิษย์	-11.5962
ด้านใน	-11.5962
บีม	-11.5963
ะจําบ้าน	-11.5966
วิลล่า	-11.5967
ท่านทูต	-11.5972
ตกอยู่	-11.5973
สตาร์ค	-11.5974
ปิดตา	-11.5975
ยูเอ็น	-11.5977
ฉันก็ยัง	-11.5984
แม่น	-11.5985
ซน	-11.5992
เซียน่า	-11.5997
สมควรได้	-11.5997
บุล	-11.6
มีเพศ	-11.6001
เจ็ต	-11.6012
เรียกกัน	-11.6015
ขโมยรถ	-11.6017
เอาปืน	-11.6018
แฟนสาว	-11.602
ุ้ย	-11.6027
การสู้รบ	-11.6029
น้ําใจ	-11.603
ไหร่ที่	-11.6041
ผมคงต้อง	-11.6043
ซีพี	-11.6046
ครอบ	-11.6046
ทีน่า	-11.605
ตามหลัง	-11.6053
ล้มตาย	-11.6055
ว่ามันมี	-11.6056
คงจะดี	-11.6058
ตั้งหลาย	-11.6059
ซ์เตอร์	-11.6061
เซิร์	-11.6062
ปล่อยวาง	-11.6064
ซูม	-11.607
เอาไปให้	-11.607
ติดๆ	-11.6071
บอกพ่อ	-11.6071
เพียงใด	-11.608
บรูค	-11.6081
อันซับ	-11.6083
▁320	-11.6085
มีอิสระ	-11.6085
สนิทกับ	-11.6086
สรรพ	-11.6086
ึงเครียด	-11.6087
ริมฝีปาก	-11.609
สะสาง	-11.609
สิงคโปร์	-11.609
เทกซัส	-11.609
เอไลจาห์	-11.609
พัศดี	-11.609
มลทิน	-11.609
ระบอบ	-11.609
สวิตช์	-11.609
ฟรอสต์	-11.609
ชุบ	-11.609
ุ่งโรจน์	-11.609
ลีดเดอร์	-11.609
มวยปล้ํา	-11.609
มาดริด	-11.609
ลสเบี้ยน	-11.609
าร์โนลด์	-11.609
เราชอบ	-11.609
โกลเด้น	-11.609
ไคลด์	-11.6091
ฮยอก	-11.6091
▁1984	-11.6091
มุข	-11.6091
กงจิน	-11.6091
ล้อเลียน	-11.6091
▁1981	-11.6092
แกรนต์	-11.6093
ผืนดิน	-11.6093
แคสซี่	-11.6094
ต้องถาม	-11.6095
วีน	-11.6096
พังทลาย	-11.6096
มูจิน	-11.6097
นั่งข้าง	-11.6099
ต้องกิน	-11.6104
พละ	-11.6105
พึง	-11.6105
คู่กัน	-11.6108
86	-11.6109
ตีความ	-11.6109
แคเรน	-11.6111
ปลอบ	-11.6111
จูเลียน	-11.6112
กลาส	-11.6114
เขาเดิน	-11.6116
ที่ตามมา	-11.6118
ปูม	-11.6119
เร้าใจ	-11.6122
็อป	-11.6123
บลัด	-11.6126
คุมตัว	-11.613
มือใหม่	-11.613
คาร์เมน	-11.6131
หนอง	-11.6131
หลายสิบ	-11.6132
กองไฟ	-11.6132
ฟังดูดี	-11.6135
หมอบลง	-11.6138
เลม	-11.6138
ั่น	-11.6139
เปิน	-11.6143
ฃเธญเธ	-11.6144
ตรงไปตรง	-11.6144
อนามัย	-11.6145
ยัยนั่น	-11.6145
กาลครั้ง	-11.6145
รอดมาได้	-11.6145
ไฟน์	-11.6149
ซูลู	-11.615
แบง	-11.6153
โนส	-11.6153
เซ่	-11.6156
มมิ่ง	-11.6162
ยอร์	-11.6169
เธฒเธงเน	-11.6169
ของหวาน	-11.6171
ินทรัพย์	-11.6176
อีวาน	-11.6177
มันมาจาก	-11.618
การขนส่ง	-11.6182
แม่รู้	-11.6183
เลิกงาน	-11.6186
คําสัญญา	-11.6188
ของอัล	-11.6188
กล้องโ	-11.619
รอยแยก	-11.6194
เดือนพ	-11.6196
สะกดด้วย	-11.6197
รับช่วง	-11.62
สิบสาม	-11.6204
นับสาม	-11.6205
อ่านเจอ	-11.6211
ิร	-11.6213
ในโบสถ์	-11.6214
ทําหนัง	-11.6215
ไอโอ	-11.6215
ลีโอนาร์	-11.6218
สตีล	-11.6222
หมายอาญา	-11.6226
▁102	-11.6227
ที่งดงาม	-11.6231
มีเจตนา	-11.6232
ศา	-11.6235
ปวดท้อง	-11.6239
ชิลี	-11.6248
ดีไปกว่า	-11.6249
ไปดูหนัง	-11.625
น้ําผึ้ง	-11.6253
มัย	-11.6256
บ่ายนี้	-11.6258
เตอร์สัน	-11.6261
เครส	-11.6264
ดาร์ค	-11.6265
สายลม	-11.6266
▁รวมเป็น	-11.6272
ซาว	-11.628
แฝง	-11.628
หมิ่น	-11.628
ผู้อพยพ	-11.6283
▁ผมสี	-11.6284
ไงจ๊ะ	-11.629
เคาน์	-11.6292
เผอิญ	-11.6294
กระตุก	-11.6294
ตุรกี	-11.6294
โฆษก	-11.6294
เฉือน	-11.6294
ทึบ	-11.6294
วิวาท	-11.6294
นุ่มนวล	-11.6294
ย้อม	-11.6294
ตั้งตารอ	-11.6294
ต่ําต้อย	-11.6294
บิชอป	-11.6294
ฝาแฝด	-11.6294
กรี๊ด	-11.6295
สังกัด	-11.6295
รูฟัส	-11.6296
ผ้าคลุม	-11.6296
กวนอู	-11.6296
นักวิ่ง	-11.6296
ชิ้นนี้	-11.6296
จับตามอง	-11.6297
ไดมอนด์	-11.6298
ถุงยาง	-11.6298
แซ่บ	-11.6298
เยี่ยง	-11.6299
กวนใจ	-11.6299
ัฟฟ์	-11.6299
ศาลเตี้ย	-11.63
อะไหล่	-11.63
นั่นอาจ	-11.6301
บีซี	-11.6302
ลามก	-11.6302
ลิ่ม	-11.6303
อินทรี	-11.6304
เธญเธตเน	-11.6304
ละอาย	-11.6307
สามตัว	-11.631
ผมคงไม่	-11.6312
มอย	-11.6314
มัค	-11.6315
ตอนท้าย	-11.6315
ช่องแคบ	-11.6316
อมตะ	-11.6319
ปีนึง	-11.632
ลิลี่	-11.6322
ึอ	-11.6324
เบียน	-11.6324
▁เป็นคํา	-11.6327
นั่งเฉยๆ	-11.6329
ก็ดีนะ	-11.6329
ขนสัตว์	-11.633
แฟนคลับ	-11.6336
จะได้ผล	-11.6337
▁103	-11.6339
อัดเสียง	-11.634
เคยมีมา	-11.6342
รอดู	-11.6343
ที่จะใช้	-11.6343
ช่องท้อง	-11.6343
ความชื้น	-11.6343
ฉันยอม	-11.6344
ในทันที	-11.6345
แซนด์	-11.6346
ทุกทาง	-11.6347
มีบาง	-11.6353
แดร์	-11.6353
เมท	-11.6354
หาคู่	-11.6356
อาห์	-11.636
ต้ว	-11.6362
อีไล	-11.6366
เด็กใหม่	-11.6367
กุมาร	-11.6367
คนดีๆ	-11.6367
▁ฮัท	-11.6368
บูธ	-11.637
ผมว่ามัน	-11.6371
จูเลียส	-11.6376
คูล	-11.6377
ยูโร	-11.6379
ให้คะแนน	-11.6383
ไร้ซึ่ง	-11.6383
ุ๊ก	-11.6385
ลูกเสือ	-11.6392
สนอง	-11.6394
พลร่ม	-11.6394
มีคุณค่า	-11.6395
มีสาย	-11.6395
ส้น	-11.6401
หลุดออก	-11.6402
การเกษตร	-11.6405
จุก	-11.6405
พาคน	-11.6406
ในช่วงปี	-11.6412
เมาแล้ว	-11.6413
แหย	-11.6422
ตัวแปร	-11.6424
ขอเงิน	-11.6425
แบบเดิม	-11.6427
▁119	-11.6428
จะทําตาม	-11.6428
ถามหน่อย	-11.6429
อัลเลน	-11.6435
มีกฎ	-11.6437
น้องๆ	-11.6438
ขึ้นต้น	-11.6441
แจ้งเหตุ	-11.6441
ล่องเรือ	-11.6443
ยื่นฟ้อง	-11.6453
กยอง	-11.6454
็อน	-11.6456
ข้องกัน	-11.6456
อยากถาม	-11.6456
ในสหรัฐฯ	-11.6457
วิเศษมาก	-11.6457
แอบดู	-11.6458
500	-11.6463
จะยังคง	-11.6467
ไปหาเขา	-11.6468
เอเลน	-11.647
สร้างแรง	-11.6471
เฝ้ารอ	-11.648
เจอปัญหา	-11.6481
เว้ย	-11.6482
ทัค	-11.6484
ความฉลาด	-11.6485
ชอบมาก	-11.6486
ให้คุณดู	-11.649
ยังไม่พอ	-11.6495
ไมอามี	-11.6498
หยุดพัก	-11.6499
ฮิน	-11.6499
กรรไกร	-11.65
หน่าย	-11.6501
บรู๊ค	-11.6501
เย็นๆ	-11.6501
องครักษ์	-11.6502
คลี่คลาย	-11.6502
ฮันนีมูน	-11.6502
โคลัมบัส	-11.6502
เอพริล	-11.6502
เฟซบุ๊ก	-11.6502
ปลิด	-11.6502
แชมเบอร์	-11.6502
ลีลา	-11.6502
สยองขวัญ	-11.6503
อกเห็นใจ	-11.6503
สูติ	-11.6504
เลขาฯ	-11.6504
พลาซ่า	-11.6504
พอกันที	-11.6504
ไวกิ้ง	-11.6504
สะกดรอย	-11.6505
ปฏิรูป	-11.6505
เทศน์	-11.6506
กระเทียม	-11.6506
ทั้งสี่	-11.6506
บัตเตอร์	-11.6507
เรเนียม	-11.6507
จอมปลอม	-11.6507
เอี่ยม	-11.6507
ล่าม	-11.6508
คอนราด	-11.6508
ก้อง	-11.6512
สุดหรู	-11.6516
ยูเอ	-11.6517
เธอสองคน	-11.6518
คล่อง	-11.6519
เฮลี่ย์	-11.6519
แหงล่ะ	-11.652
หราช	-11.6523
สะใภ้	-11.6525
ส่าย	-11.6527
เจ๊ง	-11.6528
จูลี่	-11.6529
ครึ่งทาง	-11.6529
ไม่แคร์	-11.653
ให้ผมฟัง	-11.653
หลวงพ่อ	-11.6531
ฮัว	-11.6533
ผลตอบแทน	-11.6534
หลุดจาก	-11.6535
มีคนไข้	-11.6537
บิลล์	-11.6537
ดิว	-11.6541
สตรอ	-11.6542
ไหลเวียน	-11.6544
นายชอบ	-11.6546
บินลํา	-11.6547
ปป์	-11.6547
ลดระดับ	-11.6548
เชิด	-11.655
นักลงทุน	-11.6552
ซุส	-11.6552
เท่าๆ	-11.6556
ซํา	-11.6559
คาดไว้	-11.6559
เล็กซี่	-11.6559
ใบ้	-11.656
หมิง	-11.6567
เฮม	-11.6569
ยูกิ	-11.6572
สองสามปี	-11.6578
นานพอ	-11.6581
เข้าไปดู	-11.6585
ออกไปนอก	-11.6588
ยกให้	-11.66
ซึ่	-11.6604
ถามหา	-11.6607
ทูล	-11.6608
ณา	-11.6622
เลิกทํา	-11.6626
เลนส์	-11.6627
ผู้เดียว	-11.6628
63	-11.6629
ทอร์เน็ต	-11.6632
จนจบ	-11.6634
บ็อก	-11.6635
ในกรุง	-11.6635
แทบตาย	-11.6636
ทนทุกข์	-11.6636
สินเชื่อ	-11.6638
โอมาร์	-11.6639
จําตอน	-11.6642
มาร์โค	-11.6644
กรกฎาคม	-11.6645
หนักๆ	-11.6646
ไม่เก่ง	-11.6647
ขอบใจมาก	-11.6656
สี่โมง	-11.6658
ต่ําสุด	-11.6659
จะจบลง	-11.6662
ลูกสองคน	-11.6662
โว้ว	-11.6663
ชื้น	-11.6663
วินนี่	-11.6664
อีกนิด	-11.6664
คนที่สอง	-11.6664
อย่าขยับ	-11.667
อยู่แถวๆ	-11.6677
ัญ	-11.6677
เธฅเธขเธ	-11.6679
ขึ้นสู่	-11.6681
ผู้ผลิต	-11.6683
คาลี	-11.6684
▁อะไรคือ	-11.6685
เซ็ก	-11.6685
ลือ	-11.6685
ระราชวัง	-11.6688
รอยเท้า	-11.6688
พลาดไป	-11.6688
ถ่าน	-11.6692
ด้อม	-11.6694
ผมมีความ	-11.6696
คงไม่ใช่	-11.6699
ต้องมีคน	-11.6702
เธงเธฃเธ	-11.6704
พบเจอ	-11.6705
มุด	-11.671
ช่องโหว่	-11.6715
พระชนม์	-11.6715
พิศวง	-11.6715
มุสลิม	-11.6715
สมุนไพร	-11.6715
อับราฮัม	-11.6715
เขื่อน	-11.6715
๑	-11.6715
ถัก	-11.6715
คริสตินา	-11.6715
ตุ้ม	-11.6715
มโมเรียล	-11.6715
ขุดคุ้ย	-11.6715
สวดภาวนา	-11.6715
ดุเดือด	-11.6715
ซั่ม	-11.6715
เคล็ดลับ	-11.6716
กําบัง	-11.6716
แรนดัล	-11.6716
ดักลาส	-11.6716
กระบอง	-11.6716
เปล่ง	-11.6716
เคยใช้	-11.6716
ลั่ว	-11.6717
ต้านทาน	-11.6717
ตุ๊ด	-11.6717
▁1978	-11.6718
แซ็ก	-11.6718
โกรฟ	-11.672
ปะทุ	-11.672
คอมฯ	-11.6724
ของตนเอง	-11.6725
มิคกี้	-11.6725
เทรเวอร์	-11.6727
เคเบิล	-11.6728
เร็ก	-11.673
ปั่นหัว	-11.673
เรลล์	-11.6731
ราชัน	-11.6731
เจ็บตัว	-11.6733
พลุ	-11.6733
ฆ่าใคร	-11.6735
สายไฟ	-11.674
ไวด์	-11.6741
รัต	-11.6742
นิสเตอร์	-11.6743
เมียเก่า	-11.6745
คบหา	-11.6746
ห้าหมื่น	-11.6746
งานเขียน	-11.6746
ใส่หมวก	-11.6747
แฮรี่	-11.6749
ซูชิ	-11.6754
วอลต์	-11.6755
เอเดรียน	-11.6756
มาร์โก้	-11.6756
นีน่า	-11.6759
ฑโ	-11.6759
คินส์	-11.676
52	-11.6763
หลับไป	-11.6765
อู้	-11.6765
เขียนโดย	-11.6766
โอ๊ก	-11.6767
มีแต่คน	-11.677
บนหน้า	-11.677
คันทรี	-11.6777
แข่งกัน	-11.678
ลิ้	-11.678
ครูฝึก	-11.6785
ยึดมั่น	-11.6789
ตัวสั่น	-11.6791
ัญญาอ่อน	-11.6791
ปาร์ก	-11.6792
อาร์ตี้	-11.6796
อย่าคิด	-11.6802
ใช้ในการ	-11.6802
เธญเธฒเน	-11.6804
เคือง	-11.6804
โบย	-11.6806
แสร้งทํา	-11.6808
ไม่ยาก	-11.6808
วางมือ	-11.6809
ซิโอ	-11.681
ทริค	-11.681
ในปารีส	-11.6811
ซูซี่	-11.6812
ฟอร์ต	-11.6819
าธารณสุข	-11.6822
พยอง	-11.683
เซียร์	-11.6831
ซิลเวีย	-11.6837
สักคํา	-11.6838
เป็	-11.6838
นางสาว	-11.684
วางใจ	-11.6843
ทูน่า	-11.6844
มาคิดดู	-11.6844
ในทีวี	-11.6845
92	-11.6851
อยากกิน	-11.6854
ฝรั่ง	-11.6862
ตัดต่อ	-11.6863
ดินสอ	-11.6864
ยังไงซะ	-11.6866
ที่ผมได้	-11.6867
เอาต์	-11.6867
ฉันคงไม่	-11.6871
ฟ้าผ่า	-11.6875
แขนขา	-11.6876
ชํา	-11.6888
สร็จสิ้น	-11.6889
จบลงด้วย	-11.6893
เคยทํามา	-11.6895
ม่าย	-11.6908
▁แถมมี	-11.691
ผมจะพูด	-11.6911
เทอร์โบ	-11.6914
เอาไปเลย	-11.6919
มีคนเห็น	-11.692
เยี่ย	-11.6921
อกลักษณ์	-11.6922
จากอุ	-11.6922
เกรีย	-11.6923
นาธาน	-11.6926
คอรี่	-11.6929
โฮล์ม	-11.6931
ปฎิบัติ	-11.6932
กระทืบ	-11.6932
ข่มเหง	-11.6932
คาร์เท็ล	-11.6932
คีตติง	-11.6932
จระเข้	-11.6932
มาราธอน	-11.6932
วิกลจริต	-11.6932
ลูกโป่ง	-11.6932
ฮัดสัน	-11.6932
โดโรธี	-11.6932
แอ้ม	-11.6932
ฟิสก์	-11.6932
เทวดา	-11.6932
ลั่งไคล้	-11.6932
แกว่ง	-11.6932
แน่วแน่	-11.6932
เอดิสัน	-11.6932
สงวน	-11.6932
ล่ํา	-11.6932
อนุบาล	-11.6932
กบฎ	-11.6933
ลุกลาม	-11.6933
ปุ๊บ	-11.6933
บุ๊ค	-11.6933
สตางค์	-11.6933
น้ํามือ	-11.6935
สิบขวบ	-11.6935
แด็ก	-11.6935
▁1943	-11.6936
คลื่นไส้	-11.6936
ฟังเสียง	-11.6936
นึกขึ้น	-11.6937
เงียบสงบ	-11.6938
รัดคอ	-11.6938
ลิฟท์	-11.6938
ละออง	-11.6939
โบก	-11.6939
ไนน์	-11.6941
วิตเตอร์	-11.6943
เนื้อวัว	-11.6945
พิตต์	-11.6945
ซีเนียร์	-11.6947
ริกซ์	-11.6947
เดินขบวน	-11.6948
ติดค้าง	-11.6948
ขั้นต่ํา	-11.6952
ผมเองก็	-11.6956
สร้อยคอ	-11.6957
เข้าโ	-11.6958
เนิร์ด	-11.6959
ยิบ	-11.696
หมัก	-11.696
บึง	-11.696
เอิร์ธ	-11.6962
สนามกีฬา	-11.6963
จะตัดสิน	-11.6966
ลิตร	-11.6966
โมเดล	-11.6967
ไม่ดีเลย	-11.6968
ชั้นดี	-11.6972
ข่าวช่อง	-11.6973
ก็เข้ามา	-11.6976
ดร้า	-11.6978
โอรส	-11.6981
ธธ	-11.6981
บนรถ	-11.6982
▁220	-11.6987
ฟาย	-11.6989
อิ้ง	-11.6994
ฅเธฒเธข	-11.6995
ออกทีวี	-11.6998
ตระเวน	-11.6999
ทัพเรือ	-11.7003
เลิกกับ	-11.7004
เวิร์ก	-11.7005
ตลกดีนะ	-11.7007
แน่นๆ	-11.701
คาว	-11.701
ด็อค	-11.701
ไรเกอร์	-11.7015
สิบแปด	-11.7022
การโทร	-11.7025
คําศัพท์	-11.7028
ชอย	-11.7028
หากเจ้า	-11.7029
ลงสนาม	-11.7029
ฆ่าคนไป	-11.7031
ซอว์	-11.7034
บนโซฟา	-11.7038
▁999	-11.7039
เธขเธ	-11.704
ลิเดีย	-11.7041
ทันเวลา	-11.7042
พิฆาต	-11.7044
ของพรรค	-11.7046
รุ้ง	-11.7047
พฤหัส	-11.705
ทาล	-11.7056
ึย	-11.7063
ไม่ช้า	-11.7068
ขึ้นฝั่ง	-11.7069
76	-11.7072
มันคงไม่	-11.7079
ล้านล้าน	-11.7082
แมนน์	-11.7084
เวค	-11.7084
สํานักงา	-11.7084
จะหาทาง	-11.7086
ถูกนําไป	-11.7088
ไม่ไว้ใจ	-11.7091
อันนึง	-11.7093
ข้าอยาก	-11.7095
ของผมเอง	-11.7097
ซ็นสัญญา	-11.7099
ก็ควรจะ	-11.7102
ปิดคดี	-11.7103
คงจะไม่	-11.7103
โชคดีมาก	-11.7105
ลบล้าง	-11.7105
แจน	-11.7106
เติมน้ํา	-11.7106
แร็ก	-11.7111
ก่อตัว	-11.7114
200	-11.7117
ทําซ้ํา	-11.7123
จะยก	-11.7123
คันนี้	-11.7126
เมษายน	-11.7127
ติ๊ก	-11.7127
คิดให้ดี	-11.7127
สตอล	-11.7129
พีอาร์	-11.713
โทรบอก	-11.7136
มูส	-11.7136
โว่	-11.7137
วงกว้าง	-11.7137
ร่วมรัก	-11.7143
ปล่อยเขา	-11.7144
ขอยืม	-11.7147
บ่ายโมง	-11.7151
คล้อง	-11.7154
เบ็ธ	-11.7154
กระจ่าง	-11.7154
ดิจิทัล	-11.7154
บ๊ายบาย	-11.7154
ประณาม	-11.7154
พาราไดซ์	-11.7154
มหาดไทย	-11.7154
สัดส่วน	-11.7154
เกรี้ยว	-11.7154
เสฉวน	-11.7154
แคโรไลนา	-11.7154
ถัดจาก	-11.7154
อะเวนิว	-11.7154
แยงกี้	-11.7154
วารสาร	-11.7154
อดอล์ฟ	-11.7154
อคติ	-11.7154
คร่งครัด	-11.7155
งวด	-11.7155
คนแคระ	-11.7155
าสเกตบอล	-11.7155
ไพรม์	-11.7155
สมาพันธ์	-11.7155
ช่วงบ่าย	-11.7155
แกลเลอรี	-11.7155
แบกแดด	-11.7155
แพนเค้ก	-11.7156
ซินแคลร์	-11.7157
▁1982	-11.7157
มม์	-11.7157
เทพนิยาย	-11.7157
เลอะ	-11.7158
คุณจะไป	-11.7158
ัช	-11.716
ช่องคลอด	-11.716
ปลอบใจ	-11.7161
เท็น	-11.7161
ดาวรุ่ง	-11.7161
▁1975	-11.7161
มหันต์	-11.7162
โฮลต์	-11.7162
ฉีกขาด	-11.7162
ทุบตี	-11.7163
อะไรคะ	-11.7164
เน่าๆ	-11.7164
หัวเสีย	-11.7165
บอกไปว่า	-11.7167
ซ่อง	-11.7167
ลินเจอร์	-11.7169
เมเยอร์	-11.717
แมสซ	-11.7172
ยากๆ	-11.7174
81	-11.7174
ขึ้นยาน	-11.7174
ไฟฟ์	-11.7174
อีเกิ้ล	-11.7175
าชิ	-11.7178
▁เคจ	-11.7179
ชาวไร่	-11.718
ผลึก	-11.718
โนเบล	-11.7182
▁107	-11.7183
ชิบ	-11.7183
ตอบกลับ	-11.7184
มืดมน	-11.7184
น่าจะรู้	-11.7185
ตรงจุด	-11.7187
สายน้ํา	-11.7187
ด๊อก	-11.7188
ถ่อ	-11.719
ล้านๆ	-11.719
หยิน	-11.719
แลนเดอร์	-11.7192
▁187	-11.7198
ทุกชิ้น	-11.7198
บารอน	-11.7206
แมรี	-11.7208
▁270	-11.7211
เปนเซอร์	-11.7217
ฟอก	-11.7219
มีลูกชาย	-11.7224
เฮก	-11.7224
ขั้นสูง	-11.7225
จิ้น	-11.7229
ยูจีน	-11.723
ไมล์ทะเล	-11.7231
วินด์	-11.7232
กลัวมาก	-11.7232
ยาห์	-11.7234
เด็ดๆ	-11.7238
ลูน่า	-11.7238
71	-11.724
กุน	-11.7242
ในตอนแรก	-11.7245
แกง	-11.7246
เล็ค	-11.7247
รถติด	-11.7248
ก็แบบว่า	-11.725
เอามันมา	-11.7251
ทิว	-11.7252
คนที่เคย	-11.7253
จะดีขึ้น	-11.7254
ตลอดช่วง	-11.7256
รู้มาว่า	-11.7258
้างเผือก	-11.7263
เคยมีใคร	-11.7268
ไว้ใจได้	-11.7269
คงอยาก	-11.7271
มีแขก	-11.7272
07	-11.7273
ฉะ	-11.7274
บ้างล่ะ	-11.7279
ทางรถไฟ	-11.728
ฟื้นคืน	-11.7281
ทีเอส	-11.7281
สนามรบ	-11.7285
แถมยัง	-11.7286
เทเล	-11.7287
หล่อๆ	-11.729
แหก	-11.7292
ความตึง	-11.7292
สือพิมพ์	-11.7295
ขวางทาง	-11.7295
เอ๊ะ	-11.7302
ยังหนุ่ม	-11.7302
ฮันนี่	-11.7306
ซันนี่	-11.7308
ผู้ซื้อ	-11.7312
เทรล	-11.7312
วอร์ส	-11.7314
ซัค	-11.7319
เธชเธณเธ	-11.7322
เค้น	-11.7323
แลค	-11.7326
ไปรบ	-11.733
ประวัติอ	-11.7333
สิบคน	-11.7333
แถวหน้า	-11.7334
จมลง	-11.7336
ฮิป	-11.7336
หาไม่เจอ	-11.7345
ท่านนายก	-11.7346
ถี่	-11.7347
สองสามคน	-11.7351
เรต	-11.7351
แห่งปี	-11.7357
แซนเดอร์	-11.7357
ชาร์ป	-11.736
รูท	-11.7362
เห่ย	-11.7362
พาผมไป	-11.7363
จ้าเล่ห์	-11.7364
ให้ครบ	-11.7367
ลืมไปว่า	-11.7369
▁ขอล่ะ	-11.7369
ยิ่งไปก	-11.7372
บนดาดฟ้า	-11.7373
เสียงปืน	-11.7373
สรุปได้	-11.7373
ฟลอร์	-11.7375
ผู	-11.7375
ด้านความ	-11.7376
แกร	-11.7376
ตุลาคม	-11.7377
ในพิธี	-11.7381
ชี้แจง	-11.7382
คอลัมน์	-11.7382
จั๊กเฮ้ด	-11.7382
จู๋จี๋	-11.7382
ฑูต	-11.7382
ปรมาณู	-11.7382
พระทัย	-11.7382
รีเบคก้า	-11.7382
อัญมณี	-11.7382
เมมฟิส	-11.7382
เริ่ด	-11.7382
รูปพรรณ	-11.7382
ส้วม	-11.7382
ฮอลลีวูด	-11.7382
โปรเจกต์	-11.7382
ปานกลาง	-11.7382
พุ่งเข้า	-11.7382
▁กะรัต	-11.7382
สําอาง	-11.7382
โบว์ลิ่ง	-11.7382
ปั่นป่วน	-11.7382
ไคลน์	-11.7383
ดีวีดี	-11.7383
บัณฑิต	-11.7383
นุ่ง	-11.7383
ขัดขืน	-11.7383
บรู๊คลิน	-11.7383
เศร้าโศก	-11.7384
สวมเสื้อ	-11.7385
▁1963	-11.7385
61	-11.7385
▁1939	-11.7385
มีลูกสาว	-11.7385
ทัคเกอร์	-11.7386
บนสวรรค์	-11.7386
ฮ็อต	-11.7387
ย่ะ	-11.7387
อน์สไตน์	-11.7388
อรส์	-11.7388
ทิศใต้	-11.7389
ิขสิทธิ์	-11.7389
ป่ะ	-11.739
ในกํามือ	-11.739
เยอะกว่า	-11.7391
วงแหวน	-11.7393
ใบสมัคร	-11.7393
ดุ๊ก	-11.7394
เราก็มี	-11.7395
พูดเล่น	-11.7396
ยังคงมี	-11.7396
หัวหอม	-11.7397
วงสวรรค์	-11.74
คุณครู	-11.7402
ก้อนโต	-11.7404
ลานบิน	-11.7405
ใหั	-11.7408
ความนิยม	-11.7413
พระจิต	-11.7414
ต้นเหตุ	-11.7414
แพค	-11.7416
การปรับ	-11.7418
เอดส์	-11.7418
ฟังผมนะ	-11.7418
ไวต์	-11.7422
อ๊อ	-11.7424
ลิงตัน	-11.7424
ว่าใครจะ	-11.7425
เธฃเธฐ	-11.7425
ติดเหล้า	-11.7427
คุ้นๆ	-11.7427
ทีไร	-11.7428
หัวรบ	-11.7428
มีเมีย	-11.7428
ทาร่า	-11.7429
ไมเนอร์	-11.7429
จอดอยู่	-11.7431
เข้าเวร	-11.7431
ยุคสมัย	-11.7434
รอยซ์	-11.7437
96	-11.7439
าร	-11.7441
โคจรรอบ	-11.7443
เมด	-11.7444
ให้ทัน	-11.7447
อตต์	-11.7449
มีกําหนด	-11.7451
บังหน้า	-11.7452
จมอยู่	-11.7454
ปั๊มน้ํา	-11.7454
โรว์ส	-11.7455
อันไหน	-11.7456
คํากล่าว	-11.7457
รายงานสด	-11.7459
หลอกใช้	-11.746
กันแดด	-11.746
หยุดพูด	-11.7463
พี่ๆ	-11.7465
ในตัวคุณ	-11.7465
97	-11.747
ถูกไล่	-11.7474
แฟนหนุ่ม	-11.7476
เน็ก	-11.7476
ทุกๆคน	-11.7478
เอามาให้	-11.748
พนันได้	-11.7481
รู้เห็น	-11.7482
เธกเธต	-11.7501
เด็กทารก	-11.7501
จน์	-11.7503
เนชั่น	-11.7506
ศัพท์	-11.7512
ในสนามรบ	-11.7513
ความโลภ	-11.7514
เชื่อสิ	-11.7517
พีเอส	-11.7522
จ้างงาน	-11.7525
ทางจิตใจ	-11.7527
มีสมาธิ	-11.7529
การฝึกฝน	-11.753
ฮยอง	-11.7533
ทุกมุม	-11.7535
เฝ้ามอง	-11.7537
ไถ่	-11.7542
▁ตื่นสิ	-11.7543
นอนลง	-11.7543
โดยเร็ว	-11.7547
ส่วนลด	-11.7549
ถูกลาก	-11.7551
๊อค	-11.7551
ศจ	-11.7555
ใช้อาวุธ	-11.7555
ภัณฑ์	-11.7557
เก๋	-11.7565
ตร้า	-11.7572
แค่ครึ่ง	-11.7573
บัม	-11.7576
มีไข้	-11.7578
เธนเธ	-11.758
สเตน	-11.7585
๎	-11.7586
▁มิลลิ	-11.7588
อฟฟ์	-11.759
89	-11.7591
ธ้	-11.7591
ปีจากนี้	-11.7597
แย่งชิง	-11.7603
มิรา	-11.7608
เราจะเอา	-11.7609
ทรินิตี้	-11.7614
ผักกาด	-11.7614
คาทอลิก	-11.7614
[...]
