<unk>	0
<s>	0
</s>	0
▁	-2.16388
ที่	-4.69032
▁และ	-5.04908
ได้	-5.07803
มา	-5.24381
ของ	-5.26538
▁เธ	-5.31972
ฉัน	-5.37332
คุณ	-5.4095
ไป	-5.4495
เป็น	-5.48889
แล้ว	-5.50353
ใน	-5.57827
และ	-5.61212
ผม	-5.62155
ว่า	-5.69607
▁ที่	-5.72107
▁ๆ	-5.7299
▁แต่	-5.73189
เขา	-5.73717
ให้	-5.75009
นะ	-5.76552
น	-5.79727
มี	-5.8066
กับ	-5.84832
ๆ	-5.8514
ไม่	-5.86742
จะ	-5.88411
การ	-5.88619
▁เน	-5.8972
เลย	-5.90236
ส	-5.94046
อยู่	-5.94074
เธอ	-5.95641
มัน	-5.95757
▁2	-5.97446
เรา	-5.97622
นี้	-6.03781
ก	-6.07488
ม	-6.07617
กัน	-6.09652
จาก	-6.10857
ตัว	-6.15923
นี่	-6.17847
ทํา	-6.18068
คน	-6.21811
ก็	-6.22176
ด้วย	-6.22765
อีก	-6.23739
▁ฉัน	-6.23921
ดี	-6.25215
ด	-6.2881
▁3	-6.31831
นาย	-6.33439
▁แล้ว	-6.34037
แต่	-6.36792
ไม่ได้	-6.3958
▁ปี	-6.39652
ง	-6.41062
▁คุณ	-6.44304
เรื่อง	-6.44374
▁ผม	-6.48163
▁หรือ	-6.49622
▁ใน	-6.51222
▁1	-6.51773
บ	-6.51985
ค	-6.52932
▁คน	-6.53533
คือ	-6.55289
▁000	-6.55686
ล	-6.55931
ครับ	-6.57344
ถึง	-6.57786
ต	-6.59134
อะไร	-6.59835
มาก	-6.62743
ความ	-6.65412
ท	-6.66219
ต้อง	-6.69146
▁กับ	-6.70518
ดู	-6.70644
ถูก	-6.71014
ไว้	-6.73057
นั้น	-6.75297
เน	-6.75617
ว	-6.76349
▁5	-6.77874
▁ไม่	-6.78712
ส์	-6.79087
▁เพื่อ	-6.79096
ใช่	-6.79136
ย	-6.79852
พวกเขา	-6.80148
หนึ่ง	-6.80479
▁เรา	-6.82494
ลูก	-6.83342
ทาง	-6.83476
ป	-6.83768
แค่	-6.83958
ใช้	-6.84514
บอก	-6.85517
เข้า	-6.87407
▁20	-6.89354
เอา	-6.90571
ร	-6.91134
จริง	-6.91137
เ	-6.91416
อย่าง	-6.91761
แม่	-6.92302
ฟ	-6.93323
เมื่อ	-6.93556
▁เขา	-6.94138
ขึ้น	-6.94635
▁4	-6.94808
▁ของ	-6.95203
ถ้า	-6.95431
นั่น	-6.96716
ต่อ	-6.97477
พ่อ	-6.98097
เหรอ	-6.98432
ของเรา	-6.98783
▁ก็	-6.98919
สิ	-6.98966
พูด	-6.99189
▁จาก	-6.99697
หา	-6.99941
เงิน	-7.00202
ของคุณ	-7.00475
หน้า	-7.01797
▁มัน	-7.02054
ผู้	-7.02406
ก่อน	-7.02499
ปี	-7.03992
งาน	-7.04524
เห็น	-7.04632
▁10	-7.05585
▁มี	-7.0564
ข้า	-7.08042
ลา	-7.08502
จริงๆ	-7.08824
▁เพราะ	-7.08936
ค่ะ	-7.0923
▁จะ	-7.10468
▁ซึ่ง	-7.10715
น่ะ	-7.10752
▁นาที	-7.10774
ตาย	-7.11104
บ้าน	-7.1136
บอกว่า	-7.12076
โอเค	-7.12139
ห	-7.12332
เธ	-7.12698
ชื่อ	-7.13519
เด็ก	-7.137
พวก	-7.13841
▁ถ้า	-7.14324
รู้	-7.1481
ออก	-7.15374
ลง	-7.15553
ยัง	-7.15962
ใหม่	-7.16495
▁เป็น	-7.16815
ตอน	-7.1729
เวลา	-7.1748
ช่วย	-7.17601
▁ว่า	-7.18694
กําลัง	-7.18974
เพื่อ	-7.19026
ล่ะ	-7.20377
เอง	-7.20404
ใจ	-7.20752
ส่ง	-7.21181
ของฉัน	-7.21445
▁6	-7.21711
อยู่ใน	-7.21721
ท่าน	-7.21985
เจ้า	-7.22149
่	-7.22579
ทั้ง	-7.22692
▁30	-7.22867
คิด	-7.23183
เพราะ	-7.23183
อ	-7.23322
ช	-7.23452
ตอนนี้	-7.24525
อายุ	-7.24944
น้ํา	-7.2508
แบบ	-7.25444
ทั้งหมด	-7.2565
ของเขา	-7.25689
คิดว่า	-7.25861
หรือ	-7.2644
นา	-7.26615
รับ	-7.27046
ชีวิต	-7.27126
▁เธอ	-7.29124
เล่น	-7.30416
ตัวเอง	-7.31314
เจอ	-7.31438
▁ให้	-7.3149
ทุกคน	-7.31901
โอ	-7.32155
สอง	-7.32325
ยา	-7.324
ขอ	-7.32505
เอ	-7.32557
▁นาย	-7.33623
ตา	-7.34258
ซ	-7.36033
ไม่ใช่	-7.36195
พอ	-7.36202
น่า	-7.36412
รถ	-7.37202
รา	-7.3734
อยาก	-7.37666
รัก	-7.3789
พ	-7.38344
กิน	-7.38428
▁15	-7.39049
แก	-7.39698
ซี	-7.39932
เหมือน	-7.40037
▁แล้วก็	-7.40337
ทําให้	-7.40433
ตาม	-7.41267
ทํางาน	-7.41282
ตั้ง	-7.41958
▁12	-7.42052
▁เธญเธ	-7.43496
กว่า	-7.43791
ฟัง	-7.452
▁เธฒเธ	-7.45984
▁คือ	-7.46258
ที่สุด	-7.46558
้	-7.46613
ใส่	-7.47041
▁8	-7.47327
▁19	-7.48159
พา	-7.48285
ลิ	-7.48337
▁นี่	-7.4862
ไม่มี	-7.49181
หัว	-7.49334
ใคร	-7.49421
ทุก	-7.5005
ที่จะ	-7.50247
▁ไป	-7.50357
โดย	-7.50475
สร้าง	-7.50653
มือ	-7.50993
ฆ่า	-7.51139
ไหม	-7.51764
▁7	-7.51811
หลัง	-7.52668
ชอบ	-7.52889
รู้ว่า	-7.53142
โลก	-7.53819
รี	-7.53824
กลับ	-7.54728
หนู	-7.54822
ที่นี่	-7.55092
กลับมา	-7.55858
ริ	-7.56063
▁การ	-7.56362
ที	-7.56584
จ	-7.56695
คํา	-7.5697
คนที่	-7.57068
เริ่ม	-7.57211
รอ	-7.58919
หน่อย	-7.59021
▁50	-7.59573
เล	-7.59802
หรอก	-7.60045
ตํารวจ	-7.6015
ต์	-7.60243
แห่ง	-7.60288
ร์	-7.60517
▁ชั่วโมง	-7.60833
▁เมื่อ	-7.60885
ใหญ่	-7.61304
สําหรับ	-7.62476
ั	-7.6253
เสีย	-7.63693
ท์	-7.6373
วัน	-7.64257
ของผม	-7.64279
เร	-7.64666
อาจ	-7.64738
พยายาม	-7.65497
ฟังนะ	-7.65852
▁9	-7.65999
▁เธฑเธ	-7.66314
บน	-7.66524
อา	-7.66807
คง	-7.6741
เมือง	-7.67757
ของเธอ	-7.6791
ครอบครัว	-7.68476
ห้อง	-7.68923
ธ	-7.69508
แมน	-7.69572
นัก	-7.70003
▁วัน	-7.70045
วา	-7.70352
กา	-7.70913
แน่	-7.70979
▁ใช่	-7.71076
ผ่าน	-7.71265
มิ	-7.71616
ลี	-7.71886
ออกมา	-7.72402
นํา	-7.72838
สัก	-7.73022
สาม	-7.73187
สิ่งที่	-7.7333
จับ	-7.73897
สูง	-7.74109
▁ถึง	-7.74343
▁เหรียญ	-7.74781
ซื้อ	-7.75796
สัน	-7.76062
เกิด	-7.76157
มั้ย	-7.76469
ออกไป	-7.76475
ทีม	-7.76978
เรือ	-7.77426
โดน	-7.77598
คืน	-7.77936
▁อย่า	-7.77988
สาย	-7.78159
ซ์	-7.78221
ฉันจะ	-7.78398
ติด	-7.7841
เราจะ	-7.78487
เดียว	-7.78609
ละ	-7.7862
ชั้น	-7.79357
ทหาร	-7.79698
เครื่อง	-7.80138
ก็ได้	-7.80145
ขาย	-7.80664
เรียก	-7.80798
เปิด	-7.81019
▁เธตเน	-7.81087
เพื่อน	-7.81698
ผู้หญิง	-7.82016
แบบนี้	-7.82398
มอง	-7.82578
คา	-7.83439
ส่วน	-7.83789
า	-7.83851
รอบ	-7.84302
เม	-7.84355
วันที่	-7.84366
ทุกอย่าง	-7.85078
แรก	-7.85109
ติ	-7.85379
ภาพ	-7.85405
▁ไม่ใช่	-7.85603
ไฟ	-7.86027
▁11	-7.8613
วันนี้	-7.86296
ซา	-7.86604
โร	-7.8683
▁เรื่อง	-7.8759
นอน	-7.87699
▁ฉันจะ	-7.88382
สุด	-7.88391
นั่ง	-7.88791
เบอร์	-7.89097
พวกนั้น	-7.89185
ข้อ	-7.89606
เสียง	-7.8972
อาหาร	-7.89733
อัน	-7.89742
เดิน	-7.89812
▁40	-7.89893
โล	-7.89994
เรียน	-7.90775
ซิ	-7.92136
ได้รับ	-7.92281
▁18	-7.92287
เซ	-7.92559
ทิ้ง	-7.92798
โต	-7.93595
เข้ามา	-7.93613
ต้องการ	-7.93734
ยังไง	-7.93872
พบ	-7.94422
ออกจาก	-7.94447
ทําอะไร	-7.94619
ดา	-7.94953
กลุ่ม	-7.94997
▁100	-7.95119
น้อย	-7.95336
โน	-7.96065
ข่าว	-7.9617
พวกเรา	-7.96195
เปลี่ยน	-7.96834
▁พวกเขา	-7.96968
ค่า	-7.97702
จน	-7.98339
นิ	-7.98395
สาว	-7.98886
เขียน	-7.98953
เข้าไป	-7.98979
อยู่ที่	-7.99058
หมด	-7.99084
จะได้	-7.99288
เลือก	-7.99322
ยิง	-7.99572
ไง	-7.99709
พูดว่า	-7.99973
โก	-8.00111
ตี	-8.00111
โม	-8.00133
อี	-8.00632
6	-8.00794
ไหน	-8.01066
▁ตอน	-8.01092
เคย	-8.01165
▁ที่จะ	-8.01253
สิ่ง	-8.01443
เด	-8.01514
คะ	-8.01693
เรื่องนี้	-8.01726
จัด	-8.01745
ตก	-8.01751
สามารถ	-8.01932
บ้าง	-8.01947
เป็นคน	-8.02049
ผิด	-8.02091
เจ	-8.02389
▁พ่อ	-8.02425
ประมาณ	-8.0249
หลาย	-8.02532
ข้อมูล	-8.0255
ชาว	-8.02733
ไม่เคย	-8.02756
▁เราจะ	-8.02785
เข้าใจ	-8.02989
▁แม่	-8.03015
วี	-8.0309
ซะ	-8.03831
เกี่ยวกับ	-8.03953
ถาม	-8.03963
เก็บ	-8.04483
ะ	-8.04528
คดี	-8.04902
ระหว่าง	-8.05113
ตัน	-8.05115
มาจาก	-8.05338
รู้สึก	-8.05596
บี	-8.05676
ด้าน	-8.05737
สิบ	-8.06064
เล็ก	-8.06653
บา	-8.06679
รู	-8.06821
ระเบิด	-8.06952
เร็ว	-8.06997
บ้า	-8.0721
โค	-8.07435
▁ดอลลาร์	-8.07439
ขึ้นมา	-8.07535
มากกว่า	-8.07607
ปล่อย	-8.07769
ชาย	-8.07838
วง	-8.08206
▁ครั้ง	-8.0822
ตรง	-8.08308
ผู้ชาย	-8.08691
ดิ	-8.08803
ไอ	-8.08823
ล่า	-8.09229
▁สําหรับ	-8.09464
งั้น	-8.09476
พี่	-8.09635
ชา	-8.09787
ห้า	-8.09914
โด	-8.10084
▁โดย	-8.10303
ลอง	-8.10394
สี่	-8.10402
เค	-8.10408
▁เหมือน	-8.10682
▁เธกเน	-8.10878
จบ	-8.10936
เชื่อ	-8.11043
ข	-8.11406
ระดับ	-8.11637
สุดท้าย	-8.11706
จะต้อง	-8.1205
บริษัท	-8.1231
ไปที่	-8.12391
▁ส	-8.12421
ไอ้	-8.13012
อาจจะ	-8.13026
เพิ่ง	-8.13094
คนอื่น	-8.13216
▁25	-8.13329
ปืน	-8.13492
ตัด	-8.1362
3	-8.13642
ิ	-8.13685
เลือด	-8.13746
มีคน	-8.13854
เพลง	-8.13923
จึง	-8.13979
อื่น	-8.14035
ต่อไป	-8.14328
หยุด	-8.14382
2	-8.14446
▁16	-8.14496
พวกคุณ	-8.14576
ร้าน	-8.14587
▁เอ	-8.15308
▁อย่าง	-8.15761
ระบบ	-8.16163
▁24	-8.16412
รู้จัก	-8.16642
เตอร์	-8.16663
▁พวก	-8.17001
ไปแล้ว	-8.17059
ดาว	-8.17105
▁สอง	-8.17136
พร้อม	-8.17286
▁14	-8.17516
วาง	-8.17539
▁ล้าน	-8.17661
ดี้	-8.1793
โซ	-8.18232
ให้คุณ	-8.18493
เล็กๆ	-8.18498
ทา	-8.18724
ชิ	-8.18734
ยาน	-8.18906
แรง	-8.18993
โอ้	-8.19022
ช่วง	-8.19098
ซึ่ง	-8.19799
▁เปอร์เซ็นต์	-8.19907
▁ต้อง	-8.20322
คอ	-8.20642
▁โอเค	-8.20697
▁200	-8.2072
กลายเป็น	-8.20834
ทําไม	-8.20961
นึง	-8.20976
แก่	-8.21083
รี่	-8.21096
ห์	-8.214
ต้น	-8.21411
เพียง	-8.21429
ปิด	-8.21656
กลาง	-8.21685
หมอ	-8.21716
ถ	-8.21873
พวกมัน	-8.22086
เบ	-8.22277
ประเทศ	-8.22815
อยู่กับ	-8.22872
จัดการ	-8.22964
คู่	-8.23036
กลับไป	-8.23365
เท	-8.23807
พระ	-8.2389
ชุด	-8.24024
นี	-8.24209
ที่คุณ	-8.2421
เอาล่ะ	-8.24665
ณ	-8.24748
เลิก	-8.24803
ควร	-8.24827
กระ	-8.24943
ผมจะ	-8.25043
จะเป็น	-8.2519
รักษา	-8.25845
สัตว์	-8.25863
▁13	-8.25897
▁17	-8.26046
รวม	-8.26058
นาง	-8.2611
ได้ยิน	-8.26149
▁500	-8.26378
ย์	-8.26416
มนุษย์	-8.26483
อ่าน	-8.26523
เพิ่ม	-8.26606
เว	-8.26764
พัก	-8.26887
นาน	-8.26949
พิเศษ	-8.27802
รูป	-8.28061
ต่าง	-8.2826
▁ตอนนี้	-8.28361
ดีๆ	-8.28381
ใบ	-8.28418
จุด	-8.28597
จะไม่	-8.28606
ครู	-8.28753
คุณจะ	-8.28775
▁สาม	-8.28855
ซี่	-8.28876
หน่วย	-8.29254
ฮ	-8.29292
บิน	-8.29296
ที่เรา	-8.29328
นอก	-8.29445
ผล	-8.29845
เกิดขึ้น	-8.30006
ก็คือ	-8.30023
▁ข้า	-8.30154
ก็จะ	-8.3027
เซอร์	-8.30335
เวอร์	-8.30335
▁ไม่มี	-8.30549
ดูแล	-8.3057
▁ลูก	-8.30627
วิ่ง	-8.30826
สําคัญ	-8.30851
ลิน	-8.30991
▁เดือน	-8.31035
เห	-8.31042
ทําลาย	-8.31088
เจ้าหน้าที่	-8.31098
เก	-8.31186
โทร	-8.31391
น่าจะ	-8.31458
กิ	-8.31515
ตลอด	-8.31619
▁ด้วย	-8.31943
อย่า	-8.32152
เท่านั้น	-8.3218
เปล่า	-8.3224
ยู	-8.32336
▁ทั้ง	-8.32632
สี	-8.32866
ที่มี	-8.33235
เถอะ	-8.33303
ราคา	-8.3334
จี	-8.33374
ไม่รู้	-8.33473
ในปี	-8.33696
ฉ	-8.33869
▁ผมจะ	-8.33928
จิ	-8.33973
ศพ	-8.34054
ทําได้	-8.34088
▁แค่	-8.34428
ลู	-8.34587
รู้ไหม	-8.34603
ครึ่ง	-8.34615
น์	-8.34628
อีกครั้ง	-8.34895
เด็กๆ	-8.34913
ดีกว่า	-8.34933
▁ไมล์	-8.35087
ตั้งแต่	-8.35151
ใช้เวลา	-8.35494
โรงเรียน	-8.35674
จํา	-8.35742
▁เอ่อ	-8.35896
เหมือนกัน	-8.35973
โบ	-8.36353
ปัญหา	-8.36641
จ่าย	-8.3665
4	-8.36749
คุยกับ	-8.36883
นับ	-8.36994
ในการ	-8.37197
สงคราม	-8.37207
ดื่ม	-8.37242
▁แต่ฉัน	-8.37352
เป	-8.37399
้น	-8.37563
▁เดี๋ยว	-8.37934
ตําแหน่ง	-8.37976
▁นั่น	-8.37997
▁ถูก	-8.38112
พิ	-8.38159
▁ขอ	-8.3847
พวกนี้	-8.38489
รายงาน	-8.38582
ภายใน	-8.38685
ใต้	-8.38797
แบบนั้น	-8.39353
อะ	-8.39422
เหนือ	-8.39814
หนัก	-8.40248
หมายถึง	-8.40299
วิน	-8.40319
่ง	-8.40823
ขา	-8.40946
ยก	-8.41041
▁เอา	-8.41081
ชนะ	-8.41307
ประ	-8.4143
แทน	-8.41646
ปกติ	-8.41683
เดอร์	-8.42047
ให้ฉัน	-8.42384
เดือน	-8.42387
ปา	-8.42595
▁เธธเธ	-8.42632
เกือบ	-8.42767
ความจริง	-8.42798
ครั้ง	-8.42834
เนี่ย	-8.42924
แสดง	-8.43006
หญิง	-8.43065
โจ	-8.43263
เต็ม	-8.43465
กลัว	-8.43733
ื	-8.43748
▁ปีก่อน	-8.43821
ตกลง	-8.4383
หลังจาก	-8.43875
ฝ่าย	-8.44254
มันเป็น	-8.44418
▁ผู้	-8.44444
แฟน	-8.44571
เฮ้	-8.44622
ด์	-8.44725
▁โอ	-8.45195
พระเจ้า	-8.45245
สมัย	-8.45342
▁ในการ	-8.45342
สู่	-8.45359
ไกล	-8.45368
คนเดียว	-8.45436
ไร้	-8.45557
▁วินาที	-8.45978
สมอง	-8.46023
ลูกชาย	-8.46577
ประตู	-8.46738
มีการ	-8.46806
▁พอ	-8.46822
สนุก	-8.46951
▁กําลัง	-8.46957
ใด	-8.47151
ฟา	-8.47393
ข้าม	-8.47496
หนี	-8.47527
เหลือ	-8.47587
ลด	-8.47732
▁ทุกคน	-8.47768
ถ้าคุณ	-8.47933
ขโมย	-8.4809
สั่ง	-8.48184
พี	-8.48261
1	-8.48398
หายไป	-8.48594
▁60	-8.48883
เฟ	-8.48975
คอย	-8.49086
ไซ	-8.49098
หนังสือ	-8.49128
บาร์	-8.49242
เสียชีวิต	-8.49306
ร่วม	-8.49421
อาวุธ	-8.495
คืนนี้	-8.49564
สามี	-8.49678
ยังไม่	-8.49707
แย่	-8.49864
ของนาย	-8.49965
▁ท่าน	-8.50196
จู	-8.50214
อยู่ที่นี่	-8.50445
เลยนะ	-8.50487
▁ไอ้	-8.50635
แน่นอน	-8.50688
ปาก	-8.50786
ไร	-8.51375
ที่ฉัน	-8.51446
เหยื่อ	-8.51673
▁เ	-8.51793
5	-8.51798
ถนน	-8.51902
นี่คือ	-8.51958
▁เพื่อน	-8.5229
อยากให้	-8.52415
เยี่ยม	-8.52683
▁จน	-8.52938
ดร	-8.52976
ต้า	-8.53642
เกอร์	-8.53761
▁ความ	-8.54113
▁0	-8.54157
กี้	-8.54452
▁เจ้า	-8.54515
หก	-8.54755
สัญญา	-8.54775
หัวใจ	-8.54797
อาร์	-8.54879
รอย	-8.54908
็ก	-8.5504
ใช่ไหม	-8.55064
กับฉัน	-8.55373
ศาล	-8.55497
วัย	-8.55581
ไม่สามารถ	-8.55682
▁ทําไม	-8.55863
โท	-8.55926
รัฐ	-8.56018
บันทึก	-8.5604
สอน	-8.56164
สองคน	-8.56169
▁เดอะ	-8.56285
จะมี	-8.5631
เกิน	-8.56475
กลับบ้าน	-8.56726
เดินทาง	-8.56832
▁ขอบคุณ	-8.56916
ซู	-8.56938
ดูเหมือน	-8.57014
ใกล้	-8.571
ยาว	-8.57175
หนัง	-8.57457
ภรรยา	-8.57563
ไว	-8.57602
ตรวจ	-8.57627
พูดถึง	-8.57822
กะ	-8.57854
ลงไป	-8.58243
▁คนที่	-8.58292
ลีย์	-8.58482
ล์	-8.58508
เดียวกัน	-8.5869
บท	-8.58711
ลืม	-8.58932
ทุกๆ	-8.5906
ตอนที่	-8.59094
▁ฉันก็	-8.59237
หนุ่ม	-8.59328
หลัก	-8.59335
ยาก	-8.59386
▁ตั้งแต่	-8.59458
ควบคุม	-8.59528
ของพวกเขา	-8.59718
วิธี	-8.59741
เครื่องบิน	-8.59886
ุ	-8.59924
ร้าย	-8.59931
▁คุณจะ	-8.59944
ยิ่ง	-8.60021
รายการ	-8.60051
ทิ	-8.60058
ตอนนั้น	-8.60122
กําลังจะ	-8.60308
ไม่ต้อง	-8.60489
พวกเธอ	-8.60562
▁ส่วน	-8.6071
▁ทําให้	-8.6086
กฎหมาย	-8.61042
ชิ้น	-8.61117
เมีย	-8.61142
เอ็ม	-8.61267
▁เวลา	-8.61331
สวย	-8.61343
เยอะ	-8.61352
ไม่มีใคร	-8.61426
ผู้คน	-8.61454
พลัง	-8.6149
เนอร์	-8.61611
เลี้ยง	-8.61624
นะคะ	-8.61821
แจ้ง	-8.61839
ยุค	-8.61864
ล้าน	-8.61981
▁ถ้าคุณ	-8.62014
เต	-8.62038
ไปหา	-8.62059
ไม้	-8.62191
ภ	-8.62283
เรามี	-8.62286
มีอะไร	-8.62376
วิ	-8.62439
▁งั้น	-8.6247
ง่าย	-8.62503
หรือไม่	-8.62532
ลูกสาว	-8.62728
ดังนั้น	-8.62757
เสมอ	-8.62758
แม	-8.6291
เส้น	-8.62931
มากมาย	-8.63052
ึ	-8.63209
ฉันก็	-8.63416
ชน	-8.63655
ร่า	-8.63784
เหตุ	-8.63826
นะครับ	-8.63925
พ่อแม่	-8.6396
เท่า	-8.63996
▁ฟุต	-8.64115
มาที่นี่	-8.64152
ตี้	-8.64154
เนื้อ	-8.64177
ข้าง	-8.64371
โทรศัพท์	-8.64375
▁อายุ	-8.64399
ปกป้อง	-8.64479
โอกาส	-8.64719
ศูนย์	-8.6484
เอาละ	-8.64854
ี	-8.64899
แต่งงาน	-8.649
▁ตอนที่	-8.65006
ขนาด	-8.65081
ไม่มีอะไร	-8.65094
ยืน	-8.65112
เก่า	-8.6519
ยอมรับ	-8.65454
แหละ	-8.65616
ร่าง	-8.6578
▁ดังนั้น	-8.65836
▁ดร	-8.65878
ท้อง	-8.66124
พัน	-8.66288
▁ระหว่าง	-8.66318
ตรงนี้	-8.6666
เมอร์	-8.66674
▁สี่	-8.66727
ขาด	-8.66739
บิ	-8.66882
มาถึง	-8.66938
เราต้อง	-8.67146
สาร	-8.67164
ฯ	-8.67169
้า	-8.67177
▁อ	-8.6722
อย่างนั้น	-8.67233
เช	-8.67236
กู	-8.67309
ระ	-8.67317
อิ	-8.67337
รึเปล่า	-8.67345
▁ดู	-8.67508
เกม	-8.67591
ได้ว่า	-8.67639
วน	-8.67745
แค	-8.67879
โฮ	-8.67884
เย็น	-8.67893
กองทัพ	-8.67973
ขับ	-8.6859
เหตุการณ์	-8.68809
เธฅเน	-8.68844
มาแล้ว	-8.68858
บู	-8.68895
หรือเปล่า	-8.68959
คนหนึ่ง	-8.68988
ให้เขา	-8.69011
ความคิด	-8.69077
ที่ผม	-8.69152
ขอโทษ	-8.69159
ราย	-8.69282
คอน	-8.69383
ได้แล้ว	-8.69476
จะไป	-8.69498
เป็นการ	-8.69517
ศ	-8.6954
่า	-8.69572
บางอย่าง	-8.6966
▁21	-8.69768
ลี่	-8.69866
ผ	-8.6988
แค่ไหน	-8.69998
พรุ่งนี้	-8.70072
ทรง	-8.70073
ประจํา	-8.70111
ปลา	-8.70113
▁80	-8.70253
เชิญ	-8.70255
มาร์	-8.70306
ร้อน	-8.70326
รุ่น	-8.70371
จํานวน	-8.70713
โทรหา	-8.70808
▁เธดเธ	-8.70862
อากาศ	-8.70865
ยอม	-8.70881
ได้ไหม	-8.70893
ส่วนตัว	-8.71071
ไม่อยาก	-8.71328
แล้วก็	-8.71642
▁300	-8.71827
ม้า	-8.71934
แปลก	-8.71956
เพ	-8.721
แอ	-8.72188
ด้วยกัน	-8.72264
▁ฟังนะ	-8.72578
โรค	-8.72713
ร้อย	-8.72731
คําว่า	-8.72802
๋	-8.72831
อังกฤษ	-8.72841
กัปตัน	-8.73167
ตัดสินใจ	-8.73254
▁เธงเธ	-8.73292
ผมก็	-8.73523
ได้รับการ	-8.73569
ไล	-8.73624
แอน	-8.73689
ต่างๆ	-8.73689
้ง	-8.7372
ชาติ	-8.73991
ขอบคุณ	-8.74045
ก้า	-8.74059
▁เราต้อง	-8.74059
ขอให้	-8.74136
เอ่อ	-8.74289
หมายเลข	-8.74299
ให้ผม	-8.74386
เรน	-8.74446
ไปถึง	-8.74656
▁เธฃเธ	-8.74844
ฮา	-8.74872
แยก	-8.74957
เขต	-8.74997
ขน	-8.75019
เดิม	-8.75117
อันตราย	-8.753
ไฮ	-8.75312
ถ่าย	-8.75382
เย	-8.75419
▁22	-8.75612
ที่เขา	-8.75616
แสน	-8.7566
๊	-8.75821
้อ	-8.75837
เฮ	-8.75935
เล่า	-8.76076
▁หนึ่ง	-8.76109
▁ต่อ	-8.76133
์	-8.76202
▁แก	-8.76365
ยังมี	-8.76387
▁เธงเน	-8.76424
ทะเล	-8.76468
แฮ	-8.7656
อธิบาย	-8.76603
นัด	-8.76632
เสนอ	-8.7669
อยากจะ	-8.76849
ชั่วโมง	-8.76889
▁23	-8.7706
ํา	-8.7709
เสร็จ	-8.77175
รู้มั้ย	-8.77178
ตึก	-8.77183
▁45	-8.77273
ถือ	-8.77274
▁เพื่อให้	-8.77342
อู	-8.77407
▁องศา	-8.77547
เป็นเรื่อง	-8.77804
ก้าว	-8.77819
แลนด์	-8.77822
▁หลังจาก	-8.78047
▁พร้อม	-8.78261
▁แต่ผม	-8.78286
จอห์น	-8.78436
มอน	-8.78467
คิดถึง	-8.78743
▁เธฒ	-8.7885
แผน	-8.78865
ที่นั่น	-8.78871
เดี๋ยว	-8.78959
ถูกต้อง	-8.79039
รัฐบาล	-8.79138
▁ซี	-8.79167
ยอด	-8.79211
โว	-8.7929
ยังคง	-8.79423
ซัก	-8.79475
อื่นๆ	-8.79574
เรื่องที่	-8.79586
▁ค	-8.79587
ลํา	-8.7964
ให้เรา	-8.7966
คู	-8.79664
▁เกี่ยวกับ	-8.79672
มู	-8.79764
รอง	-8.79879
มันจะ	-8.79914
อาการ	-8.80023
พื้นที่	-8.80078
จะทําให้	-8.80263
ควรจะ	-8.80312
ไปเลย	-8.80401
ที่รัก	-8.80433
รอน	-8.80482
คนนี้	-8.80492
▁00	-8.80573
ไปยัง	-8.80629
โกหก	-8.80659
สู้	-8.81014
ช่อง	-8.81025
หาย	-8.81061
รางวัล	-8.81185
เอาไว้	-8.81351
รีบ	-8.81353
สนใจ	-8.81401
เตรียม	-8.81464
เคน	-8.81473
▁ณ	-8.81507
เชื่อว่า	-8.81508
▁อี	-8.81531
เบล	-8.81639
ดัน	-8.81671
หมา	-8.81675
ติดต่อ	-8.8191
ท่า	-8.8212
ยึด	-8.82215
ได้เลย	-8.82215
ฉลาด	-8.82219
พวกนาย	-8.82236
โปรด	-8.82249
โทษ	-8.82275
ไม	-8.82323
อาทิตย์	-8.82372
เหล่านี้	-8.82404
จา	-8.82474
อเมริกา	-8.82474
กล้า	-8.82565
อํานาจ	-8.82614
▁เฮ้	-8.82626
มีความสุข	-8.82671
▁90	-8.82673
สถานที่	-8.82676
แนว	-8.82757
ย้าย	-8.82919
คะแนน	-8.83
อ๋อ	-8.83115
รอด	-8.83222
นิวยอร์ก	-8.83264
บี้	-8.83294
สัปดาห์	-8.83357
▁ตาม	-8.8345
ปลอดภัย	-8.83545
▁เธกเธ	-8.8379
นก	-8.83796
▁ผมก็	-8.83964
เลน	-8.83983
ยินดี	-8.84429
ทู	-8.84467
▁ขวบ	-8.84474
คี	-8.84865
เอส	-8.84874
ต้องทํา	-8.84898
ลม	-8.84944
▁พ	-8.84983
อารมณ์	-8.85031
คุยกัน	-8.85072
คนนั้น	-8.85116
ความรู้สึก	-8.85148
▁หนู	-8.85305
็	-8.85308
เดอะ	-8.85337
ผ้า	-8.85479
ช้า	-8.85494
ก็ยัง	-8.85545
หลักฐาน	-8.8563
▁อา	-8.85652
อย	-8.85752
ของตัวเอง	-8.85787
ออ	-8.85802
เต้น	-8.85877
เกร	-8.85899
ใช่มั้ย	-8.85923
อดีต	-8.85989
ดัง	-8.86148
ให้เธอ	-8.86188
เรียกว่า	-8.86278
▁โอ้	-8.86342
ลึก	-8.86532
▁ที่มี	-8.86599
อัล	-8.86602
▁เมตร	-8.86766
จ้าง	-8.86773
มีความ	-8.86793
สนาม	-8.86799
เก่ง	-8.86824
เอล	-8.86848
ได	-8.8698
ร้อง	-8.86984
▁ที่รัก	-8.87234
คอร์	-8.8725
ตลก	-8.87325
บางที	-8.8737
หาก	-8.87457
เค้า	-8.8762
ฐาน	-8.87662
ญ	-8.87786
กี	-8.87921
▁แบบ	-8.8815
ร่างกาย	-8.88167
แดน	-8.88206
ปิ	-8.88327
สัญญาณ	-8.88329
กอง	-8.88471
กับคุณ	-8.88475
รึ	-8.88479
เขาจะ	-8.88492
ขี้	-8.88514
ซ่า	-8.88775
ฉันคิดว่า	-8.88931
▁ปอนด์	-8.88988
ขวา	-8.89133
เมา	-8.89175
ในชีวิต	-8.89187
ประกาศ	-8.8926
อย่างที่	-8.89275
ความรัก	-8.89418
สถานี	-8.89419
เตือน	-8.89522
โรงพยาบาล	-8.89544
ครั้งแรก	-8.89547
ตรวจสอบ	-8.89667
เจอร์	-8.89669
▁มันเป็น	-8.89751
ยอง	-8.89811
เอ็น	-8.89883
คําสั่ง	-8.89926
สเต	-8.89959
ตื่น	-8.8998
ไม่มีทาง	-8.90085
คงไม่	-8.90111
กฎ	-8.90158
โรง	-8.90173
วิล	-8.90469
โก้	-8.90568
สนับสนุน	-8.90652
ข้อหา	-8.9066
แอบ	-8.90684
โย	-8.90814
มอบ	-8.9092
อุ	-8.90959
แตก	-8.90985
มีโอกาส	-8.91255
โง่	-8.91258
ที่ดี	-8.91261
เดน	-8.91328
ดึง	-8.91531
ส่วนใหญ่	-8.91829
ซาน	-8.9183
บางคน	-8.91845
▁มันจะ	-8.92005
▁โมง	-8.92009
อ้อ	-8.92016
▁เธฒเน	-8.9205
อิน	-8.92079
คนไข้	-8.92089
เสียใจ	-8.92154
ช่าง	-8.92327
โพ	-8.92394
เจอกัน	-8.92648
อยู่แล้ว	-8.92708
ขับรถ	-8.92813
▁เด	-8.9325
แสง	-8.93428
แล	-8.9345
เกินไป	-8.93604
ลูกๆ	-8.9362
ชี	-8.93684
เจน	-8.93885
▁เธซเธ	-8.93899
จะทํา	-8.93903
▁เธฐเธ	-8.94067
ว่าจะ	-8.94101
ก็ต้อง	-8.94174
▁พระเจ้า	-8.94209
หนึ่งใน	-8.94257
ทนาย	-8.94273
ทําร้าย	-8.9432
น่ารัก	-8.94333
▁บี	-8.94444
00	-8.94655
ได้ยังไง	-8.94671
ก็แค่	-8.94804
เช้า	-8.94808
แข่ง	-8.94811
ห้าม	-8.94841
ไท	-8.94861
ฟิ	-8.95032
ว์	-8.95103
ป่า	-8.95233
ที่อยู่	-8.95303
มาก่อน	-8.95365
ตามหา	-8.95498
แปลว่า	-8.95538
หัวหน้า	-8.9571
เธอจะ	-8.95797
พลังงาน	-8.95811
สเตอร์	-8.9583
กุ	-8.95869
อยู่บน	-8.95939
ที่ไหน	-8.96081
▁70	-8.96118
หวังว่า	-8.96283
จะถูก	-8.96393
▁ก่อน	-8.96448
สถานการณ์	-8.96611
ทีนี้	-8.96677
นาที	-8.96793
เซน	-8.9681
เท้า	-8.97115
▁เธฑเน	-8.97145
อ่อน	-8.97174
หมายความว่า	-8.97245
เยอรมัน	-8.97278
▁ใคร	-8.97306
ฝัน	-8.97569
แต่ง	-8.97822
ฑ	-8.97878
ดีมาก	-8.97926
ธุรกิจ	-8.98061
เจ็ด	-8.98101
ก็มี	-8.98185
รบ	-8.98188
มากๆ	-8.98312
ป้องกัน	-8.98359
เลีย	-8.98372
จะให้	-8.98374
กล้อง	-8.98499
ความสัมพันธ์	-8.98618
ทําตัว	-8.98634
ดูสิ	-8.98839
ปล่อยให้	-8.9885
ในห้อง	-8.9896
จัง	-8.99036
ยาม	-8.99101
วอ	-8.99215
แพ	-8.99313
รหัส	-8.99314
สังคม	-8.99315
▁และฉัน	-8.9936
เหมือนกับ	-8.99475
เนีย	-8.99507
ใช้ชีวิต	-8.99512
มากขึ้น	-8.99583
สงสัย	-8.99604
▁นี่คือ	-8.99611
ลบ	-8.99629
จีน	-8.99693
คุย	-8.99792
▁ชม	-8.99931
แปด	-8.99976
น้อง	-9.00003
เหตุผล	-9.00007
ที่เธอ	-9.00072
ซ่อน	-9.00084
▁ปีแล้ว	-9.00086
เรากําลัง	-9.00214
ลับ	-9.00281
จอง	-9.00496
พล	-9.00537
สุดๆ	-9.00563
เลอร์	-9.00576
เป้าหมาย	-9.00577
▁ไอ	-9.0058
ที่บ้าน	-9.00715
ชิง	-9.00899
มีเวลา	-9.0099
บางครั้ง	-9.01141
กําหนด	-9.01251
เท่าไหร่	-9.01251
ขั้น	-9.0139
กับผม	-9.01452
ธนาคาร	-9.01522
ฝึก	-9.01525
▁หยุด	-9.01546
แถว	-9.01566
้ม	-9.0189
เออ	-9.019
เอฟ	-9.02027
▁ใช่ไหม	-9.02028
เข้าไปใน	-9.02055
ม่า	-9.02062
ทอง	-9.02478
ฮัน	-9.02631
กระเป๋า	-9.02659
ชม	-9.02675
เดล	-9.02731
ระยะ	-9.02933
▁เม	-9.03044
บาง	-9.03047
ในฐานะ	-9.03239
▁ยัง	-9.0324
ตะ	-9.03381
ไล่	-9.03527
เดี๋ยวนี้	-9.03646
▁วอน	-9.03762
▁บน	-9.03783
หล่อน	-9.03926
คงจะ	-9.03939
แดง	-9.04033
ทน	-9.0421
จะมา	-9.04493
▁ห้า	-9.04506
ริค	-9.0453
ที่เหลือ	-9.04559
เห็นว่า	-9.04577
ไม่ยอม	-9.04673
ล้าง	-9.04674
คิ	-9.04707
ต่ํา	-9.04781
เทร	-9.04809
ทันที	-9.04854
▁มันก็	-9.04867
จากนั้น	-9.05011
ลุง	-9.05021
แด	-9.05036
ไม่ถึง	-9.05051
เส้นทาง	-9.05093
สาวๆ	-9.05096
คําถาม	-9.05217
ฉันต้อง	-9.05282
▁35	-9.05419
อง	-9.05561
ฝั่ง	-9.05769
เกาะ	-9.05816
บัญชี	-9.05827
ปฏิเสธ	-9.05973
ในช่วง	-9.06069
คริส	-9.06128
โรงแรม	-9.0622
เริ่มต้น	-9.06287
ไม่เป็นไร	-9.06341
▁คา	-9.06419
แบ	-9.06477
หวัง	-9.0657
▁เค	-9.06575
ภารกิจ	-9.06709
แซม	-9.06715
ได้มั้ย	-9.06746
ดิน	-9.06747
▁เธซเน	-9.06859
เราก็	-9.06929
มีปัญหา	-9.0704
ที่ผ่านมา	-9.07041
สติ	-9.07089
ซ้าย	-9.07116
เสี่ยง	-9.07161
จากการ	-9.07334
วะ	-9.07384
▁หก	-9.07599
▁เขาจะ	-9.076
ฟัน	-9.07645
แท	-9.07787
ภาค	-9.07868
ความเร็ว	-9.08025
เหล่า	-9.08055
วางแผน	-9.08065
เอก	-9.08095
อก	-9.08197
▁สิ่งที่	-9.08211
โจมตี	-9.08372
สวน	-9.08377
หน้าที่	-9.0854
เกลียด	-9.08632
จง	-9.08699
สตาร์	-9.08756
ประธานาธิบดี	-9.08789
ราว	-9.08804
▁แต่ว่า	-9.08929
อย่างน้อย	-9.08975
บุก	-9.0909
ครั้งนี้	-9.09106
ด้วยซ้ํา	-9.09136
คาร์	-9.09139
นักเรียน	-9.09164
ประชาชน	-9.0925
ริก	-9.0926
การ์	-9.09343
บอล	-9.09397
หน	-9.09426
เทอร์	-9.0944
อด	-9.0945
ดวง	-9.0953
หัก	-9.09652
แอล	-9.09671
โชคดี	-9.09797
ฐ	-9.09952
จอร์จ	-9.10005
เอกสาร	-9.1018
พี่ชาย	-9.10246
ค์	-9.10257
เชอร์	-9.10349
ไม่ให้	-9.1036
บอ	-9.10428
โกรธ	-9.10544
่อ	-9.10569
ของมัน	-9.10641
โป	-9.10672
ลิส	-9.10727
▁มากกว่า	-9.10739
รู้สึกว่า	-9.10785
็ค	-9.10792
อาจเป็น	-9.10805
โต๊ะ	-9.10808
อยากได้	-9.10943
โต้	-9.11082
พนักงาน	-9.11084
งั้นเหรอ	-9.11137
คนอื่นๆ	-9.11143
หายใจ	-9.1117
ตั้งใจ	-9.11182
ไปด้วย	-9.11347
ฮิ	-9.1138
ือ	-9.11448
เราได้	-9.11457
ตัดสิน	-9.11467
ชั่ว	-9.11526
พัง	-9.11532
เซีย	-9.1158
อเมริกัน	-9.11695
ผ่านไป	-9.11768
ตู้	-9.11781
คนนึง	-9.11809
คัน	-9.11892
ทัน	-9.11946
ตอบ	-9.11989
อร์	-9.12075
อนาคต	-9.12088
เป็นผู้	-9.12143
สาบาน	-9.12172
รัสเซีย	-9.12182
กังวล	-9.12327
เวน	-9.12361
มุม	-9.12374
▁มิ	-9.12463
หิน	-9.1249
ระวัง	-9.12491
แลน	-9.12518
ด้า	-9.12574
เมน	-9.12596
ต้องใช้	-9.12603
ตร	-9.1262
มันก็	-9.12732
ถูกจับ	-9.12739
ค่อย	-9.12743
▁เราก็	-9.12761
ข้อความ	-9.12829
๊ก	-9.12846
นิว	-9.12908
จิต	-9.13089
ถ้าเรา	-9.1312
▁ช่วย	-9.13149
เปอร์	-9.13239
เพื่อนๆ	-9.13383
▁เบ	-9.13442
รุนแรง	-9.13471
เข	-9.13534
▁เขาก็	-9.13567
ไม่ค่อย	-9.136
เท่ากับ	-9.13601
ฟรี	-9.13613
มาตลอด	-9.13634
ทุกวัน	-9.1373
พยาน	-9.13779
สต์	-9.13779
เป็นไปได้	-9.1379
ชัดเจน	-9.13811
▁วันที่	-9.1391
▁จากนั้น	-9.13997
เจ็บ	-9.1408
ในอีก	-9.14158
ฟ้า	-9.14331
ดํา	-9.14336
อั	-9.14401
ดอน	-9.14428
ต่อมา	-9.14451
ไม่ชอบ	-9.14489
ไม่รู้ว่า	-9.14641
สําเร็จ	-9.14683
มิน	-9.14707
ธรรมดา	-9.14719
▁เช่น	-9.14783
เลว	-9.14792
พื้น	-9.14864
็ท	-9.1488
ทอม	-9.14888
สอบ	-9.14913
เมื่อไหร่	-9.15015
▁ได้โปรด	-9.15057
นี่เป็น	-9.15126
หู	-9.15207
ทราบ	-9.15275
ไฟฟ้า	-9.1538
รุ	-9.15402
น้ํามัน	-9.15432
กระสุน	-9.15498
แช	-9.1554
ผมรู้	-9.15593
นิดหน่อย	-9.157
เส	-9.15704
ปรับ	-9.1579
ขอร้อง	-9.15806
ปลอม	-9.15979
กล	-9.16026
รถไฟ	-9.16044
▁แต่ก็	-9.16198
เป็นแค่	-9.16201
กล่อง	-9.16288
▁เจ	-9.16288
▁เหรอ	-9.16611
แล้วนะ	-9.16744
พระองค์	-9.16811
คลื่น	-9.1682
ยืนยัน	-9.16907
ว่าคุณ	-9.17326
ลลี่	-9.17452
แก้ว	-9.17519
เร็วๆ	-9.17614
เหล้า	-9.17615
เสื้อผ้า	-9.17677
ผมรู้ว่า	-9.17751
คุณต้อง	-9.17753
แท้	-9.17854
ประธาน	-9.17872
ลด์	-9.17877
กว้าง	-9.18275
เอาไป	-9.18282
▁นัก	-9.18299
▁แต่ถ้า	-9.18359
ก็ไม่	-9.18431
ทาน	-9.18509
ไม่ควร	-9.18648
สุดยอด	-9.18685
▁400	-9.18712
อันดับ	-9.18723
▁เร็วเข้า	-9.18733
ย่า	-9.18735
วอน	-9.18795
ว่ามัน	-9.18816
ปาร์ตี้	-9.1888
▁เธญเน	-9.18914
มอร์	-9.18927
ฉันรู้	-9.18942
เจ๋ง	-9.18987
ให้ได้	-9.19162
ชู	-9.19441
▁หาก	-9.19463
เรีย	-9.19467
เช่น	-9.19503
ฉันรู้ว่า	-9.19585
ของการ	-9.19613
พิธี	-9.19666
ให้กับ	-9.19686
▁ไม่ว่า	-9.19772
ัต	-9.19801
ฮาร์	-9.1989
พัฒนา	-9.19946
วันเกิด	-9.20031
เป็นเวลา	-9.201
หอ	-9.20118
เท่าที่	-9.20176
็อก	-9.2018
มีใคร	-9.202
เรื่องนั้น	-9.20318
ทําตาม	-9.20352
▁หลัง	-9.20367
สูงสุด	-9.20386
สภาพ	-9.20457
7	-9.20581
แจ็ค	-9.2059
ภาษา	-9.20606
▁27	-9.20637
คอมพิวเตอร์	-9.20792
บิล	-9.20812
ไ	-9.20851
ต้องมี	-9.20897
้ว	-9.2105
ีย	-9.21092
แน่ๆ	-9.21098
ขึ้นไป	-9.21336
ฟอร์ด	-9.21373
ไม่ดี	-9.21394
บัตร	-9.21474
โทรมา	-9.21572
สมาชิก	-9.21637
เซ็น	-9.2165
คิม	-9.21689
มหาวิทยาลัย	-9.21819
ง่ายๆ	-9.21819
โชว์	-9.21827
ถ้าฉัน	-9.21918
แก้	-9.21939
ผู้นํา	-9.21976
ที่ดีที่สุด	-9.22083
โยน	-9.22103
ไม่กี่	-9.22165
ฟอร์	-9.22177
ผมมี	-9.22178
ของข้า	-9.2219
ไข่	-9.22215
เงียบ	-9.22219
▁บางที	-9.22343
อม	-9.22479
ฝรั่งเศส	-9.22506
เลยว่า	-9.22559
อาชญากรรม	-9.22672
เหรียญ	-9.22677
หลอก	-9.22711
ปู	-9.22802
แกน	-9.22927
ไม่เห็น	-9.23025
สังหาร	-9.23031
ลิง	-9.23171
หายตัวไป	-9.23212
▁คุณต้อง	-9.23241
แพ้	-9.23253
แ	-9.23273
▁28	-9.23278
เก้า	-9.23321
เรย์	-9.23322
จดหมาย	-9.23482
เดวิด	-9.23567
นม	-9.2358
มีแต่	-9.23676
ลล์	-9.23683
กรรม	-9.23717
สหรัฐฯ	-9.23733
ผอ	-9.23815
อีกอย่าง	-9.23826
ฉันต้องการ	-9.23912
▁พา	-9.24002
หลง	-9.24016
สน	-9.24082
แจ	-9.24163
อะไรนะ	-9.24244
กล่าว	-9.24413
วอล	-9.24447
▁แห่ง	-9.24452
แพทย์	-9.24545
▁พวกเรา	-9.24569
รองเท้า	-9.24622
▁ภายใน	-9.24624
สา	-9.24632
อวกาศ	-9.24668
สุ	-9.24681
ก่อ	-9.24694
▁เพราะว่า	-9.24749
สวม	-9.24788
เศร้า	-9.24826
ฉันเคย	-9.24846
▁นอกจาก	-9.24995
ฟี	-9.25033
มีเรื่อง	-9.25123
ซอ	-9.25253
พบว่า	-9.25268
ฉบับ	-9.25313
▁เพราะงั้น	-9.2535
ประวัติ	-9.25367
เขาก็	-9.25414
ว่าไง	-9.25501
ในเมือง	-9.25543
หลับ	-9.25587
จักรวาล	-9.25667
ธรรมชาติ	-9.25679
สํานักงาน	-9.25765
หมาย	-9.25805
คุม	-9.25994
พิสูจน์	-9.26221
วอร์	-9.26328
แบ่ง	-9.26513
▁ทุก	-9.26563
▁เธฐ	-9.26635
วิญญาณ	-9.26643
▁อาทิตย์	-9.26685
ฉลอง	-9.2682
พอล	-9.26886
ศัตรู	-9.26923
บอกให้	-9.26936
ทัพ	-9.27006
▁แต่เรา	-9.2715
อย่างนี้	-9.27158
ลอ	-9.27162
▁26	-9.27318
ประสาท	-9.27649
หลังจากนั้น	-9.27667
ในโลก	-9.27702
ช่วงเวลา	-9.27733
ทําการ	-9.27741
ก้น	-9.2775
▁ฉันต้อง	-9.27759
กลิ่น	-9.27835
ชั่น	-9.27837
มอ	-9.2785
แว	-9.27996
คุณกําลัง	-9.28129
ประกัน	-9.28145
เอฟบีไอ	-9.28196
ในเวลา	-9.28207
แขน	-9.28214
เผา	-9.28231
มืด	-9.2827
คิว	-9.28337
ฉันได้	-9.28338
ไปได้	-9.28368
▁แต่มัน	-9.28385
ประชุม	-9.28396
▁แต่คุณ	-9.28528
ฆาตกร	-9.28554
ว่าเธอ	-9.28577
หลายปี	-9.28728
ป่วย	-9.28761
เป็นใคร	-9.28852
สะ	-9.28895
▁ในฐานะ	-9.28916
นักสืบ	-9.29054
กํา	-9.29088
ไหล	-9.29163
ที่จริง	-9.29241
▁ก่อนที่	-9.29244
เทพ	-9.29297
ฝัง	-9.293
ตลาด	-9.29303
▁48	-9.29369
เคร	-9.29605
พนัน	-9.29697
▁จริงๆ	-9.2971
อย่างไร	-9.29735
นั่นแหละ	-9.29749
ทั่ว	-9.29808
มีลูก	-9.29937
แต่ละ	-9.30011
ผมคิดว่า	-9.30092
ไก่	-9.30092
ป้า	-9.30159
▁อาจ	-9.30171
▁เท่า	-9.30224
ถุง	-9.30404
▁เดอ	-9.30406
ชาร์ลี	-9.30413
ของท่าน	-9.30542
เมื่อคืน	-9.30561
50	-9.30595
ญี่ปุ่น	-9.30604
▁32	-9.3065
ลูกค้า	-9.30682
สม	-9.30693
▁ขณะที่	-9.30702
▁ที่คุณ	-9.30704
▁อัล	-9.3077
ได้เห็น	-9.30909
▁จอห์น	-9.30976
็น	-9.30982
ต่างหาก	-9.31034
หลายคน	-9.31173
จิน	-9.3121
เบน	-9.31268
ไบ	-9.31278
▁ไม่งั้น	-9.31311
ทําให้ฉัน	-9.31392
บาดเจ็บ	-9.31472
ซ้ํา	-9.31498
กระดูก	-9.31546
นิ้ว	-9.31747
▁เจ็ด	-9.31757
ฉันกําลัง	-9.31768
นิค	-9.3177
พี่น้อง	-9.31825
โ	-9.31839
▁ซึ่งเป็น	-9.31881
▁แถม	-9.31904
ต่อต้าน	-9.31966
▁จะได้	-9.31992
มาให้	-9.3217
จะช่วย	-9.32202
ก้อน	-9.32301
อุบัติเหตุ	-9.32305
นส์	-9.32314
เสื้อ	-9.32418
อุปกรณ์	-9.32496
กร	-9.32505
ปีเตอร์	-9.32515
ครบ	-9.32537
มาร์ค	-9.3254
ทั้งหลาย	-9.32559
ผู้ต้องสงสัย	-9.32691
ถอย	-9.32731
ที่ไม่	-9.32781
กซ์	-9.32822
ดนตรี	-9.32879
ซิล	-9.32891
คําพูด	-9.32988
ค้นหา	-9.3301
ลอย	-9.33052
ในที่สุด	-9.33081
แฮม	-9.33147
อีกแล้ว	-9.33214
ปล้น	-9.33251
เช็ค	-9.33284
แผล	-9.33292
ทีวี	-9.33299
สิ้น	-9.33587
ฝูง	-9.33649
ยุ่ง	-9.33728
เดร	-9.33804
ช่วยเหลือ	-9.33884
▁อาจจะ	-9.33936
เวลาที่	-9.3405
วิส	-9.34052
ลาก	-9.34058
หนา	-9.34081
ไน	-9.34097
หุ้น	-9.34142
ต่อหน้า	-9.34158
เฝ้า	-9.34249
ู	-9.34275
▁ใช่มั้ย	-9.34287
เจ้าของ	-9.3432
ต้องไป	-9.3446
ที่ถูก	-9.34478
▁ถ้าเรา	-9.34529
คุณก็	-9.34556
แซ	-9.34559
▁ด้วยการ	-9.34649
▁คุณก็	-9.34705
ลาย	-9.34738
ชนิด	-9.34923
เวย์	-9.34938
ที่นาย	-9.34953
ข้างหน้า	-9.34953
นักโทษ	-9.34982
▁แต่เขา	-9.35084
ทุกอย่างที่	-9.35124
ษ	-9.35125
็ด	-9.35137
ซิน	-9.35142
ฮี	-9.35248
เรื่องราว	-9.35269
ก็เป็น	-9.35379
▁ที่เรา	-9.35447
โห	-9.3551
กําจัด	-9.35511
บริ	-9.3553
▁โจ	-9.35635
จอม	-9.35692
▁คง	-9.35735
หวัดดี	-9.35797
สด	-9.35894
ผ่าตัด	-9.35911
ครั้งที่	-9.35953
ลงมา	-9.35965
เฮ้ย	-9.36071
▁กิโลเมตร	-9.36117
ใช่แล้ว	-9.36123
คุณคิดว่า	-9.36157
แน	-9.36181
คําตอบ	-9.36193
▁และก็	-9.36653
บังคับ	-9.36656
มาหา	-9.36672
กับเขา	-9.36744
เลข	-9.36762
ภายใต้	-9.36789
สรุป	-9.3679
ฉันมี	-9.36798
กับเธอ	-9.36818
คอม	-9.36819
น้องสาว	-9.36838
ผู้ที่	-9.36866
แต่ว่า	-9.37038
หรอกนะ	-9.37048
อยู่ไหน	-9.37073
แผนก	-9.37119
ด่วน	-9.37125
ดาร์	-9.37205
ไมเคิล	-9.37215
เปิดเผย	-9.37216
▁ฉันคิดว่า	-9.37241
แทง	-9.37258
นึก	-9.37302
นิก	-9.37304
ที่เป็น	-9.37334
สืบ	-9.37394
นั่นคือ	-9.37408
ปฏิบัติการ	-9.37496
พลาด	-9.37512
แผ่น	-9.37671
เนี่ยนะ	-9.37714
มีชีวิต	-9.37763
▁ไม่เป็นไร	-9.37845
▁ทุกอย่าง	-9.37896
ผลิต	-9.37901
จะเอา	-9.37951
ล้ม	-9.37991
▁29	-9.37999
อีกคน	-9.38035
ฮู	-9.38215
เลวร้าย	-9.38218
ก็ตาม	-9.38341
ไม่เข้าใจ	-9.3838
โมง	-9.38512
▁แปด	-9.38517
โฟ	-9.38655
ตะวันออก	-9.38672
นายจะ	-9.38783
นิ่ง	-9.38812
เข้าร่วม	-9.38818
พูดอะไร	-9.38833
เบร	-9.38841
จู่ๆ	-9.38907
ปีก่อน	-9.38926
ประวัติศาสตร์	-9.39025
น้องชาย	-9.3904
วินาที	-9.39062
กาย	-9.39108
ํ	-9.39124
▁และการ	-9.39155
มีแค่	-9.39181
เขาบอกว่า	-9.394
อาจารย์	-9.39416
ยื่น	-9.39417
ถอด	-9.39423
▁สัปดาห์	-9.39446
มันมี	-9.39454
▁ฉันไม่	-9.39468
จุ	-9.39484
เรียนรู้	-9.39492
ค่อยๆ	-9.39519
มานาน	-9.39646
ตุ	-9.39667
ตรา	-9.39698
ฉันอยาก	-9.39867
อัด	-9.3996
ว่าทําไม	-9.39972
▁เพราะฉัน	-9.40015
ขอโทษนะ	-9.4002
โช	-9.40044
ฉันเห็น	-9.40085
กับการ	-9.40237
บุคคล	-9.40238
งเธ	-9.40299
ก็คง	-9.40348
แก๊ง	-9.40455
▁เรามี	-9.40493
ไม่ใช่แค่	-9.40623
ไม่เอา	-9.40662
บ่าย	-9.40681
เซล	-9.4073
เออร์	-9.4075
▁ฉันรู้ว่า	-9.40859
ฉุกเฉิน	-9.41067
รับรอง	-9.41138
รัง	-9.41162
ท้าย	-9.4118
โครงการ	-9.41189
ประโยชน์	-9.41195
แปลกๆ	-9.41222
หล่อ	-9.41245
ฉันหมายถึง	-9.41339
▁เธฅเธ	-9.41417
ตะวันตก	-9.41433
แก้ไข	-9.41543
หวาน	-9.41557
ัว	-9.41614
เที่ยว	-9.41661
ผสม	-9.41713
ทั้งนั้น	-9.41738
ครั้งสุดท้าย	-9.41763
ุ่ม	-9.41763
ปลาย	-9.4181
มี่	-9.41814
ต่อสู้	-9.41871
▁เฮ	-9.4194
ที่เกิดขึ้น	-9.41965
ริน	-9.42048
เขาเป็น	-9.42077
สต	-9.42095
ฮอ	-9.42151
จําได้	-9.4218
ชวน	-9.42207
▁โอเคไหม	-9.42245
แม้แต่	-9.42273
ถอน	-9.42344
ผิว	-9.42369
ในวันที่	-9.42488
ขวด	-9.42535
ฉันว่า	-9.42542
องค์	-9.42602
แมรี่	-9.42806
ฉันไม่ได้	-9.42821
เบิร์ก	-9.42958
ด้วยความ	-9.43023
ไม่ว่า	-9.43059
ตายแล้ว	-9.43111
ดีขึ้น	-9.43125
▁ฉันว่า	-9.43174
คุณนาย	-9.43234
ซิตี้	-9.4325
▁นั่นคือ	-9.43263
จะบอก	-9.43277
น้ําหนัก	-9.43369
พิจารณา	-9.43375
ทั้งสอง	-9.43431
หัน	-9.43453
ผี	-9.43623
ผมต้อง	-9.43668
แนะนํา	-9.43668
ฉันบอก	-9.43702
กรา	-9.43731
จิตใจ	-9.4375
เกิดอะไรขึ้น	-9.43819
มันคือ	-9.43837
มั้ง	-9.43905
แบบว่า	-9.43953
▁กว่า	-9.44003
ทุ่ม	-9.44034
ตน	-9.44084
▁และผม	-9.44103
ลเลอร์	-9.44112
▁โค	-9.44147
มะ	-9.44173
▁เธฃเธฒเธ	-9.44386
การแสดง	-9.44444
งี่เง่า	-9.44453
พอดี	-9.44514
มัก	-9.4457
ธิ	-9.44579
อยู่ที่นั่น	-9.44594
เรื่องการ	-9.44651
ปีศาจ	-9.44669
วิดีโอ	-9.44669
ความตาย	-9.44692
▁พี่	-9.44708
▁วิ	-9.44713
▁ซา	-9.44719
รัส	-9.44812
รูปแบบ	-9.44851
ถึงจะ	-9.44858
บริเวณ	-9.44885
เข้าสู่	-9.44949
ช์	-9.44955
▁ช	-9.4496
ไว้ใน	-9.44976
ฆาตกรรม	-9.45019
ล่ะก็	-9.45046
วิทยาศาสตร์	-9.45152
พวกเขาจะ	-9.45182
ไค	-9.45233
▁ชื่อ	-9.45258
ประกอบ	-9.4531
ความผิด	-9.45361
▁นี่มัน	-9.45519
ขณะ	-9.45534
โคล	-9.45551
ตลอดเวลา	-9.45603
นด์	-9.45607
แข็ง	-9.45658
▁ฉันรู้	-9.45848
ก์	-9.45864
▁ไม่ต้อง	-9.45871
▁อาร์	-9.45878
บวก	-9.45981
ฝ	-9.46144
สินค้า	-9.46192
ฒ	-9.46276
▁เธฐเน	-9.46293
▁มาร์	-9.46362
ความทรงจํา	-9.46411
โปร	-9.46415
บอกฉัน	-9.46446
เวล	-9.46447
วู	-9.465
เมตร	-9.46513
▁ฉันอยาก	-9.46551
ใดๆ	-9.46554
ความสามารถ	-9.46577
อุณหภูมิ	-9.4663
เรียบร้อย	-9.46634
ฝีมือ	-9.4664
ขาว	-9.46675
วัด	-9.46693
ของเจ้า	-9.46734
เฉพาะ	-9.46764
นิยม	-9.46846
ว่าง	-9.46874
▁เธอจะ	-9.46958
วิชา	-9.46982
สบาย	-9.47004
คนแรก	-9.47048
สิทธิ	-9.47055
ฉันชอบ	-9.4708
▁อัน	-9.47216
สูญเสีย	-9.47238
เพราะว่า	-9.47244
ย้อน	-9.47248
พ้น	-9.47355
ไปอีก	-9.47386
ตต์	-9.47388
ล่อ	-9.47412
▁รวมถึง	-9.47419
20	-9.47441
▁แต่ตอนนี้	-9.47446
กุญแจ	-9.47514
หลุด	-9.47514
▁150	-9.47546
ให้นาย	-9.47553
เล่ม	-9.47726
ไต	-9.47783
ออน	-9.47865
นรก	-9.4787
เพิ่มขึ้น	-9.4788
งาม	-9.4788
ชี้	-9.47888
ใครๆ	-9.47932
ผู้ช่วย	-9.48077
เจมส์	-9.4818
▁ก็คือ	-9.4819
ตรงนั้น	-9.48224
ความลับ	-9.48236
55	-9.48285
อบ	-9.48339
ราช	-9.48353
เฉยๆ	-9.48381
ไมล์	-9.4846
ของขวัญ	-9.4856
ญาติ	-9.4859
อัยการ	-9.48615
มหา	-9.48817
ที่สอง	-9.48834
มากที่สุด	-9.48837
บุ	-9.48946
หลาน	-9.4901
วาย	-9.49197
ศึก	-9.49267
ฟังดู	-9.49278
เชล	-9.49303
นายก็	-9.49395
ภาวะ	-9.49457
▁ราย	-9.49476
ไมค์	-9.49553
ทุกท่าน	-9.49681
เล็กน้อย	-9.49725
รัน	-9.49735
แขก	-9.49759
เจาะ	-9.49769
วี่	-9.49802
ตอนอายุ	-9.49804
เดียวกับ	-9.49804
ทั่วไป	-9.49822
ให้ตายสิ	-9.49827
หมู	-9.49847
ทุน	-9.49914
สื่อ	-9.49944
ละคร	-9.49979
ตระกูล	-9.49986
กาแฟ	-9.50004
รายชื่อ	-9.50245
นิด	-9.50274
เดียวที่	-9.5043
ชัก	-9.50514
สมัคร	-9.50587
กอ	-9.50638
▁โร	-9.50655
เนื่องจาก	-9.50664
ปัจจุบัน	-9.50671
การศึกษา	-9.50749
จูบ	-9.5085
พุ่ง	-9.50916
จม	-9.50924
ไข	-9.5103
ถูกฆ่า	-9.51114
ริส	-9.51123
จอ	-9.51126
คนใหม่	-9.51266
แห	-9.51272
▁มีคน	-9.51276
เวร	-9.51291
เกียรติ	-9.51303
▁จนกว่า	-9.51356
จ้ะ	-9.51361
อยู่นี่	-9.51362
▁อย่างน้อย	-9.51435
▁ออฟ	-9.51528
ธรรม	-9.51538
สิทธิ์	-9.51627
คุก	-9.51744
เขาได้	-9.5179
ติดตาม	-9.51828
ทั้งคู่	-9.51885
ล่าสุด	-9.51902
จะตาย	-9.52012
▁จนท	-9.52017
ทรมาน	-9.52049
ระบุ	-9.52054
จนท	-9.52056
▁ถนน	-9.52056
การ์ด	-9.52058
เก็ต	-9.52122
อยู่ที่ไหน	-9.52156
มันไม่ใช่	-9.52157
ประหลาด	-9.52187
ฟิล	-9.52194
เอาแต่	-9.52245
เคล	-9.52246
คลับ	-9.52256
▁จากการ	-9.52285
สัมผัส	-9.52287
กเธ	-9.52296
สวัสดี	-9.52383
ปฏิบัติ	-9.52383
กด	-9.52439
อาศัย	-9.52461
นาม	-9.52482
แม่น้ํา	-9.52486
โบสถ์	-9.5252
ฉันไม่อยาก	-9.52567
๊อ	-9.52593
ฟู	-9.5266
ฟ้อง	-9.5274
ตัวอย่าง	-9.52765
ลาส	-9.52788
ที่พวกเขา	-9.52861
ดีที่สุด	-9.52916
ของคน	-9.52925
หลบ	-9.52934
แอร์	-9.52974
สวรรค์	-9.52982
คณะ	-9.52983
มากเลย	-9.53018
12	-9.53028
▁ถ้าฉัน	-9.53064
เราต้องการ	-9.53092
มักจะ	-9.53106
แรน	-9.53191
ทอ	-9.53234
จําเลย	-9.53272
ขนาดนี้	-9.5333
คุณรู้	-9.53365
็ต	-9.53412
แลก	-9.53453
ยักษ์	-9.53458
แชมป์	-9.53464
กรีน	-9.5351
วาน	-9.5355
▁ในช่วง	-9.53603
ผมว่า	-9.53612
องค์กร	-9.53615
ทั่วโลก	-9.53633
บาย	-9.53713
จะเริ่ม	-9.53933
วันก่อน	-9.54043
พยายามจะ	-9.54061
▁วันนี้	-9.54091
เธทเน	-9.54132
๊บ	-9.54172
▁ให้กับ	-9.54206
ไวน์	-9.5423
ฉันไม่	-9.54412
โรเบิร์ต	-9.5443
ติดคุก	-9.54448
ฝาก	-9.54499
▁ฉันเลย	-9.54568
▁เธอก็	-9.54678
▁ไม่ว่าจะ	-9.54687
ธา	-9.54784
ทําแบบนั้น	-9.54846
น้ําแข็ง	-9.5487
มุ	-9.54897
แม้ว่า	-9.54955
แน่น	-9.54966
ดับ	-9.54972
การแข่งขัน	-9.54983
▁ไม่มีใคร	-9.54988
อาย	-9.55039
▁พัน	-9.5505
ัท	-9.55081
ป้าย	-9.55087
สแตน	-9.55122
ลอนดอน	-9.55129
เว้น	-9.55189
พันล้าน	-9.55207
ห่าง	-9.55265
▁นาฬิกา	-9.55307
เปลี่ยนแปลง	-9.55368
กับคน	-9.55374
65	-9.55476
ไปดู	-9.5548
คุณคง	-9.5559
กางเกง	-9.55601
เติบโต	-9.55601
เลื่อน	-9.55601
▁36	-9.55608
▁มันคือ	-9.5568
แหม	-9.55683
นายต้อง	-9.55702
พูดถูก	-9.55796
▁ยู	-9.5592
อยู่ด้วยกัน	-9.55951
ของลูก	-9.56018
ดุ	-9.5605
พรรค	-9.56126
ลําบาก	-9.56136
ท่อ	-9.56176
ชื่อว่า	-9.56189
ในบ้าน	-9.56193
กษัตริย์	-9.56326
สํารวจ	-9.56326
แร	-9.5634
ไม่มีวัน	-9.56444
็อต	-9.56489
คนร้าย	-9.56552
เตียง	-9.56554
▁เร็ว	-9.5658
▁ห้าม	-9.56588
▁ทุ่ม	-9.56655
▁ใจเย็น	-9.56663
ตื่นเต้น	-9.56668
เป็นเด็ก	-9.56777
หลายๆ	-9.56822
ถัง	-9.5684
▁75	-9.56908
มีเงิน	-9.56957
เราทุกคน	-9.56989
อาชีพ	-9.57058
ล้อ	-9.57066
เป็นเพื่อน	-9.57117
๊ด	-9.57132
ถ้าผม	-9.5733
มั่นใจ	-9.57406
วันละ	-9.57478
▁และมี	-9.57481
บอกคุณ	-9.57508
พยาบาล	-9.57532
ชุมชน	-9.57545
สัมภาษณ์	-9.57545
บริสุทธิ์	-9.57566
เชื้อ	-9.57742
▁ห้อง	-9.57745
▁ประมาณ	-9.57902
เขาไป	-9.57927
เร่ง	-9.57937
▁31	-9.5794
จําเป็น	-9.57959
เราควร	-9.57968
ขัด	-9.58024
แต่ถ้า	-9.58062
เคยเป็น	-9.58067
ทําให้คุณ	-9.58097
โง่ๆ	-9.58103
▁และเรา	-9.58152
เดอ	-9.58259
สมบัติ	-9.58284
บริการ	-9.58337
ใต้ดิน	-9.58407
รู้เรื่อง	-9.58407
▁99	-9.58416
รอบๆ	-9.58431
ศตวรรษที่	-9.58496
เบียร์	-9.58561
พบกับ	-9.58574
ข้อตกลง	-9.5865
มือถือ	-9.5875
มิล	-9.5875
บังเอิญ	-9.5878
ดอ	-9.58786
นู	-9.58851
ทําให้เรา	-9.58867
จะบอกว่า	-9.58928
ฉาก	-9.58996
ยาย	-9.59036
กับเรา	-9.59101
เธอเป็น	-9.59138
เกล	-9.59142
▁ดิ	-9.59142
หนีไป	-9.59148
▁ก็จะ	-9.59157
เเ	-9.59171
สงบ	-9.59183
เป็นคนที่	-9.59259
ริชาร์ด	-9.59281
น่ากลัว	-9.59283
ขยะ	-9.59292
อเล็กซ์	-9.59315
นี่แหละ	-9.59391
ผลงาน	-9.59443
▁โอเคนะ	-9.59471
เหล่านั้น	-9.59474
10	-9.59528
ขณะนี้	-9.59553
▁นิ้ว	-9.59562
โจร	-9.59647
ปี้	-9.59756
ปีที่แล้ว	-9.59794
ค้น	-9.59803
▁โดยไม่	-9.59812
ประสบการณ์	-9.59978
ัส	-9.6
ตามที่	-9.60137
่ม	-9.60164
เต็มที่	-9.60211
แฟ	-9.60216
ตัวตน	-9.60278
แวน	-9.60292
▁เธนเธ	-9.60329
ถ้าเธอ	-9.60372
ไปไหน	-9.60375
▁600	-9.60477
กระจาย	-9.60534
ร้องไห้	-9.60534
แฟรงค์	-9.60536
หมุน	-9.6057
มีค่า	-9.60572
▁มันไม่	-9.60613
ปู่	-9.60641
▁ช่วง	-9.60648
ถือว่า	-9.60702
ขณะที่	-9.60828
▁เธฃเน	-9.60912
ไม่รู้สิ	-9.60961
ต่อให้	-9.60969
ผมต้องการ	-9.61018
ขุด	-9.61042
พู	-9.61229
สองสาม	-9.61372
ออกมาจาก	-9.61425
รู้สึกเหมือน	-9.61439
เธฒเธ	-9.61501
ค่อนข้าง	-9.61551
จะพูด	-9.61579
ลุก	-9.61587
ออกแบบ	-9.61591
▁คาร์	-9.6163
แมว	-9.61701
▁ผมว่า	-9.61703
ค่าย	-9.61734
ลักพาตัว	-9.61746
อะไรเลย	-9.61761
▁เปลี่ยน	-9.618
วอชิงตัน	-9.61807
ฆ่าคน	-9.61808
แคน	-9.6184
เหล็ก	-9.61899
▁ชั้น	-9.61962
เพศ	-9.61993
ผมอยาก	-9.62044
ฝ่าบาท	-9.62065
แห่งนี้	-9.62065
ยุ	-9.62079
ยังไม่ได้	-9.62103
เพื่อให้	-9.62173
ด้วยการ	-9.62191
▁ก็เลย	-9.62222
ยั	-9.62258
พิษ	-9.62267
พิมพ์	-9.62299
สาเหตุ	-9.62346
ซัน	-9.62372
กับพวก	-9.62399
ยกเลิก	-9.6241
ทุกครั้งที่	-9.62457
นีย์	-9.62505
บรู	-9.62509
ช่วยให้	-9.62511
เอามา	-9.62564
อืม	-9.62585
จิม	-9.62602
ร้องเพลง	-9.62629
สั่งให้	-9.62649
▁แอ	-9.62669
อยากให้คุณ	-9.62673
▁หลา	-9.6277
บุตร	-9.62776
อร่อย	-9.62836
ยุติธรรม	-9.62854
วิเศษ	-9.62862
็ง	-9.62984
กู้	-9.63004
ถึงเวลา	-9.6304
85	-9.63126
▁แต่เธอ	-9.63188
แน่ใจ	-9.63241
รับใช้	-9.63352
เฟอร์	-9.63364
แต้ม	-9.63367
เชีย	-9.6344
งเน	-9.63456
เดีย	-9.63461
▁เซ	-9.63489
มั่นใจว่า	-9.63498
น่าสนใจ	-9.63501
ฝน	-9.63562
▁ฉันไม่ได้	-9.63605
โบราณ	-9.63616
ฆ่าตัวตาย	-9.63622
ความปลอดภัย	-9.63622
ขยาย	-9.63647
ซอง	-9.63681
เธอก็	-9.63692
ซอน	-9.63703
▁อย่างที่	-9.63732
ในวันนี้	-9.63749
ไปตาม	-9.6377
ณเน	-9.63811
เกี่ยวข้อง	-9.63824
นอกจาก	-9.63909
ผมเคย	-9.63944
มากพอ	-9.63947
▁จนกระทั่ง	-9.63971
มาร์ติน	-9.64013
พันธุ์	-9.64088
ไหนๆ	-9.64138
▁า	-9.64139
โปรแกรม	-9.64141
ค้า	-9.64144
เดี๋ยวก่อน	-9.6424
เธอร์	-9.64475
นึกว่า	-9.64476
▁พวกเขาจะ	-9.64497
▁เริ่ม	-9.64607
เดย์	-9.64646
เขามี	-9.64661
หยิบ	-9.6468
เที่ยวบิน	-9.64718
ให้คน	-9.64795
ห่างจาก	-9.64795
แบบที่	-9.6481
นึกถึง	-9.64895
▁ทั้งที่	-9.64908
ดูเหมือนว่า	-9.64924
ข้าว	-9.6496
ชัด	-9.65018
การใช้	-9.6505
เศษ	-9.65143
บัง	-9.65173
ลีน	-9.65182
ฟ์	-9.65425
▁ลํา	-9.65438
คุ	-9.65459
ซูเปอร์	-9.6551
ต้นไม้	-9.65534
ลงทุน	-9.6555
อินเดีย	-9.6565
▁แม้แต่	-9.65678
เอช	-9.6569
▁ล้านเหรียญ	-9.65722
แค่นั้น	-9.65724
ควีน	-9.65726
ปารีส	-9.65728
▁เธชเธ	-9.658
คือว่า	-9.6589
เป็นอะไร	-9.65914
▁ที่ฉัน	-9.6594
ใครสักคน	-9.65957
เเละ	-9.65975
▁จุด	-9.6604
▁ไม่รู้สิ	-9.66056
่ว	-9.66065
โทนี่	-9.66116
อึ	-9.66124
สังเกต	-9.66161
▁แบ	-9.66217
▁และเขา	-9.66291
ตอนแรก	-9.6635
นี่มัน	-9.66424
ศิลปะ	-9.66528
ที่ต้อง	-9.66635
เคอร์	-9.66648
เปลี่ยนไป	-9.6674
ฟื้น	-9.66788
เดท	-9.66861
เวสต์	-9.66885
๊ค	-9.66891
สนิท	-9.66891
ลงมือ	-9.66936
มูลค่า	-9.66944
ไม่เป็น	-9.66957
ชีพ	-9.67049
ให้พวกเขา	-9.67052
บริจาค	-9.67064
บรรดา	-9.67087
ความหวัง	-9.67139
สมควร	-9.67185
ไม่รู้จัก	-9.67231
ของพ่อ	-9.67275
เรายัง	-9.67333
ล้มเหลว	-9.67338
หนี้	-9.67399
วันหนึ่ง	-9.67457
หมื่น	-9.67471
ฉันไม่รู้	-9.67475
บริหาร	-9.67501
เจ้านาย	-9.6757
ทอด	-9.67576
▁ไม่นะ	-9.67593
กําแพง	-9.67613
คงต้อง	-9.67743
แหล่ง	-9.6785
แทบ	-9.67856
▁เครื่อง	-9.67866
กัด	-9.67875
เอ็ด	-9.67919
▁นี่เป็น	-9.67983
ธี	-9.68018
ที่ว่า	-9.68021
หลุม	-9.68115
เห็นด้วย	-9.68116
▁ปลาย	-9.68147
ตั๋ว	-9.6815
แน่ใจว่า	-9.68186
ตาราง	-9.68195
ในเมื่อ	-9.68212
เอน	-9.6829
เป็นเพราะ	-9.68408
บําบัด	-9.68423
ผู้หญิงที่	-9.68461
ล็อก	-9.68484
วันนั้น	-9.6853
ซ้อม	-9.68534
ผ่านมา	-9.68541
มีอยู่	-9.68547
หลังจากที่	-9.68596
ลุย	-9.68705
▁เธณเธ	-9.68753
ชิน	-9.68755
ค้นพบ	-9.68793
ในตัว	-9.68925
ไม่ออก	-9.68937
เพน	-9.6895
ออฟฟิศ	-9.68972
แล้วว่า	-9.68976
ลี่ย์	-9.68981
▁ฉันมี	-9.68981
ความเห็น	-9.69016
ทางการ	-9.69027
ถ้านาย	-9.69034
▁น่าจะ	-9.69102
สิ่งมีชีวิต	-9.69111
มีด	-9.69205
สถาน	-9.69237
กําเนิด	-9.69247
ฉีด	-9.69247
วิเคราะห์	-9.69251
ฉันเพิ่ง	-9.69287
โดยไม่	-9.69299
ยาง	-9.69512
การกระทํา	-9.69528
วัง	-9.69543
ฐเน	-9.69646
๊ะ	-9.69713
ไปทั่ว	-9.69781
ซ่อม	-9.69789
เลส	-9.69801
ดีใจ	-9.69843
สินะ	-9.69846
ทรา	-9.69855
เดี๋ยวนะ	-9.6987
ผมกําลัง	-9.69876
▁เข้าใจไหม	-9.69912
▁ไม่เอาน่า	-9.69937
เป็นพวก	-9.69986
ผู้กอง	-9.70002
▁ผมต้อง	-9.70093
▁หรือว่า	-9.70118
บ่อย	-9.70143
ความช่วยเหลือ	-9.70162
▁ที	-9.70175
อะไรกัน	-9.70175
ที่เคย	-9.70283
▁ผมคิดว่า	-9.70353
กระโดด	-9.7038
อะไรที่	-9.70418
▁ลี	-9.70467
43	-9.7048
▁ผมอยาก	-9.70513
ผู้จัดการ	-9.70569
สุขภาพ	-9.70674
เบา	-9.70728
โผล่มา	-9.70751
▁แทนที่จะ	-9.7076
▁จะมี	-9.7078
็บ	-9.70854
แต่งงานกับ	-9.70868
มัด	-9.7096
ผมเห็น	-9.70985
▁เอส	-9.71022
เทน	-9.71039
▁คือการ	-9.71043
ตอ	-9.71085
ศึกษา	-9.71123
ผ่า	-9.71123
จินตนาการ	-9.71197
นอ	-9.71215
ผมเป็น	-9.7122
▁เธขเธ	-9.71243
ขนาดนั้น	-9.71254
ของพวก	-9.71346
30	-9.71392
ไม่เอาน่า	-9.7143
▁แบบว่า	-9.71438
▁ถ้าเธอ	-9.71451
ทฤษฎี	-9.71479
ว้าว	-9.7148
▁800	-9.71507
▁หัวหน้า	-9.71632
สายตา	-9.71647
เบิล	-9.7165
▁หมื่น	-9.71722
ท้องถิ่น	-9.7177
รายละเอียด	-9.71772
ไม่อยากให้	-9.71774
ของโลก	-9.71831
▁เธตเธ	-9.71891
ได้ไง	-9.71925
ต้อนรับ	-9.71979
มองเห็น	-9.72034
หมดแล้ว	-9.7205
8	-9.72152
แคล	-9.72156
เลอ	-9.72165
เป็นครั้งแรก	-9.72189
สงสัยว่า	-9.72203
พอๆ	-9.72219
ลาน	-9.7224
เป็นเจ้าของ	-9.72324
▁อิ	-9.7238
ร่วมกัน	-9.72386
การแข่ง	-9.7243
40	-9.72504
ทดสอบ	-9.72557
วิจัย	-9.72575
งานเลี้ยง	-9.72633
จํากัด	-9.72635
กว่านี้	-9.72771
ถามว่า	-9.72804
▁ตลอด	-9.72825
รพ	-9.72831
ภัย	-9.72866
คณะกรรมการ	-9.72904
อย่างมาก	-9.72965
สามคน	-9.72979
เช่า	-9.73024
สุข	-9.73038
ประเด็น	-9.73151
รวบรวม	-9.73186
วิทยุ	-9.73191
ทําแบบนี้	-9.73195
พายุ	-9.73287
เม็ด	-9.733
ให้มัน	-9.7342
เทคโนโลยี	-9.73473
เเล้ว	-9.73474
▁เจ้าหน้าที่	-9.73483
เธญเธขเน	-9.73491
ก็ไม่ได้	-9.73511
ออร์	-9.73533
ได้เจอ	-9.7356
แม่ง	-9.73594
▁อิน	-9.73607
ยอดเยี่ยม	-9.73741
ขบวน	-9.73761
โอลิเวอร์	-9.73762
สะกด	-9.73774
ิง	-9.73833
ยังอยู่	-9.73878
▁ฮอ	-9.73924
ลูกเรือ	-9.73946
ดินแดน	-9.74083
ทั้งวัน	-9.74136
ผู้พิพากษา	-9.74143
เธญเธ	-9.74205
ตลอดชีวิต	-9.74216
มันไม่	-9.74246
▁รวมทั้ง	-9.74254
ทันทีที่	-9.74261
กระตุ้น	-9.7434
ยัย	-9.74361
เพอร์	-9.7437
ดูด	-9.74378
▁สามารถ	-9.74384
เราสามารถ	-9.74388
ใหม่ๆ	-9.74425
ยังเป็น	-9.74446
ยิ่งกว่า	-9.74454
ทําไม่ได้	-9.74478
▁33	-9.74509
ผมบอก	-9.74528
ความฝัน	-9.74551
สืบสวน	-9.74558
อาณาจักร	-9.74631
เหนื่อย	-9.74631
ดอกไม้	-9.74649
ล็อค	-9.74664
จ่ายเงิน	-9.74673
หาทาง	-9.74676
เอาชนะ	-9.74687
อยู่ห่าง	-9.74723
เดินไป	-9.74832
▁250	-9.74891
ยิ้ม	-9.74903
ที่ดิน	-9.7491
เกาหลี	-9.74922
ดอก	-9.74931
ที่ใช้	-9.74932
บอกผม	-9.74998
นักข่าว	-9.75032
▁ที่ทําให้	-9.75093
▁และความ	-9.75098
จูเลีย	-9.75162
▁แวน	-9.75165
สหรัฐ	-9.75184
▁และตอนนี้	-9.75194
ราชินี	-9.75218
วัว	-9.75245
ดูว่า	-9.75377
เวียน	-9.75433
ซิส	-9.75438
ร้านอาหาร	-9.75445
ฉันจะไม่	-9.75448
ประเภท	-9.75508
เวส	-9.75547
ในประเทศ	-9.75587
เป็นตัว	-9.75605
แข็งแรง	-9.75641
▁กม	-9.75646
ค้าง	-9.75694
เป็นนัก	-9.75725
ที่ทํางาน	-9.75798
เหตุผลที่	-9.75804
คาด	-9.75837
นอร์	-9.75869
เดต	-9.76084
หน้าตา	-9.76153
ล้อม	-9.76314
เสือ	-9.76346
ฮีโร่	-9.76399
ถูกยิง	-9.76432
กีฬา	-9.76484
จําเป็นต้อง	-9.7649
พวกเขาก็	-9.76495
▁ก็ได้	-9.76504
พร	-9.76524
โน่	-9.76582
คม	-9.76609
▁พี	-9.76611
คลอด	-9.7664
▁หลังจากที่	-9.7665
มั๊ย	-9.7669
ขัง	-9.76708
อะไรสักอย่าง	-9.76736
▁42	-9.76794
เอ็กซ์	-9.76829
▁เอาล่ะ	-9.76964
เติม	-9.76964
ชัน	-9.76966
สภา	-9.76984
เจค	-9.77046
สิ่งนี้	-9.77079
ไว้ใจ	-9.7712
ทําให้เกิด	-9.772
เทป	-9.7722
พี่สาว	-9.77299
▁ฮา	-9.77315
เพล	-9.77373
▁ขอบใจ	-9.77423
ชาร์	-9.77432
เตะ	-9.77452
แอนนา	-9.77487
เกี่ยว	-9.77494
ความเป็น	-9.77499
เคารพ	-9.77579
ภาษี	-9.77585
การเดินทาง	-9.77628
สบายดี	-9.7765
เอาเงิน	-9.77691
กเกอร์	-9.77706
ลงโทษ	-9.77713
ดาบ	-9.77766
ก่อนที่	-9.77849
สุภาพบุรุษ	-9.77886
ดีนะ	-9.7789
▁เขาเป็น	-9.77912
น้อยกว่า	-9.7793
▁แน่นอน	-9.7793
▁แม็ค	-9.78089
▁เธฒเธขเธ	-9.78099
กองกําลัง	-9.78138
แต่งตัว	-9.78148
บีบ	-9.78164
เมื่อวาน	-9.78192
ได้เงิน	-9.78209
ถ้าเขา	-9.78212
เหมาะ	-9.78242
▁ไง	-9.7826
จาง	-9.78313
ลดลง	-9.78361
นักวิทยาศาสตร์	-9.78415
▁กับการ	-9.78469
▁เจมส์	-9.78494
ไปหมด	-9.78558
ฉันไม่รู้ว่า	-9.78579
งั้นก็	-9.7858
แล้วครับ	-9.78634
จอด	-9.78694
▁พวกมัน	-9.78713
สั้น	-9.78741
ด้วยนะ	-9.78763
กระดาษ	-9.78792
อาคาร	-9.788
รบกวน	-9.78804
ที่ร้าน	-9.78835
นักแสดง	-9.78853
จ่ายค่า	-9.78901
มาเป็น	-9.7891
เกี่ยวข้องกับ	-9.78913
เกรด	-9.78957
▁ฉันแค่	-9.7899
ฉันยัง	-9.79039
▁เธง	-9.79049
โรงงาน	-9.79053
หนังสือพิมพ์	-9.7909
ยุโรป	-9.79096
วัตถุ	-9.79096
ี่	-9.79249
หนาว	-9.79259
ดั	-9.79274
▁38	-9.79294
ซาก	-9.7935
49	-9.7937
คว้า	-9.79394
มะเร็ง	-9.79401
รวมกัน	-9.79503
คดีฆาตกรรม	-9.79511
ห่วง	-9.79519
ทําเรื่อง	-9.79521
ช่วยชีวิต	-9.79563
ก็เหมือน	-9.79564
▁ผมขอ	-9.79593
เข้าถึง	-9.79691
ราบ	-9.7971
คนไหน	-9.79832
จําไว้	-9.79876
จะหา	-9.79894
้ด	-9.79971
อ้วน	-9.80013
เรามา	-9.80016
▁หมอ	-9.80064
▁มานี่	-9.80104
กัก	-9.80109
จะได้รับ	-9.80119
รั	-9.80123
ทําให้เขา	-9.8019
▁34	-9.80195
▁ผมไม่	-9.80208
ยืม	-9.80322
▁โดยเฉพาะ	-9.80336
คืออะไร	-9.80379
ทางนี้	-9.8042
เสียหาย	-9.80443
เกิดเหตุ	-9.80451
แซน	-9.80506
คุณอาจ	-9.80509
ห้องน้ํา	-9.80546
ล้วน	-9.8063
ไม่ต้องการ	-9.80659
จาน	-9.80708
สกี้	-9.80714
คืองี้	-9.80716
▁นายจะ	-9.80738
ความดัน	-9.80746
อยากรู้	-9.80751
สตรี	-9.80779
กรุณา	-9.80939
ฉันคิด	-9.80984
เลขที่	-9.80997
ี่ย	-9.81044
บอย	-9.81149
ทําให้ผม	-9.81166
จ๊ะ	-9.81234
อยู่ข้าง	-9.81279
อยู่ตรงนี้	-9.81392
เมื่อคุณ	-9.81423
ม์	-9.81483
ไม่ไหว	-9.81521
▁เธกเธฑเธ	-9.81555
แคลิฟอร์เนีย	-9.81561
แข็งแกร่ง	-9.81565
ทุกข์	-9.8157
ยาเสพติด	-9.81601
เกรย์	-9.81629
เกิล	-9.8163
▁ซู	-9.81632
เวิร์	-9.81642
จนถึง	-9.8166
จะใช้	-9.81661
▁ในอีก	-9.81693
▁แมค	-9.81695
▁มิถุนายน	-9.81874
แม็ก	-9.81876
ประสบความสําเร็จ	-9.81876
ลุกขึ้น	-9.81884
พิกัด	-9.819
นิยาย	-9.81918
กันอยู่	-9.81953
เป็นห่วง	-9.81998
รส	-9.82044
วิธีการ	-9.82044
ว่าเป็น	-9.82051
รวย	-9.82096
ไม่นาน	-9.82119
โดด	-9.82171
ตรี	-9.82172
วุ่นวาย	-9.82187
นายพล	-9.8222
ฟิลด์	-9.82241
ล่าง	-9.82297
เนส	-9.82312
ครั้งใหญ่	-9.82335
การโจมตี	-9.82446
▁เธฒเธฃเธ	-9.82485
ต้องการให้	-9.82501
บนถนน	-9.82505
ตํานาน	-9.82512
รปภ	-9.82518
การทํางาน	-9.82528
วย	-9.82569
เป็นสิ่งที่	-9.82685
39	-9.8273
คบ	-9.8274
สิ่งที่เรา	-9.82761
แม้	-9.82791
การที่	-9.82792
ไม่ต้องห่วง	-9.82879
ความรุนแรง	-9.83038
่น	-9.8312
เพชร	-9.83135
ลั	-9.83145
โธ่	-9.83159
มวล	-9.83165
กว่านั้น	-9.83188
เราไป	-9.83232
ข้อเสนอ	-9.83242
▁แล้วฉันก็	-9.83254
▁37	-9.83277
หลบหนี	-9.83331
เช่นกัน	-9.83366
มิส	-9.83448
ท่านครับ	-9.83448
สถิติ	-9.83455
จะพา	-9.83458
ความเจ็บปวด	-9.83486
▁อืม	-9.83523
สมบูรณ์	-9.83523
ล่อง	-9.83544
วาด	-9.83619
ลุค	-9.83684
บนโลก	-9.83732
ย่อย	-9.83875
เมล	-9.83944
แพง	-9.83948
็กซ์	-9.83963
ไปกับ	-9.8405
▁เพราะมัน	-9.84055
เจ็บปวด	-9.84064
หัวเราะ	-9.8409
ไม่นะ	-9.84091
รร	-9.8412
▁ปีที่ผ่านมา	-9.84176
ร็อค	-9.84221
ฉันเอง	-9.84238
งานนี้	-9.84273
ไม่ใช่เรื่อง	-9.84274
แอนด์	-9.84306
ภูมิ	-9.84334
9	-9.84354
ทรี	-9.84437
โมโห	-9.84465
▁ฉะนั้น	-9.84465
ปั่น	-9.84514
เหมือนเดิม	-9.84525
อะไรก็ตาม	-9.84538
จํานวนมาก	-9.84583
ที่น่า	-9.84583
กวน	-9.84597
ขยับ	-9.84741
เป็นยังไง	-9.84774
ให้ดี	-9.84778
60	-9.84794
หุ่น	-9.84805
แพท	-9.84834
ลิลลี่	-9.84842
เฉย	-9.84853
เขาทํา	-9.84854
ผู้ชายที่	-9.8493
ริม	-9.84951
โรส	-9.84954
สุนัข	-9.85054
โซ่	-9.85083
สวัสดีค่ะ	-9.85085
▁ถ้านาย	-9.85116
ตายไป	-9.85124
▁พร้อมกับ	-9.85184
็ม	-9.85192
ฉันไม่เคย	-9.85288
เป้า	-9.85289
วิธีที่	-9.85365
กระจก	-9.85382
ยง	-9.85454
ข้างใน	-9.85458
ไปให้	-9.8546
ื่	-9.85473
เราไม่ได้	-9.85527
▁ขอให้	-9.85558
เข้าใจว่า	-9.85563
เรียกร้อง	-9.85687
ตอนที่ฉัน	-9.85701
ไร้สาระ	-9.85702
ฃเธ	-9.85725
▁เพราะเขา	-9.85746
เจีย	-9.85751
ไปจาก	-9.8577
ก่อนหน้านี้	-9.85843
ผู้เชี่ยวชาญ	-9.85865
ครั้งหนึ่ง	-9.85876
ลีก	-9.85877
ดีน	-9.85884
ที่สําคัญ	-9.85884
ถึงแม้	-9.85899
เข้ามาใน	-9.85972
เชิง	-9.8598
เฮนรี่	-9.86049
๊า	-9.86115
ทีเดียว	-9.86148
มีความหมาย	-9.86178
คริสต์มาส	-9.86203
ทิศ	-9.8622
ความสนใจ	-9.86247
มุ่ง	-9.86279
เน็ต	-9.86337
ไม่อาจ	-9.86339
ได้ผล	-9.86407
สารภาพ	-9.86483
▁เธกเธฒเธ	-9.86508
พูดกับ	-9.86569
เสริม	-9.86622
มีสิทธิ์	-9.86653
ผู้การ	-9.8666
รับผิดชอบ	-9.86693
เท็ด	-9.86699
ไปเจอ	-9.8672
สํานัก	-9.86766
คุยเรื่อง	-9.86766
เท่าไร	-9.8677
เครื่องมือ	-9.86915
ถ้	-9.86935
ดอร์	-9.86953
วั	-9.86958
ั่น	-9.86987
ลุ	-9.87005
อาชญากร	-9.87006
พฤติกรรม	-9.87011
ประเมิน	-9.87011
โฆษณา	-9.87011
สตีฟ	-9.87014
▁47	-9.87046
สักหน่อย	-9.87059
ก็รู้	-9.87138
ไปที่นั่น	-9.8715
บลู	-9.87181
▁น้อยๆ	-9.87234
กวาด	-9.87321
ดเน	-9.87343
วิลล์	-9.87439
ไม่ๆ	-9.87488
กับเพื่อน	-9.87546
หน้าต่าง	-9.87559
▁ปีที่แล้ว	-9.87589
รม	-9.87638
โกล	-9.8764
▁แปลว่า	-9.87657
เครียด	-9.87672
ตั้น	-9.87696
ทริ	-9.87697
บิลลี่	-9.8774
จบลง	-9.87775
▁ถ้าผม	-9.87793
เดา	-9.87848
▁ช่าง	-9.87883
ฟุต	-9.8789
ขวบ	-9.87905
▁เคย	-9.87931
หย่า	-9.87958
▁สวัสดี	-9.87979
▁แสน	-9.87982
ลอน	-9.87993
ย่อ	-9.87999
▁ตุลาคม	-9.88005
ครั้งเดียว	-9.88078
▁คัน	-9.88105
งค์	-9.8811
โรว์	-9.88111
ไม่เหมือน	-9.88142
อ้างว่า	-9.88143
▁โทษที	-9.88161
สวัสดีครับ	-9.88195
โผล่	-9.88202
▁แอนด์	-9.88215
การต่อสู้	-9.88216
▁ในขณะที่	-9.88231
ื้อ	-9.88262
ัน	-9.88305
ผู้ป่วย	-9.88311
จ้อง	-9.88338
ความสุข	-9.88342
ขั้นตอน	-9.88369
เค้ก	-9.88376
อย่างเดียว	-9.88473
ไม่ได้หรอก	-9.88494
ไพ	-9.88558
กอน	-9.88562
อยู่ในห้อง	-9.88612
เคยมี	-9.88636
เฟร	-9.88641
ดวงจันทร์	-9.88679
01	-9.88717
เสียเวลา	-9.88735
มาด้วย	-9.88817
ข้างนอก	-9.8892
แย	-9.88927
หมอนี่	-9.88928
พูดเรื่อง	-9.88996
จี้	-9.89005
คนละ	-9.89007
สะพาน	-9.89009
นิสัย	-9.89012
กระแส	-9.89026
บุญ	-9.89029
ทํางานให้	-9.89065
ต้องเป็น	-9.89105
พุ	-9.8911
ดัก	-9.89114
ในคืน	-9.89179
เพียงแค่	-9.89296
ไปสู่	-9.89369
หรอ	-9.89375
ดอล	-9.89511
วิก	-9.8956
ให้ตาย	-9.89628
▁และฉันก็	-9.89651
สมิธ	-9.89685
ไวรัส	-9.89712
หาง	-9.89725
บอกฉันว่า	-9.89734
70	-9.89777
ปวด	-9.89816
จ่า	-9.89862
ผิดปกติ	-9.89889
ย้ํา	-9.89971
หมวก	-9.90022
หมู่บ้าน	-9.90023
นิวเคลียร์	-9.90028
ตัวจริง	-9.90032
ของแม่	-9.90048
ปลด	-9.90091
เกย์	-9.90149
▁ไมเคิล	-9.9033
สิ่งที่คุณ	-9.90338
อยู่บ้าน	-9.90354
โรบิน	-9.90359
แห้ง	-9.90385
ในวัน	-9.90421
ตัวแทน	-9.90422
นักเขียน	-9.90456
▁ศ	-9.90507
ได้แค่	-9.90526
อยู่ดี	-9.90586
ฅ	-9.90602
มันไป	-9.90684
▁ที่ผม	-9.90716
เซลล์	-9.90741
หมาป่า	-9.90743
ที่ปรึกษา	-9.90758
วัยรุ่น	-9.90767
กันแล้ว	-9.90776
▁72	-9.90836
เงินสด	-9.90933
ใจเย็น	-9.90948
▁แต่พอ	-9.90953
อาจจะเป็น	-9.91016
กลับไปที่	-9.91023
ผู้บัญชาการ	-9.91046
กระทรวง	-9.91054
จริงจัง	-9.91057
หมู่	-9.91088
สตัน	-9.91154
อะไรก็ได้	-9.91159
เดาว่า	-9.91176
อย่าลืม	-9.91257
สิบปี	-9.91301
ต้องใช้เวลา	-9.91304
เจสัน	-9.91314
ผิดพลาด	-9.91393
ในเรื่อง	-9.91438
ครอง	-9.91484
คุณจะได้	-9.91499
ชายฝั่ง	-9.91534
เขาไม่ได้	-9.91619
ทําหน้าที่	-9.91648
ขู่	-9.91734
วู้ด	-9.91743
่อง	-9.9191
เธกเธฑเธ	-9.92002
โคตร	-9.92035
นิวยอร์ค	-9.9208
คุ้มครอง	-9.92083
สเปน	-9.92087
ในยุค	-9.92109
คล้าย	-9.9214
▁เธญ	-9.92211
เหมาะสม	-9.92268
ลักษณะ	-9.92427
ที่แท้จริง	-9.92436
ฟุตบอล	-9.92468
ไม่เจอ	-9.92501
เช่นนั้น	-9.92503
นาฬิกา	-9.92505
คูณ	-9.92507
ร้ายแรง	-9.92532
ทับ	-9.92538
ดารา	-9.9254
มาดู	-9.92551
โรคจิต	-9.92562
จะฆ่า	-9.92643
▁ฉันขอ	-9.92647
▁นั่นแหละ	-9.92649
สโตน	-9.92651
▁แม้	-9.92665
โมงเช้า	-9.92687
ก็ดี	-9.92772
เชื่อมโยง	-9.92776
นั่นเป็น	-9.92781
ตัวเลข	-9.92829
มุก	-9.92836
สายลับ	-9.92881
ได้ยินเสียง	-9.92914
เล่นงาน	-9.92934
เคยเห็น	-9.92941
บรา	-9.92996
เขาต้อง	-9.93176
ภูมิใจ	-9.93195
บ้าๆ	-9.93228
น่าจะเป็น	-9.93239
ลัด	-9.93279
ดําเนิน	-9.93409
การรักษา	-9.93416
ใ	-9.93437
ฌ	-9.9346
ทาวน์	-9.93476
ดิฉัน	-9.93499
ยอ	-9.93544
อ้าง	-9.93587
อดัม	-9.93629
ทูต	-9.93632
จะทําอะไร	-9.93635
แสดงความ	-9.93645
วิท	-9.93674
อพยพ	-9.93828
เข็ม	-9.93833
การตัดสินใจ	-9.93852
เดี่ยว	-9.93859
แคลร์	-9.93891
ติน	-9.93904
เรส	-9.93944
พาร์	-9.94049
ยัด	-9.94102
โอ๊ย	-9.94182
ไม่สนใจ	-9.9432
ผู้ใหญ่	-9.94476
ั้น	-9.94521
ั่ง	-9.94565
เทียบ	-9.9458
ไม่เชื่อ	-9.94584
มัล	-9.94599
แผนการ	-9.94602
นีล	-9.94612
มีอํานาจ	-9.94744
▁เบน	-9.94767
ฉันแค่	-9.94774
▁เธฃเธนเน	-9.94777
หมอนั่น	-9.94847
ฉาย	-9.94851
ลอร์ด	-9.94852
ประชากร	-9.94892
พืช	-9.94893
ซับซ้อน	-9.94894
ชก	-9.94894
แต	-9.94901
ตส์	-9.94919
ุ่น	-9.94942
มาตรา	-9.9498
นาร์	-9.94995
คาดว่า	-9.95044
คอล	-9.9507
ที่สุดในโลก	-9.95081
ขอบคุณมาก	-9.95117
▁เก้า	-9.95135
ว่าใคร	-9.95145
คุณเคย	-9.95194
ถา	-9.95245
ไปเที่ยว	-9.95251
64	-9.95321
▁ผมเลย	-9.95321
ดูจาก	-9.95362
สนามบิน	-9.95396
ผูก	-9.9544
คุณต้องการ	-9.95461
หนุ่มๆ	-9.95516
ฉันรู้สึก	-9.95593
เวอ	-9.95599
จริงเหรอ	-9.95614
ย่าน	-9.95629
ผมขอ	-9.9563
อัตรา	-9.95634
กี่	-9.95729
ทาส	-9.95798
ผมไม่ได้	-9.95822
ไร่	-9.95826
ทุกคนที่	-9.9585
เต็มไปด้วย	-9.95985
ต่ํากว่า	-9.96034
สิ้นสุด	-9.96038
ตรงไหน	-9.96185
จะกลับมา	-9.96257
วิทยา	-9.96313
ผู้โดยสาร	-9.96329
เลยล่ะ	-9.96346
เธชเธ	-9.96364
ภูเขา	-9.96422
กกี้	-9.96471
สู้กับ	-9.96493
▁700	-9.96524
▁ล้านดอลลาร์	-9.96527
สักวัน	-9.96543
เกินกว่า	-9.96596
มันอาจ	-9.96607
ศาสตร์	-9.96669
จูเนียร์	-9.96691
ตะโกน	-9.96691
แมลง	-9.96694
ของแก	-9.96699
ฮะ	-9.96771
ให	-9.96808
คาร์ล	-9.96955
กัส	-9.96993
กรม	-9.97037
ดําเนินการ	-9.97055
โค้ช	-9.97055
เขียนว่า	-9.97074
ผลกระทบ	-9.97098
▁ที่ต้อง	-9.97101
สีแดง	-9.97116
ปลุก	-9.97117
มีเหตุผล	-9.97211
ปกครอง	-9.97231
รายได้	-9.97233
กล้าหาญ	-9.97239
▁44	-9.97251
ขนาดใหญ่	-9.97321
แอลเอ	-9.97328
▁เธฃเธฑเธ	-9.97362
ลิ้น	-9.97373
๘	-9.97419
แผนที่	-9.97445
เรือนจํา	-9.97458
ขนม	-9.97489
▁เธข	-9.97524
ฉะนั้น	-9.97546
▁ยกเว้น	-9.97565
▁ถ้าไม่	-9.9758
เราอยู่	-9.97618
ไม่เกิน	-9.97629
ทําทุกอย่าง	-9.97725
▁เธฃ	-9.97751
เร็วเข้า	-9.97762
บาป	-9.97778
วัฒนธรรม	-9.97786
ศาสนา	-9.97804
ถ้าหาก	-9.97821
ถ้ามัน	-9.97839
เจอร์รี่	-9.97866
ฆ	-9.97889
ยอมให้	-9.98069
การฆาตกรรม	-9.98074
ไปซะ	-9.98125
อยู่ตรงนั้น	-9.98128
แม่มด	-9.98173
แหวน	-9.98185
ลําดับ	-9.98186
▁เซนต์	-9.98191
็อค	-9.98229
หรู	-9.98278
ใต้เท้า	-9.98327
▁ถ้าเขา	-9.98394
คิน	-9.98402
คราว	-9.98402
ไงล่ะ	-9.98513
แพร่	-9.98522
แวมไพร์	-9.98522
คํานวณ	-9.98522
เทคนิค	-9.9853
แผ่นดิน	-9.98539
ที่นั่ง	-9.98619
คุณอยาก	-9.98633
เรื่องของ	-9.98657
เพื่อนบ้าน	-9.9866
▁ว่าคุณ	-9.98668
87	-9.98731
ใครบางคน	-9.98748
สวยๆ	-9.98749
ถูกส่ง	-9.98784
ผมไม่อยาก	-9.98826
พาย	-9.98876
เมืองนี้	-9.98876
เควิน	-9.98884
เม็กซิโก	-9.98893
ในสิ่งที่	-9.98898
สับสน	-9.98902
หอม	-9.98907
ผิดกฎหมาย	-9.98919
บก	-9.98949
เปล	-9.98985
เผชิญ	-9.99162
▁ก่อนจะ	-9.9923
▁เธถเธ	-9.99267
คุณสามารถ	-9.99348
ฟาร์ม	-9.99368
11	-9.99395
▁เพราะคุณ	-9.99469
เพื่อนร่วมงาน	-9.99539
โหล	-9.99563
ซื่อสัตย์	-9.99639
ดิส	-9.99661
▁ปธน	-9.99719
โสด	-9.99787
อยากทํา	-9.99811
▁หรือไม่ก็	-9.99827
ทางเพศ	-9.9984
ผู้พัน	-9.99873
ย้ายไป	-9.99878
สหาย	-9.99914
ยืนอยู่	-10.0017
ราวๆ	-10.0023
ล้ํา	-10.0035
ื่อ	-10.0036
ทดลอง	-10.004
ไทม์	-10.004
ที่สาม	-10.0047
คดีนี้	-10.0047
ร็อก	-10.0048
นัม	-10.005
ผมไม่รู้	-10.0052
ทํามัน	-10.0069
อน	-10.0078
ไบรอัน	-10.0079
หิว	-10.0079
เคท	-10.0079
ยิ่งใหญ่	-10.0081
ฉีก	-10.0084
ฟิน	-10.0086
ผมชื่อ	-10.0089
เมอ	-10.0096
▁52	-10.0101
การผ่าตัด	-10.0102
เป็นหนึ่งใน	-10.0103
จากไป	-10.0103
รู้ไหมว่า	-10.0111
พื้นฐาน	-10.0113
ในประวัติศาสตร์	-10.0113
สูบ	-10.0114
ทรัพย์สิน	-10.0114
แย่ง	-10.0115
กอด	-10.0122
ราชา	-10.0123
ข้าจะ	-10.0131
ไม่อยู่	-10.0132
ในอนาคต	-10.0135
ฉันอายุ	-10.0136
ครัว	-10.0137
อีกที	-10.014
การทดลอง	-10.0151
ฤดูร้อน	-10.0153
▁กิโล	-10.0154
ชิคาโก	-10.0154
ถั่ว	-10.0154
ซอล	-10.0156
▁ที่ถูก	-10.0165
ในรอบ	-10.0168
ไหม้	-10.018
ลัก	-10.0188
ระเบียบ	-10.0191
▁เธซเธก	-10.0196
ป์	-10.0202
กลางวัน	-10.0202
▁จนถึง	-10.0203
บัดนี้	-10.0207
หาเงิน	-10.0208
มาช่วย	-10.0215
บังคับให้	-10.0216
าร์ด	-10.0218
หมี	-10.0225
พันธมิตร	-10.0229
ชัยชนะ	-10.023
ไว้ว่า	-10.0232
โคร	-10.0235
๊อก	-10.0239
การตายของ	-10.0239
ให้การ	-10.0243
ตัวเขา	-10.0244
ทะ	-10.0249
ชีส	-10.0251
คําแนะนํา	-10.0253
หรือยัง	-10.0258
▁กันยายน	-10.0267
จมูก	-10.0267
ยุทธ	-10.0268
น่ะเหรอ	-10.0269
อาบน้ํา	-10.0269
จะส่ง	-10.0274
ทุ่มเท	-10.0276
หลายอย่าง	-10.0281
ฮอล	-10.0281
ริช	-10.0293
แล้วกัน	-10.0295
ขวาง	-10.0298
ียน	-10.0304
เป็นไง	-10.0306
ข่มขืน	-10.0306
ครอบครอง	-10.0306
ชื่นชม	-10.0306
ไหว	-10.0314
ขวัญ	-10.0318
ือก	-10.0327
อาศัยอยู่	-10.0335
▁ข้าจะ	-10.034
มหาสมุทร	-10.0345
เต้นรํา	-10.0345
พวกเจ้า	-10.0347
อยู่ใกล้	-10.0347
ในทาง	-10.035
เล่าเรื่อง	-10.0361
ถ้าไม่มี	-10.0361
วิว	-10.0364
ลอก	-10.0365
แล้วล่ะ	-10.0372
แวะ	-10.0374
ได้ยินว่า	-10.0378
นักบิน	-10.0383
เฟล	-10.0384
ชั่วร้าย	-10.0388
่อน	-10.039
▁เธฃเธฐเธ	-10.0405
ซุ	-10.0412
สมบูรณ์แบบ	-10.0414
พอที่จะ	-10.0418
ด็อก	-10.0419
อ่า	-10.042
แปร	-10.042
คัด	-10.0421
▁จนกว่าจะ	-10.0422
โด้	-10.0424
▁ไม่ๆ	-10.0425
เข้าใกล้	-10.0429
แม็กซ์	-10.043
ผมไม่รู้ว่า	-10.0437
ปีนี้	-10.0438
ก็เพราะ	-10.0439
ภฬ	-10.0461
เก้าอี้	-10.0462
ดีเอ็นเอ	-10.0462
ขนมปัง	-10.0462
ร่องรอย	-10.0463
รอส	-10.0466
ไส้	-10.0468
เง	-10.0471
ตบ	-10.0475
เด็กสาว	-10.0485
เฮอร์	-10.0488
ในระยะ	-10.049
กําไร	-10.0491
พอใจ	-10.0492
▁เพราะผม	-10.0495
ทําให้มัน	-10.0496
ผมเข้าใจ	-10.0513
ติก	-10.0515
คุ้มกัน	-10.0518
เขายัง	-10.0519
ยอมแพ้	-10.0526
ขอบ	-10.0536
จิมมี่	-10.0542
กาล	-10.0543
ชุ	-10.0545
เรด	-10.0551
ผมเอง	-10.0551
เพราะงั้น	-10.0554
ที่ชื่อ	-10.0561
ส่งผล	-10.0567
ฝ่า	-10.057
เทล	-10.0572
กระบอก	-10.0572
อันที่จริง	-10.058
ประทับใจ	-10.0581
▁โจนส์	-10.0583
ก่อนอื่น	-10.0584
ตลอดกาล	-10.0584
บิ๊ก	-10.0585
สาขา	-10.0586
▁ผมไม่ได้	-10.0587
เช่นนี้	-10.0588
ในกรณี	-10.0589
มิด	-10.0599
พอจะ	-10.0603
เคส	-10.0606
▁ล้านคน	-10.061
ถ้าเป็น	-10.0611
แน่นอนว่า	-10.0613
บทความ	-10.0618
แกล้ง	-10.0619
ซีย์	-10.062
ไม่ทัน	-10.0623
ก็รู้ว่า	-10.0624
▁เธนเน	-10.0624
ลาร์	-10.0626
โชค	-10.0634
ใบหน้า	-10.0637
ัย	-10.0639
14	-10.0641
อะไรๆ	-10.0642
นิส	-10.0646
ฉันเจอ	-10.0662
จะบอกให้	-10.0664
ในเขต	-10.0669
เยอร์	-10.0671
มิติ	-10.0679
จิตวิญญาณ	-10.0683
ก็ไม่รู้	-10.0697
เวท	-10.0697
แดด	-10.07
น่าทึ่ง	-10.0701
ในตอนนี้	-10.0702
เมื่อปี	-10.0712
ถ้างั้น	-10.0715
โดร	-10.0717
ประหาร	-10.0718
ไวท์	-10.0722
คุณก็รู้	-10.0725
มีชีวิตอยู่	-10.0727
เป็นเหมือน	-10.0735
ด้วยตัวเอง	-10.0737
หลุยส์	-10.0741
สัมพันธ์	-10.0745
▁ไม่ก็	-10.0745
ทั้งชีวิต	-10.0746
ไพ่	-10.075
▁เธอต้อง	-10.0751
ใกล้ๆ	-10.0751
แคท	-10.0753
อย่างอื่น	-10.0755
จุน	-10.0763
ระบุว่า	-10.0764
สร้างความ	-10.0764
▁คิง	-10.0765
หลายครั้ง	-10.0767
▁95	-10.0773
▁แถมยัง	-10.0773
สูตร	-10.0781
จอร์แดน	-10.0781
เฉลี่ย	-10.0781
เฮาส์	-10.0781
เบื่อ	-10.0782
ถ้วย	-10.0782
อิสระ	-10.0782
การเปลี่ยนแปลง	-10.0785
เทอ	-10.0789
เดฟ	-10.0792
กันเถอะ	-10.0793
การสืบสวน	-10.0794
ไม่คิดว่า	-10.0797
จนกว่า	-10.0798
ตัวประกัน	-10.0804
ราง	-10.0804
เปิดประตู	-10.0809
ลูกความ	-10.0817
ค่ํา	-10.0818
รัฐมนตรี	-10.0822
สะอาด	-10.0822
อวัยวะ	-10.0822
ถล่ม	-10.0823
▁เหมือนที่	-10.0826
หลวง	-10.0834
จ์	-10.0835
ความเสียหาย	-10.0836
แค่อยาก	-10.0836
ต่างประเทศ	-10.0838
มองหา	-10.0841
เคยได้ยิน	-10.0842
เคลื่อน	-10.0844
เลยครับ	-10.0844
รู้จักกัน	-10.085
ซาร์	-10.0851
กรณี	-10.0854
วิลเลียม	-10.0862
ผู้เล่น	-10.0862
ห่า	-10.0862
หิมะ	-10.0863
ดาวเคราะห์	-10.0865
ตอนผม	-10.0867
แค่นี้	-10.0867
ถึงได้	-10.0868
▁เผื่อ	-10.0873
เลย์	-10.0874
ดึก	-10.0876
ละก็	-10.0877
อาจมี	-10.0878
ท่าเรือ	-10.0878
57	-10.0885
เน่า	-10.0886
เงียบๆ	-10.089
เราน่าจะ	-10.0892
▁เธฅเธฐเธ	-10.0904
ผู้อํานวยการ	-10.0904
ท่ามกลาง	-10.0904
งดงาม	-10.0904
การณ์	-10.0904
▁เธฃเธทเน	-10.0905
แจ๊ค	-10.0905
แม้จะ	-10.0905
แบร์รี่	-10.0906
ไม่ใช่เหรอ	-10.0914
น่าเบื่อ	-10.0916
สิ่งต่างๆ	-10.0917
อุ่น	-10.0924
ดรา	-10.0934
ส่อง	-10.0938
เซฟ	-10.0941
มหาศาล	-10.0949
ลัง	-10.0961
ด้านหลัง	-10.0963
ไม่ใช่คน	-10.0964
บอกเรา	-10.0968
ฉันชื่อ	-10.0969
ข้างๆ	-10.0976
ข้างหลัง	-10.0978
กระบวนการ	-10.0986
แดเนียล	-10.0986
ยอมรับว่า	-10.0991
ความสูง	-10.0992
คืนนั้น	-10.0995
คุณหมอ	-10.0996
เจอกับ	-10.0998
พร้อมกับ	-10.1
เกีย	-10.1003
▁นั่นมัน	-10.1006
กั้น	-10.1012
ที่อยู่ใน	-10.1013
จะทํายังไง	-10.1014
ไม่ว่าจะ	-10.1018
▁เธกเธตเธ	-10.102
กับแม่	-10.1027
เครื่องยนต์	-10.1028
บรรยาย	-10.1028
สละ	-10.1028
กดดัน	-10.1031
จะกลายเป็น	-10.1047
วาร์	-10.1052
ผมหมายถึง	-10.1054
ขึ้นอยู่กับ	-10.1055
โร่	-10.1055
รับทราบ	-10.1055
ถ้าพวกเขา	-10.1058
เฉ	-10.1059
เคิล	-10.1068
จังหวะ	-10.1069
สกปรก	-10.1069
ดวงอาทิตย์	-10.1073
ดีใจที่	-10.1076
จําได้ว่า	-10.1081
ทิ้งไว้	-10.1084
รีด	-10.1085
เราจะไป	-10.1087
เดินทางไป	-10.1089
คุณบอกว่า	-10.1092
ใส	-10.1092
เองก็	-10.1102
เจ้าชาย	-10.1103
ทําให้เธอ	-10.1111
กล่าวว่า	-10.1111
สถาบัน	-10.1111
พอแล้ว	-10.1114
ตามล่า	-10.1117
แก้ปัญหา	-10.1117
คู่หู	-10.112
ไฟล์	-10.1129
เท่	-10.1138
ไข้	-10.1139
บ่น	-10.1144
เสื่อม	-10.1153
เหลือง	-10.1154
▁เราจะได้	-10.1154
รัม	-10.1154
เงินเดือน	-10.1155
ล่วงหน้า	-10.116
เด็ด	-10.1161
มีอาการ	-10.1162
แล้วไง	-10.1164
ต่างกัน	-10.1167
งี้	-10.1169
สบายใจ	-10.117
ชื่อเสียง	-10.1174
ไรอัน	-10.1175
รก	-10.118
เขากําลัง	-10.1181
ไปเถอะ	-10.1184
ทีละ	-10.1187
เคยทํา	-10.1188
งานแต่ง	-10.1193
สตา	-10.1194
ให้หมด	-10.1195
ทรยศ	-10.1195
บราวน์	-10.1195
อย่างเป็นทางการ	-10.1196
ว่ะ	-10.1196
คัง	-10.1196
ตอนฉัน	-10.1199
จอห์นนี่	-10.12
▁ล้านวอน	-10.1203
มันเกิดขึ้น	-10.1203
หน่อยสิ	-10.1204
มอส	-10.1205
เรซ	-10.1207
สาวน้อย	-10.1213
ตูด	-10.1214
เป็นโรค	-10.1214
มีส่วน	-10.1226
ยว	-10.1234
ปริมาณ	-10.1238
เบีย	-10.1239
เล่นเกม	-10.1245
เงา	-10.1247
อันนี้	-10.1257
ญา	-10.1259
ฮิว	-10.1259
มป์	-10.1259
อีกต่อไป	-10.1262
สระ	-10.1262
ชอ	-10.1263
คิดจะ	-10.1264
ฃเน	-10.1272
▁120	-10.1274
ตกใจ	-10.1275
อย่างดี	-10.1276
ไปกว่า	-10.1278
จะสามารถ	-10.128
ภายนอก	-10.128
นายกเทศมนตรี	-10.128
ซีไอเอ	-10.128
ขี่	-10.1281
ได้อย่าง	-10.1287
เข้ากับ	-10.129
เกต	-10.1295
▁ทั้งๆ	-10.1301
เธอต้อง	-10.1303
ทางเลือก	-10.1303
ปีน	-10.1307
พวกแก	-10.131
แถวนี้	-10.1311
ฮิล	-10.1311
แจ็ก	-10.1313
ซึ	-10.1319
ตอนที่ผม	-10.1321
สั้นๆ	-10.1321
ี่ยว	-10.1322
จู่โจม	-10.1323
ละเมิด	-10.1323
ึ่ง	-10.1324
ปเปอร์	-10.1324
ปรา	-10.133
เด่น	-10.133
วูด	-10.1332
เซ็กซ์	-10.1333
ผิดหวัง	-10.1333
แอม	-10.1335
คุณควร	-10.1341
▁โดยไม่มี	-10.135
มันเป็นเรื่อง	-10.1351
โรม	-10.1352
58	-10.1353
๊ง	-10.1353
89	-10.1353
วิช	-10.1357
ศักดิ์สิทธิ์	-10.1366
▁เธงเธฒเธกเธ	-10.1369
แกะ	-10.1369
เข้าใจผิด	-10.1372
ทิม	-10.1373
▁เธซเธฃเธญ	-10.1375
ตู	-10.1377
ตอนเช้า	-10.1377
ลีโอ	-10.138
เหรอคะ	-10.1383
นุ	-10.1388
เก่าๆ	-10.1389
▁ว่าฉัน	-10.1401
รับรู้	-10.1408
เจรจา	-10.1409
ผืน	-10.1409
อ่อนแอ	-10.1415
ติดเชื้อ	-10.1416
ถูกพบ	-10.142
แนะนําให้	-10.142
ไซด์	-10.1421
ฟอ	-10.1421
68	-10.1425
ไปหน่อย	-10.1427
ในนั้น	-10.1433
คลา	-10.1439
แตกต่าง	-10.1447
อัจฉริยะ	-10.1452
วิลเลี่ยม	-10.1452
▁พฤศจิกายน	-10.1452
ผนัง	-10.1454
ดูหนัง	-10.1463
รัด	-10.1464
ถ้าเกิด	-10.1467
เจ้าหญิง	-10.1476
ปธน	-10.1487
ทําอาหาร	-10.1489
สักคน	-10.1491
ชัค	-10.1493
้ก	-10.1495
มัธยม	-10.1495
ใกล้ชิด	-10.1496
ชอว์	-10.1497
ลึกลับ	-10.1502
เตา	-10.1504
กรง	-10.1504
นักรบ	-10.1505
▁เมษายน	-10.1506
ออกไปจาก	-10.1513
นายอําเภอ	-10.1515
เรียง	-10.1521
ยาวนาน	-10.1524
รักษาความปลอดภัย	-10.1526
ยอน	-10.1527
ปอด	-10.1529
ฃ	-10.153
กับลูก	-10.1531
ยัน	-10.1531
ถนนสาย	-10.1531
วันศุกร์	-10.1531
▁เธญเธขเธนเน	-10.1532
โซล	-10.1534
การประชุม	-10.1536
ของมนุษย์	-10.1537
ทรัพย์	-10.154
หน้ากาก	-10.154
ยุ่งกับ	-10.1541
▁เซ็นต์	-10.1541
ไม่สน	-10.1541
เช็ก	-10.1548
เซนต์	-10.1549
วิลสัน	-10.1555
▁โอเคมั้ย	-10.1557
เธอบอกว่า	-10.1562
สแกน	-10.1576
ไม่ถูก	-10.1578
บาน	-10.1578
ทั้งหมดนี้	-10.1579
ทางเหนือ	-10.1584
ภาระ	-10.1585
เกิดมา	-10.1587
นับถือ	-10.1593
กินข้าว	-10.1594
ช้าๆ	-10.1597
เชฟ	-10.16
ถ่ายรูป	-10.1608
ตายไปแล้ว	-10.1609
มันไม่ได้	-10.161
บ่อ	-10.1611
เที่ยง	-10.1614
กินอาหาร	-10.1617
บอกเขาว่า	-10.1617
คาดหวัง	-10.1619
ใหญ่ๆ	-10.1624
▁ระหว่างที่	-10.1627
กรุง	-10.1627
กัล	-10.1629
โครงสร้าง	-10.1631
ปลดปล่อย	-10.1632
เพื่อนรัก	-10.1635
ใช้งาน	-10.1637
ตัวนี้	-10.164
อย่างยิ่ง	-10.164
▁ฉันเข้าใจ	-10.1641
เวีย	-10.1643
ผบ	-10.1647
กลม	-10.1652
19	-10.1654
ผมชอบ	-10.1654
เผ่า	-10.166
▁เอาเลย	-10.166
เป็นไปไม่ได้	-10.1664
25	-10.1664
เอมี่	-10.1665
หญ้า	-10.1672
วัล	-10.1672
นั่งอยู่	-10.1675
ผิวขาว	-10.1676
ความสําเร็จ	-10.168
▁ผมแค่	-10.168
หยาง	-10.1685
แถม	-10.1685
ไม่มีการ	-10.1686
พูดตรงๆ	-10.1688
▁เธฃเธดเธ	-10.1692
กับพ่อ	-10.1696
ตามมา	-10.1697
เฮน	-10.1706
ใช้เงิน	-10.171
อย่างเช่น	-10.1712
ปัญญา	-10.1714
ไว้ก่อน	-10.1717
เเต่	-10.1718
ตอนนี้เรา	-10.1721
ลวง	-10.1723
ไม่หรอก	-10.1731
เวที	-10.1733
สลาย	-10.1735
แคร์	-10.1737
สิ่งที่เกิดขึ้น	-10.1743
ฎ	-10.1744
บันได	-10.1746
อย่างหนัก	-10.1747
แปลกใจ	-10.1748
มากเกินไป	-10.1751
▁ธันวาคม	-10.1761
ซัง	-10.1761
สหรัฐอเมริกา	-10.1763
็อป	-10.1767
เราเจอ	-10.177
กอร์	-10.1775
15	-10.1786
บอกผมว่า	-10.1786
ไช	-10.179
เมื่อเรา	-10.179
เยอะมาก	-10.1793
โหด	-10.1801
ตลอดไป	-10.1805
ผิวดํา	-10.1808
อดทน	-10.1809
เช็ด	-10.181
ร่วมกับ	-10.1813
ตเตอร์	-10.1813
เคลื่อนไหว	-10.1817
▁เธตเธขเธ	-10.182
ความกลัว	-10.1821
เด็กอายุ	-10.1826
รวมถึง	-10.183
เลือกตั้ง	-10.1832
มีพลัง	-10.1838
บางสิ่ง	-10.1838
ตับ	-10.1851
ฮิตเลอร์	-10.1851
เมื่อกี้	-10.1853
ปุ	-10.1854
ทารก	-10.1854
ดอลลาร์	-10.1856
เทค	-10.1858
ร่วมงาน	-10.1873
แบก	-10.1879
ขนส่ง	-10.1882
ไม่หยุด	-10.1884
ไม่สําคัญ	-10.1887
เพื่อช่วย	-10.189
เศรษฐกิจ	-10.1896
เสิร์ฟ	-10.1896
ร่วง	-10.1896
ให้ข้า	-10.1898
สวยงาม	-10.19
เป๊ะ	-10.19
▁เพราะเรา	-10.1901
เธญเธฐ	-10.1901
นักล่า	-10.1903
ห่วย	-10.1911
ใส่ใจ	-10.1918
ที่ไม่มี	-10.1922
▁นั่นเป็น	-10.1925
ผู้ชนะ	-10.1925
เมื่อเช้านี้	-10.1927
เปรียบ	-10.1928
ก็น่าจะ	-10.1937
แคบ	-10.1938
ลึกๆ	-10.1938
ความเสี่ยง	-10.1939
หุบปาก	-10.1941
สมาคม	-10.1942
พึ่ง	-10.1944
▁ที่เป็น	-10.1947
ดวงดาว	-10.195
ปะ	-10.1952
คิดว่ามัน	-10.1953
ชาน	-10.1954
ที่โรงเรียน	-10.1955
ขัน	-10.1955
ตรงข้าม	-10.1959
จรวด	-10.1965
ทช์	-10.1968
นักกีฬา	-10.1973
ผมเพิ่ง	-10.1974
ตอบแทน	-10.1974
กล่าวหา	-10.1978
นักศึกษา	-10.1984
นั่นก็	-10.1985
มหาลัย	-10.1987
ศาสตราจารย์	-10.1987
แอฟริกา	-10.1987
ทอมมี่	-10.1989
เพลิง	-10.1991
ซื่อ	-10.1993
เรามีเวลา	-10.1995
สื่อสาร	-10.1997
นายท่าน	-10.2001
เช่นเดียวกับ	-10.2001
เหอะ	-10.2002
เพรส	-10.2002
เฟรด	-10.2003
เริ่มจาก	-10.2005
มากกว่านี้	-10.2017
▁เดือนก่อน	-10.2021
ซิง	-10.2023
ความรู้	-10.203
อุตสาหกรรม	-10.2033
▁มกราคม	-10.2033
เด็ดขาด	-10.2035
เสา	-10.2036
ผู้ก่อการร้าย	-10.2045
พบกัน	-10.2052
กั้	-10.2054
ใช่ค่ะ	-10.206
สักพัก	-10.2063
เธอไม่ได้	-10.2069
เมื่อวันที่	-10.2071
แป	-10.2072
ิ่น	-10.2079
ศิลปิน	-10.2079
กิจกรรม	-10.208
เอ๊ย	-10.2082
ได้พบ	-10.2084
ซิม	-10.209
การเงิน	-10.2091
นี่ไง	-10.2093
แม็ค	-10.2099
โทษที	-10.21
ทางใต้	-10.2101
เรียล	-10.2102
ไปส่ง	-10.2103
มาเรีย	-10.2114
ยังไงก็ตาม	-10.2114
จด	-10.2116
ออฟ	-10.2116
สั่น	-10.2119
เบอ	-10.212
ความหมาย	-10.2121
เพี้ยน	-10.2125
▁กรกฎาคม	-10.2125
เหมือง	-10.2125
กันแน่	-10.2126
เลิศ	-10.2135
ฉันรู้จัก	-10.2138
ไม่น่า	-10.2141
ริล	-10.2142
วิค	-10.2143
ส่งข้อความ	-10.2158
ซเธ	-10.2161
เชื่อใจ	-10.2161
เยี่ยมมาก	-10.2163
ทุกครั้ง	-10.2166
ยิว	-10.2169
สาธารณะ	-10.2171
ความต้องการ	-10.2171
ทําความสะอาด	-10.2172
ซัล	-10.2176
ใครก็ตามที่	-10.2176
เป็นเกียรติ	-10.2177
รังสี	-10.2177
เรารู้	-10.2178
อ้าว	-10.2181
แฟร์	-10.2181
โคเคน	-10.2189
▁เพราะเธอ	-10.2191
เพราะฉะนั้น	-10.2194
ก็จริง	-10.2199
ดจ์	-10.2205
กับนาย	-10.2206
กิล	-10.2209
เขียว	-10.2216
แคม	-10.2217
หญิงสาว	-10.2218
พก	-10.2218
เหยียบ	-10.2219
▁สิงหาคม	-10.2219
ความเป็นไปได้	-10.222
โล่	-10.222
78	-10.2223
จู่	-10.2231
ก็เริ่ม	-10.2232
ทํางานกับ	-10.2236
ใช้มัน	-10.2237
วิต	-10.2239
มั่น	-10.2241
น้า	-10.2248
ลอส	-10.2249
ถือเป็น	-10.2255
ทะเบียน	-10.2257
อย่างแรก	-10.226
มรดก	-10.2266
ราชวงศ์	-10.2266
อิตาลี	-10.2266
มื้อค่ํา	-10.2272
สุดสัปดาห์	-10.2279
อะไรบ้าง	-10.2281
ไปก่อน	-10.2287
เป็นผู้นํา	-10.229
เห็นไหม	-10.2291
ออส	-10.2294
ยังเด็ก	-10.2298
ฉันพูด	-10.231
ปฏิ	-10.2313
ท้าทาย	-10.2313
เป็นไงบ้าง	-10.2317
จุดที่	-10.2322
เก็บไว้	-10.2323
▁ยูโร	-10.2323
ดีไหม	-10.2324
มีงาน	-10.2325
ครา	-10.2325
ห้องนอน	-10.2331
เพียงแต่	-10.2333
ผมยัง	-10.2338
59	-10.2339
ี้ย	-10.2343
เหลืออีก	-10.2349
พ่อฉัน	-10.2349
หน่วยงาน	-10.2349
ดง	-10.235
นัง	-10.2351
ขีด	-10.236
เซ็กซี่	-10.236
ว่ายน้ํา	-10.2361
เล็บ	-10.2369
ที่จริงแล้ว	-10.2369
มอนด์	-10.2371
ออกจากบ้าน	-10.2371
จัดงาน	-10.2372
แล็บ	-10.2372
ทําสิ่งที่	-10.2373
มัส	-10.2379
ทั้งคืน	-10.2382
ที่ยิ่งใหญ่	-10.2382
นาซี	-10.2385
ข้างล่าง	-10.2388
แดนนี่	-10.239
มีผล	-10.239
มานั่ง	-10.2397
มาตั้งแต่	-10.2406
สูท	-10.2408
เด็กผู้หญิง	-10.241
วาฬ	-10.241
โพสต์	-10.2412
แอส	-10.2414
แห่งความ	-10.2414
คนอย่าง	-10.2415
โกง	-10.2419
จับตัว	-10.2419
แย่มาก	-10.2423
มีบางอย่าง	-10.2424
พลเมือง	-10.2428
อยู่ด้วย	-10.2431
นอนกับ	-10.2433
แกรี่	-10.2437
บัน	-10.2438
ดิบ	-10.2442
คงเป็น	-10.2452
▁มีนาคม	-10.2456
ขํา	-10.2456
คืนมา	-10.2468
ไหล่	-10.2474
ไม่มีเวลา	-10.2486
▁ว่าเรา	-10.2489
ลิ่ง	-10.249
ย่าง	-10.2493
นัล	-10.2495
บึ	-10.2498
แตะ	-10.2499
นิตยสาร	-10.2504
พัค	-10.2504
รู้อะไรไหม	-10.2504
ช่วยฉัน	-10.2505
ที่ต้องการ	-10.2505
เล่าให้	-10.2509
น้ําตาล	-10.2513
เป่า	-10.2517
บางส่วน	-10.2522
ความร้อน	-10.2522
พาร์ค	-10.2529
รถบรรทุก	-10.2531
แมค	-10.2532
หน้าอก	-10.2545
พิซซ่า	-10.2552
เลี้ยว	-10.2552
เลี่ยง	-10.2552
ปลูก	-10.2552
ใช่ครับ	-10.2553
แฟ้ม	-10.2554
ตีพิมพ์	-10.2558
อยู่ใต้	-10.2561
การทดสอบ	-10.2562
ฉันพยายาม	-10.2564
โอน	-10.2566
ร้าง	-10.2566
เลี้ยงดู	-10.2567
มันอาจจะ	-10.2582
เขาเป็นคน	-10.2583
น่าเศร้า	-10.2587
80	-10.2587
ขอแนะนํา	-10.2591
ในช่วงเวลา	-10.2596
พัด	-10.26
เท็กซัส	-10.26
▁พฤษภาคม	-10.26
▁กิโลกรัม	-10.2601
มังกร	-10.2602
โหดร้าย	-10.2603
ผมขอโทษ	-10.2603
▁เข้าใจมั้ย	-10.2605
ทัวร์	-10.2607
คําให้การ	-10.2607
วอลเตอร์	-10.2608
นึกภาพ	-10.261
ของชีวิต	-10.2615
เอ้า	-10.2619
ผมอยากให้	-10.262
เวลล์	-10.2623
เกี่ยวกับการ	-10.2623
เป็นผู้หญิง	-10.2625
ไปเอา	-10.2633
ชิ้นส่วน	-10.2634
ผมรู้สึก	-10.2635
ก็พอ	-10.2637
▁ฮั	-10.264
อะไรบางอย่าง	-10.2645
ในอดีต	-10.2649
เบาะแส	-10.2649
ฮัลโหล	-10.265
เชียร์	-10.2659
เทศ	-10.2659
กิจการ	-10.266
ปีที่ผ่านมา	-10.266
พลา	-10.2662
ของพวกเรา	-10.2666
มั่ง	-10.2667
ตอนที่คุณ	-10.2673
ลาออก	-10.2688
สัง	-10.2695
ขอโทษที	-10.2698
ตอบว่า	-10.2698
นายกฯ	-10.2699
ทําไมถึง	-10.2699
สะสม	-10.2701
ระบาย	-10.2702
เป็นพ่อ	-10.2712
งู	-10.2715
ตัวละคร	-10.2722
ต่อวัน	-10.2723
มื้อ	-10.2724
ทิศทาง	-10.2725
ด้วยความเร็ว	-10.2726
ชาร์ล	-10.2733
ไม่เคยมี	-10.2741
ตั้งแต่ปี	-10.2742
พิสูจน์ว่า	-10.2743
ไอเดีย	-10.2746
ประสบ	-10.2747
นั่นไม่ใช่	-10.2748
ชั่วคราว	-10.2751
ทะลุ	-10.2754
▁เธญเธฃเน	-10.2755
ต่อชั่วโมง	-10.2755
เจส	-10.2755
เกิดจาก	-10.2756
เพียบ	-10.2759
มันคง	-10.2764
ในรถ	-10.2765
กรรมการ	-10.2767
75	-10.2769
โฮล	-10.2771
โพร	-10.278
ฤ	-10.2784
นั่นมัน	-10.2788
สอบสวน	-10.2788
แบร์	-10.2791
เกิดเรื่อง	-10.2792
แบน	-10.2794
สิง	-10.2794
พักผ่อน	-10.2798
เตรียมตัว	-10.28
ความจํา	-10.2801
อบอุ่น	-10.2801
ด่า	-10.2803
แสดงว่า	-10.2803
อีเมล	-10.2807
คนงาน	-10.281
กินส์	-10.2814
ชอน	-10.2815
ตนเอง	-10.2815
การควบคุม	-10.282
ความโกรธ	-10.2822
88	-10.2824
ตั้งใจจะ	-10.2826
ลงไปใน	-10.2826
อ่านหนังสือ	-10.2827
จะเกิดขึ้น	-10.283
ไก	-10.2833
93	-10.2834
ช่วยคุณ	-10.2836
ฟฟ์	-10.2837
ในราคา	-10.2846
ทักษะ	-10.2847
เอ็นเตอร์ไพรส์	-10.2847
แถบ	-10.2847
▁ที่ซึ่ง	-10.285
ขึ้นรถ	-10.2854
ชาวอเมริกัน	-10.2857
นานกว่า	-10.2863
ในใจ	-10.2868
ทอร์	-10.287
หุ้นส่วน	-10.2871
ทุ	-10.288
กันหมด	-10.2886
ยืด	-10.2891
เวทมนตร์	-10.2897
มาร์แชล	-10.2898
เธกเธตเน	-10.2902
สิ่งเดียวที่	-10.2906
โถ	-10.2914
สิ่งที่ผม	-10.2915
เดินหน้า	-10.2919
อัพ	-10.292
แห่งชาติ	-10.2922
คนพวกนี้	-10.2922
เพื่อนสนิท	-10.293
กลัวว่า	-10.2931
าะ	-10.2934
เราเคย	-10.2939
สก็อต	-10.2942
จ้า	-10.2945
ปริศนา	-10.2947
มาตรฐาน	-10.2947
เจตนา	-10.2947
▁เธถเน	-10.2948
มอร์แกน	-10.295
ปรากฏ	-10.2955
คลอ	-10.2957
โป๊	-10.2958
เหลือแค่	-10.2958
ดาวเทียม	-10.2958
อย่างรวดเร็ว	-10.296
มีเพื่อน	-10.2961
▁41	-10.2962
พร้อมกัน	-10.2965
ยืนยันว่า	-10.2965
ความพยายาม	-10.2971
บาส	-10.2973
ผลประโยชน์	-10.2974
ปรากฏตัว	-10.2975
เรารู้ว่า	-10.2975
ซุก	-10.2981
เทียบกับ	-10.2989
แต่งตั้ง	-10.2992
ตตี้	-10.2994
67	-10.2995
วิถี	-10.2998
อิทธิพล	-10.2998
เหยียด	-10.2998
เกราะ	-10.2999
ปีก	-10.3001
เว็บ	-10.3002
ั้	-10.3003
แทนที่จะ	-10.3003
สีดํา	-10.3005
น่าสงสาร	-10.3007
บอร์ด	-10.3008
แค้น	-10.3009
แทรก	-10.302
วันหยุด	-10.3026
คุณเห็น	-10.3027
ชู้	-10.3032
กับผู้หญิง	-10.3034
คลิป	-10.3034
เชน	-10.3039
เหรอครับ	-10.3042
สเตฟาน	-10.3043
เร็วกว่า	-10.3044
แบบไหน	-10.3045
66	-10.3046
ประมูล	-10.3048
สแต	-10.3049
สําหรับฉัน	-10.305
เป็นแม่	-10.3054
แทนที่	-10.306
ในพื้นที่	-10.3061
ก่อสร้าง	-10.3064
บนเตียง	-10.3065
จําลอง	-10.307
อัป	-10.3071
เก็บของ	-10.3071
สูงขึ้น	-10.3074
วันเสาร์	-10.3078
พูดคุย	-10.308
วิง	-10.3082
ทส์	-10.3086
รู้ตัว	-10.3088
รถยนต์	-10.3099
ภรรยาของ	-10.3099
เจย์	-10.3103
ไฟไหม้	-10.3105
เอ็ดดี้	-10.3105
ตามกฎหมาย	-10.3107
ช่า	-10.311
ตื่นขึ้นมา	-10.3112
หรือไง	-10.3114
แส	-10.3115
ไต่	-10.3116
คอส	-10.3124
แวะมา	-10.3125
เขาอายุ	-10.3126
ดูดี	-10.313
คราวนี้	-10.3131
เชื่อม	-10.3141
ตรงกับ	-10.3144
69	-10.3147
ไปเรื่อยๆ	-10.3148
ข่าวลือ	-10.3153
ถ้ํา	-10.3153
มาร่วม	-10.3154
ซะอีก	-10.3156
ลูกน้อง	-10.3157
ใจดี	-10.3157
แคส	-10.3158
71	-10.3159
รู้แล้ว	-10.3164
ล้อเล่น	-10.3165
ให้ลูก	-10.3181
ต้าน	-10.319
ถึงจุด	-10.3191
กรัม	-10.3193
ใส่ชุด	-10.3196
สูงกว่า	-10.3196
แคร	-10.3201
สุภาพสตรี	-10.3203
ทะเลทราย	-10.3204
เชือก	-10.3204
ไอ้พวก	-10.3205
เป็นลูก	-10.3213
รู้ดีว่า	-10.3219
79	-10.322
ซูซาน	-10.3221
กเธทเธญเธ	-10.3221
มุ่งหน้า	-10.3222
ึก	-10.3224
ผมเชื่อว่า	-10.3227
เล่	-10.3228
แฮน	-10.323
กระทํา	-10.324
ที่พัก	-10.3241
ไปทํางาน	-10.3241
ความผิดพลาด	-10.3242
ปีละ	-10.3243
ลัน	-10.3244
ผมไม่เคย	-10.3247
▁เธฅเธฑเธ	-10.3254
อวด	-10.3255
อย่างไรก็ตาม	-10.3256
สํานึก	-10.3257
ไม่คิด	-10.3257
ในคดี	-10.3258
ทางเดิน	-10.3259
กันและกัน	-10.3266
ทะเลาะกัน	-10.3275
เคีย	-10.3275
แรงงาน	-10.3276
มีเพียง	-10.3278
เบ็ค	-10.3279
81	-10.3279
ต่อย	-10.3286
ทางออก	-10.3288
▁เธฃเธฒ	-10.3295
เผย	-10.3299
เครือข่าย	-10.3306
กระแทก	-10.3306
ฉี่	-10.3307
ประสาน	-10.3308
ขอโทษด้วย	-10.3308
ไทเลอร์	-10.3311
แย่ๆ	-10.3314
ไหมคะ	-10.3318
มันไว้	-10.3321
อริ	-10.3321
แต่ตอนนี้	-10.3324
ขอโทษที่	-10.3325
ชเว	-10.3333
ชาวบ้าน	-10.3336
แด่	-10.3336
ต้องหา	-10.3337
ไม่จําเป็นต้อง	-10.334
ไหมครับ	-10.3343
จําไม่ได้	-10.3345
ก่อตั้ง	-10.3347
ธ์	-10.3347
มันยาก	-10.3347
ถูกทําลาย	-10.3349
รู้สึกยังไง	-10.3352
เนียน	-10.3357
กล้ามเนื้อ	-10.3358
แก้แค้น	-10.3359
ท้องฟ้า	-10.3364
ทุบ	-10.337
เป็นแบบนั้น	-10.3374
นําไปสู่	-10.3376
ไม่มีปัญหา	-10.3377
ตัวเล็ก	-10.3377
คุณอาจจะ	-10.3381
ต่อเนื่อง	-10.3387
หมวด	-10.3391
เสร็จแล้ว	-10.3399
ไม่พอ	-10.34
จําคุก	-10.3403
อยู่ห่างจาก	-10.3403
▁เธฅเธข	-10.3408
สตาร์ฟลีท	-10.3411
สํารอง	-10.3412
อนุ	-10.3413
สมรส	-10.3413
เป็นอิสระ	-10.3414
ฟอง	-10.3414
ี๊ย	-10.3415
เทียม	-10.3417
ฮิลล์	-10.3417
ได้โปรด	-10.3422
อยู่ในนั้น	-10.3423
มาจากไหน	-10.3423
แอต	-10.3427
มาเถอะ	-10.3427
สรร	-10.3429
ฮ่า	-10.3432
เปอร์เซ็นต์	-10.3434
แอง	-10.3434
อนุญาตให้	-10.3442
ฉันควร	-10.3444
ในงาน	-10.3449
น้อยลง	-10.3451
ผู้ยิ่งใหญ่	-10.3453
ของประเทศ	-10.3454
สองครั้ง	-10.3455
▁ไม่สิ	-10.3455
คอฟ	-10.3456
รายงานว่า	-10.3456
จักร	-10.3459
คุณรู้ไหม	-10.346
สมุด	-10.3461
เถียง	-10.3464
กระหม่อม	-10.3464
เอมิลี่	-10.3464
แบล็ก	-10.3464
ปัก	-10.3465
เป็นตัวแทน	-10.3467
มันจะเป็น	-10.3468
เพิ่มอีก	-10.347
เราเพิ่ง	-10.3473
ชาร์ลส์	-10.3476
แจ็คสัน	-10.3477
รออยู่	-10.3478
ยังไม่มี	-10.3485
รอให้	-10.3486
เบอร์เกอร์	-10.3487
็อง	-10.3488
บอน	-10.3495
โกะ	-10.3503
เบรน	-10.3505
จําได้ไหม	-10.3508
เอ็ดเวิร์ด	-10.3518
มีทั้ง	-10.3524
ตช์	-10.3528
ย้อนกลับไป	-10.3528
็ป	-10.3538
อยากรู้ว่า	-10.3538
ก็ใช่	-10.3545
ไปรับ	-10.3548
ในนามของ	-10.3559
วงการ	-10.356
▁แต่ยัง	-10.3561
หาตัว	-10.3566
ดอลล่าร์	-10.3571
ปฏิกิริยา	-10.3571
เบิร์น	-10.3571
ปะทะ	-10.3571
ลูอิส	-10.3573
ฮยอน	-10.3574
21	-10.3581
เซ็กส์	-10.3581
หน่อยนะ	-10.3585
โทรไป	-10.3593
73	-10.3595
ไม่เคยเห็น	-10.3598
ริง	-10.3599
จุดนี้	-10.3611
เป็นคนดี	-10.3618
เป็นเพียง	-10.3618
ครี	-10.3618
เขาอาจ	-10.3619
ซซี่	-10.3619
ยะ	-10.3619
เลยค่ะ	-10.3619
ความยุติธรรม	-10.3621
ผมรู้ว่าคุณ	-10.3623
ทราย	-10.3624
เสบียง	-10.3624
แท็กซี่	-10.3626
แฮร์รี่	-10.3626
อยู่คนเดียว	-10.3627
โทมัส	-10.3627
ทําผิด	-10.3628
แต่ละคน	-10.363
คลาส	-10.3631
อิ่ม	-10.3632
ฅเธ	-10.3634
ห่างไป	-10.3634
แจ้งว่า	-10.3637
ที่เกิดเหตุ	-10.3642
เชส	-10.3644
โส	-10.3644
อ่าง	-10.3647
น่ะสิ	-10.3649
กัง	-10.3652
พูดกัน	-10.3652
▁ก่อนที่จะ	-10.3655
ผง	-10.3656
ว่าเกิดอะไรขึ้น	-10.3658
ทราบว่า	-10.366
พรี	-10.3663
จะยอม	-10.3664
เคมี	-10.3665
การเคลื่อนไหว	-10.3665
เธอกําลัง	-10.3675
เปิดตัว	-10.3677
รึยัง	-10.3681
ยุติ	-10.3686
บาล	-10.3687
▁มันเหมือน	-10.369
บ็อบ	-10.3691
ฐก	-10.3691
เหลือเกิน	-10.3695
ยังต้อง	-10.3699
วุ	-10.3705
บรูซ	-10.3708
เจ้าสาว	-10.3712
ชัดๆ	-10.3714
ซาร่า	-10.3714
คุณยัง	-10.3715
ฮอร์	-10.3716
ลอว์	-10.3716
ชายคนนี้	-10.372
ได้เรียนรู้	-10.3721
แต่งงานกัน	-10.3724
ผมจะไม่	-10.3728
เราคุยกัน	-10.3728
ขเน	-10.3729
หลอด	-10.373
ผู้ชม	-10.3732
ศิษย์	-10.3733
ลินคอล์น	-10.3733
ศรัทธา	-10.3733
เจริญ	-10.3733
ชายหาด	-10.3733
ปกปิด	-10.3733
ค่าใช้จ่าย	-10.3734
วัต	-10.3735
การแพทย์	-10.3737
สายพันธุ์	-10.3742
เอ้อ	-10.3745
แอนดี้	-10.3748
ร้านขาย	-10.3751
เชื่อมต่อ	-10.3751
แลง	-10.3755
เห็นมั้ย	-10.3757
ในขณะที่	-10.3758
ความมั่นคง	-10.3766
ลอร์	-10.3766
ความสําคัญ	-10.377
นําเสนอ	-10.3777
สองปี	-10.3779
▁โดยการ	-10.3787
นโยบาย	-10.3787
เนล	-10.3788
ตอนที่เรา	-10.3788
ฝุ่น	-10.3789
โจเซฟ	-10.379
▁ผมคง	-10.3791
เธอคง	-10.3792
ต่างก็	-10.3797
ในป่า	-10.38
ติ้ง	-10.3808
เขาต้องการ	-10.3809
เต้	-10.382
เป็นมนุษย์	-10.3821
เกน	-10.3825
มาร์ก	-10.3831
เรือน	-10.3836
ปาร์ค	-10.3839
สกี	-10.3839
เผ่าพันธุ์	-10.3843
บรร	-10.3847
ตอนที่เขา	-10.3848
ของรัฐ	-10.3848
แอนน์	-10.3855
บ์	-10.3857
คัล	-10.386
ร่ม	-10.3866
เวลส์	-10.3871
การแต่งงาน	-10.3876
พันธ์	-10.3878
ฝา	-10.3883
อยากเห็น	-10.3885
ื่อง	-10.3886
คลั่ง	-10.3893
▁เพื่อที่จะ	-10.3896
บุหรี่	-10.3897
สัญลักษณ์	-10.3898
อนุมัติ	-10.3898
แก๊ส	-10.3898
พลิก	-10.3898
เชียว	-10.3899
จักรยาน	-10.3901
จบแล้ว	-10.3902
ที่เพิ่ง	-10.3902
ต้องการอะไร	-10.3905
เป็นหัวหน้า	-10.3912
▁มาเร็ว	-10.3923
ความรับผิดชอบ	-10.3925
45	-10.3927
เมย์	-10.3928
สกาย	-10.3935
แหง	-10.3937
ทําเพื่อ	-10.3938
ริโอ	-10.3941
ทิส	-10.3942
ของบริษัท	-10.3943
▁แล้วเขาก็	-10.3945
▁สําหรับการ	-10.3948
เหลือเวลา	-10.395
ตกหลุมรัก	-10.3953
หุ่นยนต์	-10.3953
ถิ่น	-10.3955
แคมป์	-10.3956
สอด	-10.3959
รุ่ง	-10.3961
ทัก	-10.3965
รู้ไว้	-10.3966
อาจทําให้	-10.3967
รึไง	-10.3969
โลว์	-10.3969
สําหรับคุณ	-10.3975
ไปพบ	-10.3976
อีสต์	-10.398
ติดอยู่	-10.3983
เดือนละ	-10.3987
แร็	-10.3988
ไปจนถึง	-10.399
มีชื่อเสียง	-10.399
การเมือง	-10.399
ได้อย่างไร	-10.3993
ขอบใจ	-10.3995
เกรซ	-10.3995
ชายที่	-10.3996
ครึ่งหนึ่ง	-10.3997
ที่สําคัญที่สุด	-10.3998
งเธฑเธ	-10.3998
จะนํา	-10.3999
โลกนี้	-10.4
จะเปลี่ยน	-10.4003
ค่ําคืน	-10.4007
กฏหมาย	-10.401
เตรียมพร้อม	-10.4013
คือคนที่	-10.4016
ประกาศว่า	-10.4018
อลัน	-10.4021
การฆ่า	-10.4021
ในทุก	-10.4022
ระยะทาง	-10.4023
เลี้ยงลูก	-10.4028
เอเชีย	-10.403
ทีหลัง	-10.4039
▁เราก็จะ	-10.4039
ที่เรียกว่า	-10.404
การค้า	-10.4051
สักที	-10.4056
ทาร์	-10.4056
แร่	-10.4059
อย่างที่คุณ	-10.4059
โดยตรง	-10.4061
ไม่ยอมให้	-10.4063
วิทยาลัย	-10.4064
ตอบสนอง	-10.4065
อุโมงค์	-10.4065
ดิก	-10.4066
อะไรก็ตามที่	-10.4066
ออนไลน์	-10.4066
เพิ่มเติม	-10.407
สถานะ	-10.4072
▁เพื่อหา	-10.4072
สามปี	-10.4074
เชสเตอร์	-10.4076
แปลง	-10.4082
ผู้สมัคร	-10.4085
สว่าง	-10.4086
ผู้บริหาร	-10.4087
สําหรับผม	-10.4091
เกอ	-10.4097
ชิม	-10.4099
เลียน	-10.41
ลูกสาวของ	-10.4104
แสบ	-10.4108
ซุน	-10.411
ล่วง	-10.4113
แทบจะ	-10.4116
มหัศจรรย์	-10.4122
แรงบันดาลใจ	-10.4122
สนทนา	-10.4122
แป๊บ	-10.4123
เป็นส่วนหนึ่งของ	-10.4123
เรื่อยๆ	-10.4124
แหลม	-10.4125
บอสตัน	-10.4126
ต้องตาย	-10.413
มองดู	-10.4133
คิง	-10.4134
เพียงพอ	-10.4137
ทําอย่างนั้น	-10.4138
ว่าเขาจะ	-10.4139
คุณจะต้อง	-10.414
เข้าใจแล้ว	-10.4141
ซึม	-10.4143
บ้างไหม	-10.4144
ดูเหมือนจะ	-10.4146
จะไม่มีวัน	-10.4152
อาทิตย์ก่อน	-10.4154
นั่งลง	-10.4158
กับใคร	-10.4159
▁98	-10.4167
เคยเจอ	-10.4172
ได้รับอนุญาต	-10.4173
ัญ	-10.4175
ส่วนที่	-10.4178
จักรพรรดิ	-10.4179
สักครู่	-10.4179
08	-10.4179
ขัดขวาง	-10.418
เว่น	-10.4184
มองไม่เห็น	-10.4193
อะไรแบบนั้น	-10.4195
รุก	-10.4196
จอดรถ	-10.4196
นัน	-10.4196
ซอก	-10.4199
ทิ่	-10.4201
มันก็แค่	-10.4209
ครีม	-10.4211
บอกเขา	-10.4213
แพน	-10.4215
็อบ	-10.4229
พวกท่าน	-10.423
รณ	-10.4232
หลังคา	-10.4232
ผู้กํากับ	-10.4236
จัดการกับ	-10.4237
กอร์ดอน	-10.4237
มีหลักฐาน	-10.4243
มุน	-10.4251
จะเปิด	-10.4253
ดัล	-10.4255
มากแค่ไหน	-10.4257
เหลือเชื่อ	-10.4263
ยิน	-10.4265
ิ้ล	-10.4266
ยังมีชีวิตอยู่	-10.4269
สักนิด	-10.4269
บัด	-10.427
เราเห็น	-10.4271
แท้ๆ	-10.4278
ไม่แน่ใจ	-10.4279
ฟาร์	-10.428
จดจํา	-10.4284
ใกล้เคียง	-10.4293
ธง	-10.4294
กเธฒเธ	-10.4295
เคิร์	-10.4298
เซ่น	-10.43
ภา	-10.4305
หนึ่งปี	-10.4311
ลืมไป	-10.4312
ไม่ทราบ	-10.4317
ชะ	-10.4321
ซ่อนตัว	-10.4326
วันอาทิตย์	-10.4336
เบย์	-10.4344
ชิป	-10.4348
โด่งดัง	-10.4351
อัลฟ่า	-10.4351
กองทุน	-10.4355
ขณะเดียวกัน	-10.4356
เพื่อนร่วม	-10.4357
หายนะ	-10.4363
ปอนด์	-10.4372
ช้าง	-10.4373
ข้างบน	-10.4395
ด่าน	-10.4396
มีความผิด	-10.4397
แอด	-10.4401
พร้อมจะ	-10.4402
เงื่อนไข	-10.4409
ลอบ	-10.441
คลุม	-10.4413
นายคิดว่า	-10.4418
เพร	-10.4421
ผู้หญิงคนนี้	-10.4422
ไนท์	-10.4424
เคลลี่	-10.4425
▁53	-10.4426
ละลาย	-10.4426
▁แล้วเราก็	-10.4429
เบ็น	-10.4432
ในรัศมี	-10.4435
หย	-10.4448
ฉันอยากจะ	-10.4452
เมื่อวานนี้	-10.4456
รถถัง	-10.4461
บรรยากาศ	-10.4463
ตั้งชื่อ	-10.4466
เคลียร์	-10.4467
ถัดไป	-10.4468
เหม็น	-10.4468
ผลัก	-10.4469
ชําระ	-10.4469
47	-10.447
มิว	-10.4471
สนง	-10.4471
เย็บ	-10.4471
ทื	-10.4472
ความแตกต่าง	-10.4476
แลกเปลี่ยน	-10.4476
ไลน์	-10.448
ทองคํา	-10.4481
▁เธขเน	-10.4484
เป็นแบบนี้	-10.4486
ทริป	-10.4487
ติดตั้ง	-10.4495
เรล	-10.4498
เทียน	-10.4498
การเลือกตั้ง	-10.4498
รู้มั้ยว่า	-10.45
สีฟ้า	-10.4501
ตัดสินใจว่า	-10.4505
ในแง่	-10.4507
ยกเว้น	-10.4509
ของหนู	-10.4512
ทุกสิ่ง	-10.4519
▁51	-10.4525
เซียน	-10.4526
ชดเชย	-10.4526
เบสบอล	-10.4526
นสพ	-10.4528
กล่อม	-10.4528
อยู่รอด	-10.4529
ดึงดูด	-10.4529
ขอเวลา	-10.4533
ตัวใหญ่	-10.4537
ฆ่าเขา	-10.4541
ในคุก	-10.4545
ไม่พบ	-10.4545
18	-10.4548
ไปซื้อ	-10.4551
นิน	-10.4554
กลางคืน	-10.4556
ห่วยๆ	-10.4564
เกลือ	-10.4565
แอช	-10.4566
ของครอบครัว	-10.4572
ต้องจ่าย	-10.4575
หนทาง	-10.4575
วันจันทร์	-10.4578
ซะที	-10.4588
หลอดเลือด	-10.4589
ต่อปี	-10.4591
อุ้ม	-10.4591
สีขาว	-10.4592
ไพร	-10.4593
หกเดือน	-10.4595
รั่ว	-10.4596
ทุกเรื่อง	-10.4602
เข้าคุก	-10.4612
เละ	-10.4612
ค่าจ้าง	-10.4617
โย่	-10.462
ขอโทษจริงๆ	-10.4623
ไล่ตาม	-10.4629
ทั่วประเทศ	-10.4629
เวย์น	-10.4638
ออกซิเจน	-10.4645
ท่องเที่ยว	-10.4646
ตอนเรา	-10.465
อึน	-10.4651
▁911	-10.4653
ชิล	-10.4659
ลงจอด	-10.4661
ทะเลสาบ	-10.4665
วันพรุ่งนี้	-10.4666
คุณแม่	-10.4668
คลัง	-10.467
ดวงตา	-10.4671
คิดดู	-10.4675
ทายาท	-10.4676
แรม	-10.4677
คาล	-10.4679
จะได้เห็น	-10.4688
แนน	-10.47
ฟอก	-10.4702
เธฒเธขเธ	-10.4703
กระป๋อง	-10.4705
ผึ้ง	-10.4705
อาณานิคม	-10.4705
กรุ๊ป	-10.4705
เอเลน่า	-10.4705
หม่า	-10.471
โรมัน	-10.4712
คุณมีเวลา	-10.4714
เหน	-10.4715
61	-10.4716
เลิฟ	-10.4724
มิค	-10.4724
ที่แสน	-10.4725
▁กว่าจะ	-10.4725
โดนจับ	-10.4733
ประท้วง	-10.4738
ย่อม	-10.4739
เขาเคย	-10.4739
เก่งมาก	-10.4745
ทุกวันนี้	-10.4745
เรื่อย	-10.4745
เครื่องดื่ม	-10.4747
จากนี้ไป	-10.4753
แขวน	-10.4762
ให้เวลา	-10.4763
บิด	-10.4764
ตราบใดที่	-10.4765
กล้องวงจรปิด	-10.4765
กลืน	-10.4765
พราก	-10.4766
ข้าพเจ้า	-10.4766
มุ่งมั่น	-10.4766
77	-10.4766
การ์เซีย	-10.477
้บ	-10.4771
▁180	-10.4771
ทําร้ายร่างกาย	-10.4772
แท่ง	-10.4774
ญเธขเธนเน	-10.4776
ฉันสามารถ	-10.4777
ทําใจ	-10.4779
ทําธุรกิจ	-10.4783
เหลืออยู่	-10.4789
การพิจารณาคดี	-10.4798
ซิก	-10.4799
ขอโทษครับ	-10.4802
บัล	-10.4804
เขาอาจจะ	-10.4805
รับสาย	-10.4808
คเกอร์	-10.4812
หนึ่งชั่วโมง	-10.4814
ราวกับ	-10.4816
สามวัน	-10.4821
เหลว	-10.4824
ลงเอย	-10.4825
ตุ๊กตา	-10.4826
โหวต	-10.4826
ผัก	-10.4826
พับ	-10.4826
ท่าทาง	-10.4828
ผา	-10.4829
เราอาจจะ	-10.4831
ลอเรน	-10.4839
ตอนกลางคืน	-10.484
แข่งขัน	-10.4848
ช่วงเวลาที่	-10.4848
เพราะถ้า	-10.486
ตรงๆ	-10.4861
จับกุม	-10.4864
เรเชล	-10.4872
สตรีท	-10.4872
เบลีย์	-10.4876
76	-10.4884
หนังเรื่อง	-10.4885
บุกรุก	-10.4887
ผลลัพธ์	-10.4887
หวาดกลัว	-10.4887
ก๊าซ	-10.4887
เบอร์ลิน	-10.4887
สิ่งแวดล้อม	-10.4888
เชื้อเพลิง	-10.4888
งั้นหรือ	-10.4889
อุทิศ	-10.4889
▁ตกลงไหม	-10.4893
ผมรู้จัก	-10.4902
▁จอห์นสัน	-10.4903
เที่ยงคืน	-10.4906
มุมมอง	-10.4906
▁54	-10.491
▁มันทําให้	-10.4915
เธออายุ	-10.4918
เป็นบ้า	-10.4924
แม่เหล็ก	-10.4926
ยอร์	-10.4926
ในอเมริกา	-10.4932
ตอนบ่าย	-10.494
ห้าปี	-10.4941
เกษียณ	-10.4948
▁เธณเธฅเธฑเธ	-10.4948
กบฏ	-10.4948
ซับ	-10.4949
เทศกาล	-10.4949
ธรรมเนียม	-10.4949
แอนดรูว์	-10.4949
เทีย	-10.4955
ลิฟ	-10.4959
๊ป	-10.4962
แลนซ์	-10.4965
มาให้ฉัน	-10.4971
พันธ	-10.4971
มีส่วนร่วม	-10.4974
อ้า	-10.4975
▁ผู้ซึ่ง	-10.498
ยุน	-10.4984
โรเจอร์	-10.4985
โทรกลับ	-10.4985
17	-10.4989
ฮัม	-10.499
ห่อ	-10.4997
พระเยซู	-10.501
วีรบุรุษ	-10.501
เพิร์	-10.501
ตอบคําถาม	-10.5015
เสียสละ	-10.5017
ประทาน	-10.5018
ั้ง	-10.5019
เธีย	-10.502
เสียใจด้วย	-10.5021
ชายแดน	-10.5026
ทางการแพทย์	-10.5026
รับมือ	-10.503
เตีย	-10.5055
นิโคล	-10.5055
ฉันได้ยิน	-10.5057
ระดับสูง	-10.5059
เมื่อคืนนี้	-10.5065
ให้แน่ใจว่า	-10.5067
จีบ	-10.5069
ข้อเท็จจริง	-10.5072
ภาพยนตร์	-10.5072
ภาวนา	-10.5072
สไตล์	-10.5072
คนตาย	-10.5072
บาทหลวง	-10.5072
คนแปลกหน้า	-10.5074
ท่อง	-10.5074
รอม	-10.5077
การบิน	-10.5077
แบงค์	-10.5077
จันทร์	-10.5078
ให้ใคร	-10.5079
ถูกตัดสิน	-10.5079
โดยเฉพาะ	-10.5081
บอกคุณว่า	-10.5082
เน้น	-10.5085
สําคัญมาก	-10.5088
หมัด	-10.509
สบายๆ	-10.5091
มีความสามารถ	-10.5096
ไลท์	-10.5101
ญเธตเธ	-10.5102
อิง	-10.5105
ไม่ค่ะ	-10.5106
คบกัน	-10.511
ภพ	-10.5113
น่ะครับ	-10.5119
เผื่อ	-10.5119
อ้อม	-10.5126
พันธุกรรม	-10.5135
เหงื่อ	-10.5135
แฝด	-10.5135
เบิก	-10.5135
บื้อ	-10.5136
▁900	-10.5136
พูดจริง	-10.5139
ข้อกล่าวหา	-10.514
▁อัลเลน	-10.514
เอสเอ	-10.5141
แหก	-10.5141
พบศพ	-10.5146
เฮล	-10.5146
ย้ายมา	-10.5149
แน่ะ	-10.5155
เลค	-10.5156
ลัม	-10.516
รู้สึกผิด	-10.5161
เคย์	-10.5162
▁เธญเธฒเธ	-10.5166
ถ้าคุณอยาก	-10.5166
ผู้ปกครอง	-10.5167
คุ้ม	-10.5169
มั่นคง	-10.517
ิงตัน	-10.5177
มีประโยชน์	-10.5182
ถึงแม้ว่า	-10.5197
พูดจริงๆ	-10.5197
เกณฑ์	-10.5197
เฮงซวย	-10.5197
ขว้าง	-10.5197
เยือน	-10.5197
แบลร์	-10.5198
เกิ้ล	-10.52
แล่น	-10.52
แถวๆ	-10.52
23	-10.5202
ศตวรรษ	-10.5207
สัปดาห์ก่อน	-10.5209
เล็ง	-10.521
เมื่อเช้า	-10.5211
▁ไปกันเถอะ	-10.5214
นิดๆ	-10.5214
ชัย	-10.5216
อลิซ	-10.5216
ห่างไกล	-10.5217
ขนาดไหน	-10.5219
วันนึง	-10.5222
07	-10.5223
คุณค่า	-10.5232
ให้แก่	-10.5233
เราสองคน	-10.5236
จะเกิดอะไรขึ้น	-10.5238
เปร	-10.5239
▁โดยมี	-10.5247
ลิซ่า	-10.5251
เฮย์	-10.5251
ความเชื่อ	-10.5253
▁และผมก็	-10.5255
มารยาท	-10.5261
ฟื้นฟู	-10.5262
ฟ้องร้อง	-10.5265
ศูนย์กลาง	-10.5278
▁ถูกไหม	-10.528
คุณน่าจะ	-10.5283
แต่ถ้าคุณ	-10.5283
ราชการ	-10.5286
บ้าบอ	-10.5289
ดิ่ง	-10.5291
มีแผน	-10.5292
สองวัน	-10.5292
จะเกิด	-10.53
แจก	-10.5305
สูญ	-10.5308
บัญชา	-10.531
ช่วยเรา	-10.5317
คิดอะไร	-10.532
จะมาถึง	-10.5323
แกร่ง	-10.5324
คําร้อง	-10.5324
ประดิษฐ์	-10.5324
พิทักษ์	-10.5324
เทิล	-10.5325
ปัด	-10.5325
ฉันเป็นคน	-10.5325
หลอกลวง	-10.5326
หยวน	-10.5326
ไปเรียน	-10.5329
มืออาชีพ	-10.5339
เคลื่อนที่	-10.534
แบบเดียวกัน	-10.534
เราจะทํา	-10.5357
ทอน	-10.5369
เกิดขึ้นกับ	-10.5372
สาน	-10.5374
ต่อสู้กับ	-10.5379
คนดัง	-10.5381
ยี	-10.5382
ภักดี	-10.5388
หงุดหงิด	-10.5388
คลาร์ก	-10.5389
เซรีน่า	-10.5389
ของพระองค์	-10.539
ทั้งโลก	-10.539
สันติภาพ	-10.5392
ปิดบัง	-10.5395
▁เธฒเธฃเน	-10.5397
รีบไป	-10.5399
ที่เหมาะสม	-10.5399
เยอะเลย	-10.5405
ซอส	-10.5417
เห็นได้ชัดว่า	-10.5418
ตามใจ	-10.5425
ชื่อดัง	-10.5437
สิ่งนั้น	-10.5442
มุ่งหน้าไป	-10.5449
เต็มใจ	-10.545
แองเจล	-10.545
บ๊อบ	-10.5452
เทย์เลอร์	-10.5453
ทศวรรษ	-10.5453
ร่ํา	-10.5453
สมาธิ	-10.5453
ส้ม	-10.5458
เห็นแก่ตัว	-10.5464
▁ที่จะทําให้	-10.5467
พวกเขากําลัง	-10.5467
เพ็	-10.5468
เราทั้งคู่	-10.5477
ฟี่	-10.548
ออล	-10.5482
อิส	-10.5483
37	-10.5486
เรากําลังจะ	-10.5492
นักฆ่า	-10.5494
เป็นหนี้	-10.5495
อยากให้ฉัน	-10.5497
รวด	-10.5498
ตรงกัน	-10.55
ทุกคืน	-10.551
ในระหว่าง	-10.5515
ข่าวดี	-10.5516
บรรพบุรุษ	-10.5518
ผ่อนคลาย	-10.5518
ฟิสิกส์	-10.5518
เยอะแยะ	-10.5518
แมทธิว	-10.5518
โศก	-10.5518
ทํางานหนัก	-10.552
คุ้นเคย	-10.5521
ล้านดอลลาร์	-10.5522
เบี้ย	-10.5524
จับมือ	-10.5529
ฮ็อ	-10.5531
เธอต้องการ	-10.554
▁ที่สามารถ	-10.5545
โฮม	-10.5545
เชื่อมั่น	-10.5546
คอก	-10.5546
มัวร์	-10.5546
ว่ามันจะ	-10.5548
บาท	-10.555
มาที่นี่เพื่อ	-10.5557
ฉันหวังว่า	-10.5562
จะหยุด	-10.5564
ทัล	-10.5567
คาบ	-10.5569
คนขับ	-10.557
โน่น	-10.5581
ยูนิ	-10.5583
อาวุโส	-10.5583
ฤดูกาล	-10.5584
เอ่ย	-10.5584
เธออาจ	-10.5584
ดับเพลิง	-10.5584
อึ๊บ	-10.5585
โจโฉ	-10.5585
ก็ไม่มี	-10.5592
งานวิจัย	-10.5592
มีผู้ชาย	-10.5593
คอนเนอร์	-10.5595
รูปร่าง	-10.56
▁บลา	-10.5603
ทรู	-10.5605
ที่โรงแรม	-10.5606
วร์	-10.5608
เด้น	-10.5615
มัว	-10.5619
ถ้าแก	-10.563
จนกระทั่ง	-10.563
ดูซิ	-10.5632
เพีย	-10.5636
เห็นภาพ	-10.5642
ยี่สิบ	-10.5644
ทรอย	-10.5649
ไม่พอใจ	-10.5651
▁แล้วเราจะ	-10.5654
ช่วงนี้	-10.5655
มองว่า	-10.5656
น้ําตา	-10.5662
เป็นหมอ	-10.5666
▁เธงเธข	-10.5668
ในหนัง	-10.5671
ไอ้เวร	-10.5689
คิดว่าตัวเอง	-10.5693
ไส	-10.5693
ชเธฑเธ	-10.5699
ไทย	-10.5705
มือปืน	-10.5712
ดับเบิลยู	-10.5715
แรงโน้มถ่วง	-10.5715
▁กุมภาพันธ์	-10.5715
มึง	-10.5716
ปรับปรุง	-10.5716
จับตาดู	-10.5716
เนื้องอก	-10.5717
สีเขียว	-10.5719
▁ฉันก็จะ	-10.5725
เทส	-10.5726
ฉันแค่อยาก	-10.5733
หายาก	-10.5734
ทุกปี	-10.574
ช็อต	-10.5741
▁มม	-10.5743
ฉันไม่สน	-10.5744
รู้สึกดี	-10.5749
ั่ว	-10.5776
ที่โรงพยาบาล	-10.5777
สร้างสรรค์	-10.5782
หม่อมฉัน	-10.5782
เทิร์น	-10.5782
วงจร	-10.5782
พีท	-10.5784
อือ	-10.5788
มิตรภาพ	-10.579
แล้ง	-10.5791
เราได้รับ	-10.5792
บนเรือ	-10.5793
ทางจิต	-10.5793
คุณรู้จัก	-10.5798
กองทหาร	-10.5798
อ่าว	-10.5802
สลับ	-10.5804
ลิตร	-10.5807
▁62	-10.5812
เดือนที่ผ่านมา	-10.5819
16	-10.5839
ผมอยากจะ	-10.5843
โน้มน้าว	-10.5849
กลยุทธ์	-10.5849
ชุมนุม	-10.5849
อพาร์ตเมนต์	-10.5849
แบล็ค	-10.5849
เฮิร์	-10.5849
บ็อบบี้	-10.5851
เบิ้ล	-10.5852
วิคเตอร์	-10.5853
วงโคจร	-10.5858
กรมตํารวจ	-10.5858
เมฆ	-10.5861
เก็บเงิน	-10.5864
สี่คน	-10.5866
ปรากฏว่า	-10.5868
ห้านาที	-10.5872
▁แล้วเธอก็	-10.5875
อิล	-10.5876
หลายเดือน	-10.5881
คุณเป็นคน	-10.5881
ลิป	-10.5883
90	-10.5883
ตรวจดู	-10.5887
ท่อน	-10.5891
▁โดยใช้	-10.5891
กี่คน	-10.5909
สลัด	-10.5915
อีกไม่นาน	-10.5916
ประโยค	-10.5917
โจอี้	-10.5917
หุบเขา	-10.5917
ท่านพ่อ	-10.5924
ในคืนนี้	-10.5933
มากกว่านั้น	-10.5933
เด็กชาย	-10.5935
ท้ายที่สุด	-10.5936
ในสนาม	-10.5938
เป็นผู้ชาย	-10.5946
ละกัน	-10.595
มีข้อมูล	-10.595
เราพบ	-10.5952
ข้าศึก	-10.5954
ใครก็ได้	-10.5956
ไม่แน่ใจว่า	-10.5957
รู้แล้วว่า	-10.5964
เกิดอะไรขึ้นกับ	-10.5965
ดื้อ	-10.5967
งานศพ	-10.5967
เผชิญหน้ากับ	-10.5968
โล่ง	-10.5969
กวาง	-10.5977
จ่ายให้	-10.5978
ไม่รู้เรื่อง	-10.5981
เป็นแฟน	-10.5983
พิพิธภัณฑ์	-10.5985
สะดวก	-10.5985
สารวัตร	-10.5985
ทักทาย	-10.5985
กัญชา	-10.5985
ลอรี่	-10.5986
ผลักดัน	-10.5986
ด้วยความเคารพ	-10.5987
คิดยังไง	-10.5987
คุ้น	-10.5987
โชคร้าย	-10.5988
แหล่งข่าว	-10.5991
เจฟฟ์	-10.5994
ฉันนึกว่า	-10.5997
ทางตะวันตก	-10.6001
หลอน	-10.6001
อิม	-10.6001
รีย์	-10.6006
ใช่ไหมล่ะ	-10.6007
เพนนี	-10.6009
ดิ๊ก	-10.6012
ท่านประธาน	-10.6015
ทีมงาน	-10.6016
ยังไงก็	-10.6019
อนุญาต	-10.6024
มีผู้หญิง	-10.6025
ผู้ร้าย	-10.6028
เดส	-10.6029
เบิร์ต	-10.6041
ประสงค์	-10.6046
ดะ	-10.6048
วันแรก	-10.605
เยี่ยมเลย	-10.605
ซ้อน	-10.6053
ธุระ	-10.6053
ข่มขู่	-10.6053
บุคลิก	-10.6053
อะพาร์ตเมนต์	-10.6053
ชีพจร	-10.6053
ศีลธรรม	-10.6053
ฤดูหนาว	-10.6054
ร่วมมือกับ	-10.6056
รถคัน	-10.6062
พฦ	-10.607
ดาวอังคาร	-10.6071
▁เธฒเธขเน	-10.6072
ตระหนัก	-10.6082
ดาวน์	-10.609
ใหญ่กว่า	-10.6091
ฏ	-10.6097
โตขึ้น	-10.6103
ให้โอกาส	-10.6105
▁ข้าก็	-10.6106
ห่างออกไป	-10.6107
มอบให้	-10.6109
เสียงดัง	-10.6109
ขอโทษค่ะ	-10.611
คล้ายๆ	-10.611
คู่รัก	-10.6121
ห้าง	-10.6122
คอนเสิร์ต	-10.6122
ช็อกโกแลต	-10.6122
ศัลยแพทย์	-10.6122
ศีรษะ	-10.6122
จิ๋ว	-10.6122
▁เธงเธขเธ	-10.6123
วุฒิสมาชิก	-10.6126
ไถ่	-10.6127
ของพระเจ้า	-10.6128
เคลื่อนย้าย	-10.613
ปรารถนา	-10.613
ภาพวาด	-10.6131
เป้	-10.6135
มีประสบการณ์	-10.6137
พี่เลี้ยง	-10.6138
ซุป	-10.614
โกลด์	-10.6141
ถูกจับกุม	-10.615
ในนาม	-10.6154
วันอังคาร	-10.6154
22	-10.6163
▁110	-10.6166
นานแค่ไหน	-10.617
คนต่อไป	-10.6174
ค้ายา	-10.6175
หน้าร้อน	-10.6183
จักรวรรดิ	-10.6192
วิจารณ์	-10.6192
วินิจฉัย	-10.6192
เว็บไซต์	-10.6192
บ่อยๆ	-10.6194
เตี้ย	-10.6194
ห้องสมุด	-10.6196
ฮาว	-10.6199
บนดาว	-10.6199
เช้านี้	-10.6203
เดิมพัน	-10.6203
ขออภัย	-10.6209
ไม่มีเงิน	-10.6212
กฏ	-10.6215
สามเดือน	-10.6216
ผู้หมวด	-10.6218
ถ้าอยาก	-10.6219
ลิฟต์	-10.6224
ชายคนหนึ่ง	-10.6236
แทบไม่	-10.6238
มวย	-10.6244
ละเอียด	-10.6244
ยศ	-10.6244
▁2000	-10.6246
นอร์ธ	-10.6246
พ่น	-10.6251
92	-10.6254
สันติ	-10.6255
คุกคาม	-10.6261
เปื้อน	-10.6261
ปริญญา	-10.6262
กระดาน	-10.6262
ทวีป	-10.6262
เรียกมันว่า	-10.6264
เยล	-10.6267
เพิ่งจะ	-10.6269
หนวด	-10.6269
แม่ทัพ	-10.6272
ผุ	-10.6274
▁เธกเธฒ	-10.6277
ปั้น	-10.628
ก่อนหน้านั้น	-10.628
รถบัส	-10.6283
เล็ต	-10.6284
ประหลาดใจ	-10.6284
เอางี้	-10.6291
ความเป็นจริง	-10.6298
▁เธขเธฑเธ	-10.6302
ไบร	-10.631
ใครก็ตาม	-10.6313
กเธตเธ	-10.6314
ยากลําบาก	-10.6317
แบรด	-10.6322
็ตต์	-10.6326
หมกมุ่น	-10.6332
อินเทอร์เน็ต	-10.6332
แบ่งปัน	-10.6332
เฟิร์	-10.6332
ชันสูตร	-10.6333
มากนัก	-10.6341
ไม่ได้ผล	-10.6351
เพื่อนผม	-10.6357
อุด	-10.6368
โบล	-10.6369
แผ่	-10.637
ดอง	-10.6377
ทิ้งระเบิด	-10.6379
อยู่ใกล้ๆ	-10.6381
เจนนี่	-10.6382
ฉันไม่คิดว่า	-10.6386
เธซเธ	-10.6393
ขึ้นเรื่อยๆ	-10.6393
ไม่ว่าอะไร	-10.6394
นําทาง	-10.6398
เทอม	-10.6398
ดั่ง	-10.64
▁ซม	-10.6401
สับ	-10.6402
อิสรภาพ	-10.6403
เคียงข้าง	-10.6403
สปริง	-10.6403
สุสาน	-10.6404
แกรนด์	-10.6405
เก่าแก่	-10.6405
สงครามโลกครั้ง	-10.6406
ขึ้นศาล	-10.6409
▁เดวิส	-10.6412
ชมรม	-10.6412
บรรทุก	-10.6413
ออกเดินทาง	-10.6417
ณี	-10.6419
วาร์ป	-10.6421
35	-10.6425
นี่เอง	-10.6427
เนอะ	-10.6428
นานๆ	-10.6429
แฟนเก่า	-10.6431
ใช้คําว่า	-10.6431
ทางการเมือง	-10.6435
บล็อก	-10.6436
ซิ่ง	-10.6437
ควัน	-10.6451
บัลลังก์	-10.6474
มนุษยชาติ	-10.6474
หลีกเลี่ยง	-10.6474
อเล็กซานเดอร์	-10.6474
ระบาด	-10.6474
อ้วก	-10.6474
ฌอน	-10.6475
อนุภาค	-10.6476
ดั๊ก	-10.6477
เหี้ย	-10.6478
เยอะๆ	-10.6479
สภาพอากาศ	-10.6481
มาร์คัส	-10.6482
ขอบคุณที่	-10.6491
ไม่กล้า	-10.6496
ซุ่ม	-10.6497
บอกเธอว่า	-10.6504
ลองดู	-10.6505
คู่แข่ง	-10.6507
โน้น	-10.6509
เดินเข้ามา	-10.6509
หวังว่าจะ	-10.651
ระยะเวลา	-10.6511
แปล	-10.6515
ฟอล	-10.6515
เดียน	-10.6516
แทร	-10.6517
▁เธฒเธข	-10.652
ใช่สิ	-10.6524
เลดี้	-10.6535
เดือด	-10.6545
กอล์ฟ	-10.6546
โรแมนติก	-10.6546
โดนัลด์	-10.6546
แคนาดา	-10.6546
หนุน	-10.6546
บอกตามตรง	-10.6546
แผง	-10.6548
แม้กระทั่ง	-10.6549
ยังไม่ตาย	-10.6551
เลียนแบบ	-10.6556
ที่ใหญ่ที่สุด	-10.6558
▁ทําไมไม่	-10.6561
นักการเมือง	-10.6567
๊ว	-10.6572
รอว์	-10.6575
ท้า	-10.6588
ไม่มีเหตุผล	-10.6591
ม๖	-10.6592
ไม่มีทางเลือก	-10.6594
ลับๆ	-10.6598
พยายามที่จะ	-10.6601
ฮาร์ท	-10.6601
ฉันอาจจะ	-10.6607
คุณยาย	-10.6609
พิง	-10.6612
สัญญากับ	-10.6616
อัลบั้ม	-10.6619
ทรัพยากร	-10.6619
เวียดนาม	-10.6619
เดม่อน	-10.6619
โน้ต	-10.6619
ฟรานซิส	-10.6619
ที่ไหนสักแห่ง	-10.6619
เข้มแข็ง	-10.6619
โดดเดี่ยว	-10.662
เมล็ด	-10.6621
ชดใช้	-10.6623
จะใช้เวลา	-10.6627
ครบรอบ	-10.6646
ต้องรอ	-10.6653
หลายพัน	-10.6654
จําได้มั้ย	-10.6656
ผู้อื่น	-10.6658
โคลน	-10.6664
▁เธซเธฒเธ	-10.6667
ออกเสียง	-10.6669
เดือนที่แล้ว	-10.6674
แบร	-10.6678
04	-10.668
เลี่ยน	-10.6681
นิดเดียว	-10.6682
ต่อรอง	-10.6687
แนวคิด	-10.6688
เป็นร้อย	-10.6689
ทําพลาด	-10.6691
นิรภัย	-10.6692
บาดแผล	-10.6692
ลอบสังหาร	-10.6693
สวด	-10.6694
▁ขอร้องล่ะ	-10.6696
ก็เถอะ	-10.6698
เราจะต้อง	-10.6705
พื้นดิน	-10.6707
แตกต่างกัน	-10.6709
ร้าว	-10.6711
บิว	-10.6717
สึ	-10.672
ข้าวของ	-10.6723
▁ฉันก็เลย	-10.6723
เชียวนะ	-10.6723
27	-10.6724
ติดอยู่ใน	-10.6726
ไอ้บ้า	-10.6726
ธั	-10.6728
เบลล์	-10.6735
ร้อยละ	-10.6744
็อด	-10.6747
ฮาน	-10.6752
คาร์เตอร์	-10.6753
เป็นความลับ	-10.6754
ค่าเช่า	-10.6762
เสน่ห์	-10.6765
ฤดูใบไม้ผลิ	-10.6765
เบ็ตตี้	-10.6765
ซัด	-10.6765
บัตรเครดิต	-10.6766
สัม	-10.6766
ยินดีต้อนรับ	-10.6767
ตัวน้อย	-10.6767
อัส	-10.6767
น่าเสียดาย	-10.6768
ขุนนาง	-10.6771
การดูแล	-10.6774
ที่เต็มไปด้วย	-10.6775
ใบอนุญาต	-10.6776
ก่อนหน้า	-10.6781
นั่นสิ	-10.6786
ใย	-10.6787
เปียก	-10.6788
หอย	-10.6789
แสดงให้	-10.6789
รมต	-10.679
มนต์	-10.6799
โลกใบนี้	-10.6801
ตรงกลาง	-10.6802
ฃเธนเน	-10.681
▁แล้วค่อย	-10.6817
ทําไมล่ะ	-10.6818
แซค	-10.6827
กระทั่ง	-10.6831
ขอรับ	-10.6832
ลัส	-10.6832
13	-10.6834
มีเซ็กซ์	-10.6835
โบร	-10.6835
หัด	-10.6837
การจับกุม	-10.6837
ร็อด	-10.6838
ชี่	-10.6839
โซเวียต	-10.6839
มาเฟีย	-10.6839
โชคชะตา	-10.684
เผยแพร่	-10.684
คณะลูกขุน	-10.684
ซัมเมอร์	-10.6841
ห่วยแตก	-10.6842
สลบ	-10.6845
อาญา	-10.6848
ด้วยเหตุผล	-10.6852
ผู้คุม	-10.6854
เราเชื่อว่า	-10.686
▁เธซเธกเธ	-10.6861
ทุกสิ่งที่	-10.6864
สภาวะ	-10.6868
ความมืด	-10.6869
เฮเลน	-10.6876
รับมือกับ	-10.6881
หลักการ	-10.6885
นัส	-10.6887
ให้อภัย	-10.689
▁ซึ่งทําให้	-10.6895
เครื่องแบบ	-10.6901
ฟิว	-10.6905
เปีย	-10.6906
บะ	-10.6909
เฟอ	-10.6912
ฮัล	-10.6913
อัตโนมัติ	-10.6914
ซอมบี้	-10.6914
เวิลด์	-10.6914
แว่น	-10.6916
ฮวา	-10.6917
เชลดอน	-10.6917
ข้อหาฆาตกรรม	-10.6919
นักร้อง	-10.692
ผิวหนัง	-10.6921
ตามลําพัง	-10.6922
เคาะ	-10.6924
ว่างเปล่า	-10.6925
หาเสียง	-10.694
คนดํา	-10.6956
อรีน	-10.6962
ริเวอร์	-10.6969
ชํา	-10.697
บ้านหลัง	-10.6974
เป็นมิตร	-10.6974
เด็กผู้ชาย	-10.6975
มีความคิด	-10.6976
ยากที่จะ	-10.6978
▁เธฒเธกเธ	-10.6981
ออกอากาศ	-10.6982
เมื่อก่อน	-10.6985
ซัม	-10.6988
โทรทัศน์	-10.6989
เวอร์จิเนีย	-10.6989
ดัส	-10.6995
แช่	-10.6999
ให้ตายเถอะ	-10.7
ซวย	-10.7005
เด็น	-10.7005
คนขาว	-10.7006
ฮอลล์	-10.701
พ่อหนุ่ม	-10.701
โกดัง	-10.701
แวร์	-10.7011
บอนนี่	-10.7023
หนึ่งในนั้น	-10.7034
พวกเค้า	-10.7035
ขึ้นเครื่อง	-10.7036
ไคล	-10.7037
เหมาะกับ	-10.7045
มิสเตอร์	-10.7049
ปรึกษา	-10.7053
บอส	-10.7059
ชายผู้	-10.7062
เพาะ	-10.7065
ยกย่อง	-10.7065
สาหัส	-10.7065
อียิปต์	-10.7065
แฝง	-10.7065
แสร้ง	-10.7065
โธมัส	-10.7065
เผลอ	-10.7065
ม้วน	-10.7065
ลักลอบ	-10.7065
อับอาย	-10.7066
เปลือก	-10.7066
เกรงว่า	-10.7066
พูดถึงเรื่อง	-10.7067
หาวิธี	-10.7071
สวยมาก	-10.7077
โรล	-10.708
ตกแต่ง	-10.7087
ก่อนที่เราจะ	-10.7087
เด็กหนุ่ม	-10.709
ขับไล่	-10.7094
นิ่งๆ	-10.7096
ดีกว่านี้	-10.71
อยู่เบื้องหลัง	-10.711
ยานอวกาศ	-10.711
นคร	-10.7112
เด้ง	-10.7114
ลู่	-10.7123
มีส่วนเกี่ยวข้อง	-10.7126
▁เธฅเธญเธ	-10.713
บนโต๊ะ	-10.7135
ชอล	-10.7137
กะโหลก	-10.7141
อิจฉา	-10.7141
โอลิมปิก	-10.7141
ลาดตระเวน	-10.7141
ดํารง	-10.7141
เปิดโปง	-10.7141
▁ลูเธอร์	-10.7142
จอน	-10.7148
ก่อเหตุ	-10.7149
อาทิตย์ละ	-10.7158
เร็วขึ้น	-10.7159
มีมูลค่า	-10.7162
▁แล้วมันก็	-10.7163
ื้	-10.7176
▁โดยไม่ต้อง	-10.7181
การค้นหา	-10.7192
ดัม	-10.7194
▁แล้วคุณก็	-10.72
รี้ด	-10.7206
ทําสําเร็จ	-10.7209
อย่างปลอดภัย	-10.7209
บุรุษ	-10.7218
ประหยัด	-10.7218
อรุณสวัสดิ์	-10.7218
อักเสบ	-10.7218
อารยธรรม	-10.7218
ผจญภัย	-10.7218
บาร์นี่ย์	-10.7218
บรรจุ	-10.7219
▁130	-10.722
บทบาท	-10.722
ลินดา	-10.7223
ด็อกเตอร์	-10.7224
สติแตก	-10.7225
รับโทรศัพท์	-10.7226
▁โมงเย็น	-10.7229
ประเด็นคือ	-10.723
นางฟ้า	-10.7231
โบว์	-10.7232
ลูกขุน	-10.7233
ไล่ล่า	-10.7235
ออกไปจากที่นี่	-10.7235
ขอแค่	-10.7237
ทางหลวง	-10.7239
แธ	-10.7239
น่าสงสัย	-10.7241
๋อ	-10.7247
คนสุดท้าย	-10.7247
อรัล	-10.725
▁แต่มันก็	-10.7255
ถ้าอย่างนั้น	-10.7258
เอกชน	-10.726
กัว	-10.7265
มีประวัติ	-10.7267
ถูกกล่าวหา	-10.7268
ถ่าน	-10.7271
น่าตื่นเต้น	-10.7273
บู๊	-10.7274
สายเลือด	-10.7274
โครง	-10.7274
รอรี่	-10.7281
▁จริงไหม	-10.7283
การสื่อสาร	-10.7284
เรียนจบ	-10.7285
เกมส์	-10.7291
ฉันเชื่อว่า	-10.7295
ปราสาท	-10.7296
ออสเตรเลีย	-10.7296
อึดอัด	-10.7296
เฮลิคอปเตอร์	-10.7296
หมึก	-10.7296
บัค	-10.7297
09	-10.7301
ขนาดเล็ก	-10.7301
ดอกเตอร์	-10.7303
ลอยด์	-10.7305
นวด	-10.7305
เป็นความผิด	-10.7307
เมื่อไร	-10.7307
พอร์ต	-10.7309
สิ้นหวัง	-10.7311
นั่นคือสิ่งที่	-10.7319
ลูซี่	-10.7323
บนพื้น	-10.7324
แห่งหนึ่ง	-10.7325
ไปเรื่อย	-10.7334
ร้องขอ	-10.7336
เบอร์รี่	-10.7343
เกือบจะ	-10.7343
เฮ่	-10.7346
คัส	-10.735
โตะ	-10.7353
หมั้น	-10.7363
เถื่อน	-10.7372
อัศวิน	-10.7374
เหลี่ยม	-10.7374
ปั๊ม	-10.7374
ทบทวน	-10.7374
หลากหลาย	-10.7374
วรรค	-10.7374
สภาพแวดล้อม	-10.7374
โอลิเวีย	-10.7376
เบาๆ	-10.7377
▁ลัย	-10.738
สก็อตต์	-10.7382
จัน	-10.7386
ถ้าคุณต้องการ	-10.7387
ร็อบ	-10.7387
หนึ่งเดียว	-10.7393
นานมาแล้ว	-10.7397
เส้นเลือด	-10.7398
ยังไม่รู้	-10.7398
ตัวอักษร	-10.74
ได้ยินมาว่า	-10.7406
จุดจบ	-10.7409
ครอส	-10.7411
รู้สึกแย่	-10.7412
แกรม	-10.7412
เมืองหลวง	-10.7422
เธฅเธนเธ	-10.7425
เนียม	-10.7425
ตอนตี	-10.7429
สองชั่วโมง	-10.7433
ก็ควร	-10.7441
ติดต่อกับ	-10.7442
โข	-10.7444
เลือดออก	-10.7445
▁ปีข้างหน้า	-10.7445
วิศวกร	-10.7452
เฉิน	-10.7453
ซีอีโอ	-10.7453
รั้ว	-10.7455
เสรีภาพ	-10.7456
มีตัวตน	-10.7457
สกัด	-10.7458
เจมี่	-10.7479
โค้ง	-10.7481
▁ปีแสง	-10.7482
เคา	-10.7486
เนิน	-10.7486
มาร์ตี้	-10.7491
ในเมืองนี้	-10.7495
แคป	-10.7495
บัส	-10.75
ถูกขัง	-10.7501
วิด	-10.7501
ตอนที่เธอ	-10.7505
รอสส์	-10.7515
รับประกัน	-10.7516
ฉันรู้ว่าคุณ	-10.7517
หาข้อมูล	-10.752
มารวมตัวกัน	-10.7526
แสดงให้เห็น	-10.7527
วิกฤต	-10.7529
ทั้งสองคน	-10.753
การ์ตูน	-10.7532
สมรู้ร่วมคิด	-10.7532
แจ๋ว	-10.7532
สหภาพ	-10.7532
เรย์มอนด์	-10.7534
พลเรือน	-10.7534
ร่วมมือกัน	-10.7535
เจสซี่	-10.7536
ปรับตัว	-10.7539
ลังเล	-10.7541
อัตราการ	-10.7543
ทําเงินได้	-10.7548
ผลไม้	-10.7556
คอยดู	-10.7559
งก์	-10.756
ถามคําถาม	-10.7563
เหมือนกับว่า	-10.7569
อับ	-10.757
ตอบโต้	-10.7575
ผู้ก่อตั้ง	-10.7576
ผู้หญิงคนนั้น	-10.7582
บ้าเอ๊ย	-10.7607
พยากรณ์	-10.7612
สะท้อน	-10.7612
เปลือย	-10.7612
ปราศจาก	-10.7612
มีเสน่ห์	-10.7613
แผ่นดินไหว	-10.7613
แป้ง	-10.7615
พ๎	-10.7615
แจ่ม	-10.7615
เชื้อชาติ	-10.7617
เหนือกว่า	-10.762
ดื่มเหล้า	-10.7623
โธ	-10.7624
ออกไปข้างนอก	-10.7628
ต่างชาติ	-10.7631
บอกตรงๆ	-10.7633
▁160	-10.7634
ผู้ชายคนนี้	-10.7636
เปลี่ยนใจ	-10.7639
▁เยน	-10.7643
เพียงคนเดียว	-10.7645
วฯ	-10.7651
ยากจน	-10.7651
ข้ออ้าง	-10.7654
▁350	-10.766
งานแต่งงาน	-10.7664
คิดผิด	-10.7664
รุม	-10.7671
เมตตา	-10.7675
มอล	-10.7677
แพล	-10.7679
สํา	-10.7682
ถูกส่งไป	-10.7687
เป็นสมาชิก	-10.7688
อิรัก	-10.7691
ไมโคร	-10.7692
ส่งสัญญาณ	-10.7692
สโมสร	-10.7693
ลัทธิ	-10.7693
แคทเธอรีน	-10.7693
ไดรฟ์	-10.7693
นานาชาติ	-10.7693
โว้ย	-10.7693
อ่ะ	-10.7693
มื้อเที่ยง	-10.7693
สีน้ําตาล	-10.7695
ธาตุ	-10.7695
มอบหมาย	-10.7699
ลอร่า	-10.7701
ฉายา	-10.7702
เรื่องพวกนี้	-10.7702
ธอร์	-10.7703
ทนายความ	-10.772
กลาย	-10.772
มัวแต่	-10.7721
งานปาร์ตี้	-10.7722
ตรวจพบ	-10.7727
รถตู้	-10.773
หล่น	-10.773
จนกว่าจะ	-10.7736
มพ์	-10.7748
ฉันจะทํา	-10.7767
วอล์คเกอร์	-10.7774
เกษตร	-10.7774
เดิล	-10.7774
เนื้อเยื่อ	-10.7775
คาดการณ์	-10.7775
รสชาติ	-10.7778
น่ารําคาญ	-10.7779
เอ็ก	-10.7779
ตามรอย	-10.778
คนเก่ง	-10.7781
น่ารังเกียจ	-10.7784
ถูกฆ่าตาย	-10.7785
็ล	-10.7785
ตํา	-10.7786
วอลล์	-10.7788
คาดเดา	-10.7789
เอาเป็นว่า	-10.7791
การสอบสวน	-10.7794
ความจริงก็คือ	-10.7801
หยด	-10.7802
หักหลัง	-10.7803
ยั่ว	-10.7808
ความกล้าหาญ	-10.7814
พ่อกับแม่	-10.7815
ราห์	-10.7823
เจ๊	-10.7827
มีเซ็กส์	-10.784
สินบน	-10.7848
ช้ํา	-10.7855
ระงับ	-10.7856
เซ็นทรัล	-10.7856
คริสโตเฟอร์	-10.7856
จราจร	-10.7856
ทําเนียบขาว	-10.7856
สัญชาตญาณ	-10.7856
แคสเซิล	-10.7856
ขืน	-10.7856
มาหาฉัน	-10.7856
สูบบุหรี่	-10.7856
ลอเรล	-10.7857
ข้างนอกนั่น	-10.7857
ซึ้ง	-10.7857
ขอต้อนรับสู่	-10.7858
▁1980	-10.7865
พึ่งพา	-10.7866
ให้เกียรติ	-10.7866
แฟลช	-10.7866
อยู่ข้างๆ	-10.787
ไม่มีใครรู้	-10.7877
ฉันเกลียด	-10.7879
อยู่ข้างนอก	-10.7888
ผูกพัน	-10.7894
เด็กน้อย	-10.7896
ซานตา	-10.7899
นั่นไง	-10.7914
เด็กคนนี้	-10.7916
ไม่รอด	-10.7923
ญิ	-10.7925
เธซเธฃเธทเธญ	-10.7938
จ๋า	-10.7938
ตื้น	-10.7939
การไต่สวน	-10.7939
วันพุธ	-10.7939
ป่วน	-10.7939
เคลาส์	-10.7939
สตาร์ค	-10.7939
เฉียงเหนือ	-10.7939
ยิม	-10.794
ปรากฎ	-10.7941
ตัก	-10.7942
ฐํ	-10.7943
เข้ม	-10.7944
เคลย์	-10.7948
ยีน	-10.7949
เดลต้า	-10.795
ทรงพลัง	-10.7953
มั้ยคะ	-10.7955
ทําลายล้าง	-10.7958
หมดสติ	-10.7958
กระหาย	-10.7958
เรียกฉันว่า	-10.7958
แพะ	-10.7958
เข้าเรียน	-10.7958
แกรน	-10.7965
นับพัน	-10.7974
บูล	-10.7974
วิลลี่	-10.7978
เร้า	-10.7979
เชี่ยวชาญ	-10.798
แสดงให้เห็นว่า	-10.7982
ทําตัวเป็น	-10.7987
ลือ	-10.7988
ทางตะวันออก	-10.7992
ที่มีต่อ	-10.7996
ฉันก็อยาก	-10.8
การฝึก	-10.8001
พูดจา	-10.8001
็อท	-10.8002
ฮิต	-10.8005
ครั้งนึง	-10.8007
เคิร์ก	-10.8015
▁140	-10.8017
คลิฟ	-10.8018
สามครั้ง	-10.8019
เอริค	-10.802
ทารุณ	-10.8022
บันเทิง	-10.8022
เหวี่ยง	-10.8022
โสเภณี	-10.8022
บลอนด์	-10.8022
ผลิตภัณฑ์	-10.8022
คัพ	-10.8022
แรงจูงใจ	-10.8023
สิ่งสําคัญ	-10.8024
ชเธธเธ	-10.8024
ถ้าเราไม่	-10.803
หน่อยได้ไหม	-10.8035
กว่าเดิม	-10.8038
นอนหลับ	-10.804
กลอน	-10.8042
ช่างเถอะ	-10.8043
▁ซึ่งก็คือ	-10.8044
มันฝรั่ง	-10.8044
▁2008	-10.8045
เพจ	-10.8052
จิง	-10.8054
กิโลเมตร	-10.8056
กิจ	-10.8059
เดินเล่น	-10.8062
ส่วนแบ่ง	-10.8062
ตรวจจับ	-10.8062
แอนนี่	-10.8065
บูชา	-10.8078
ฮาร์ด	-10.8086
ด้านหน้า	-10.8092
โอ้โฮ	-10.8092
หัวข้อ	-10.81
เศรษฐี	-10.8103
แอนดรู	-10.8105
เข้มข้น	-10.8106
เบิร์ด	-10.8106
ออกกําลังกาย	-10.8106
สหพันธ์	-10.8106
ถ่วง	-10.8106
โดดเด่น	-10.8107
สดใส	-10.8108
ชนชั้น	-10.8108
ปลูกถ่าย	-10.8109
▁ไมล์ต่อชั่วโมง	-10.811
ท่านประธานาธิบดี	-10.811
คอลลิน	-10.8113
จุดประสงค์	-10.8115
ลองคิดดู	-10.8115
ในหมู่	-10.8122
เดินผ่าน	-10.8125
จิตวิทยา	-10.8126
การปฏิวัติ	-10.813
ฟิต	-10.8137
โม้	-10.8138
อาเธอร์	-10.8138
ลายเซ็น	-10.8142
จะเป็นยังไง	-10.8142
อาศัยอยู่ใน	-10.8148
กุ้ง	-10.8152
พิลึก	-10.8158
ทะเลาะ	-10.8159
ปืนใหญ่	-10.8159
เจ๋งๆ	-10.8167
ุ๊ก	-10.8171
กระทบ	-10.8181
ทางอากาศ	-10.8181
นักธุรกิจ	-10.8182
การกุศล	-10.8191
ครอบคลุม	-10.8191
ดั้งเดิม	-10.8191
บกพร่อง	-10.8191
พลาสติก	-10.8191
มอเตอร์ไซค์	-10.8191
▁เธชเน	-10.8193
นักบินอวกาศ	-10.8193
สาป	-10.8193
พรม	-10.8194
ฝันร้าย	-10.8202
หน้าผา	-10.8203
รัฐสภา	-10.8203
▁2016	-10.8204
สุภาพ	-10.8209
ดิ้ง	-10.8216
บทเรียน	-10.8226
ตูม	-10.8232
หละ	-10.8238
โคจร	-10.8265
สงบสุข	-10.8267
จีน่า	-10.8273
กาแล็กซี	-10.8276
ซาบซึ้ง	-10.8276
พ่ายแพ้	-10.8276
ยืนหยัด	-10.8276
เบื้องต้น	-10.8276
แซนด์วิช	-10.8276
แฟรงก์	-10.8276
เข้าด้วยกัน	-10.8278
ยึดครอง	-10.828
สลัก	-10.8284
รื้อ	-10.8285
งอก	-10.8288
▁2017	-10.829
เหยื่อราย	-10.8293
ขอต้อนรับ	-10.8295
ถูกลักพาตัว	-10.8297
ต้ม	-10.8299
เปรียบเทียบ	-10.8301
ไม่จําเป็น	-10.8305
ใหญ่โต	-10.8308
ได้รับบาดเจ็บ	-10.831
แมท	-10.8313
▁ลาก่อน	-10.8319
คุยด้วย	-10.8322
สโตร	-10.8324
เชอ	-10.8328
ดังกล่าว	-10.8332
ถูกไล่ออก	-10.8334
พิพากษา	-10.8335
วอร์ด	-10.8343
ความขัดแย้ง	-10.8355
การก่อการร้าย	-10.8358
กลาโหม	-10.8362
มูลนิธิ	-10.8362
สหพันธรัฐ	-10.8362
แปซิฟิก	-10.8362
สตูดิโอ	-10.8362
อิสราเอล	-10.8362
เชือด	-10.8362
▁1998	-10.8362
สูด	-10.8363
นายกรัฐมนตรี	-10.8363
นามสกุล	-10.8363
ชะมัด	-10.8363
ทุ่ง	-10.8366
ออง	-10.8367
สปอร์ต	-10.8369
เครื่องจักร	-10.837
▁แล้วจู่ๆ	-10.8371
ปิ้ง	-10.8374
ความจริงที่ว่า	-10.8375
เร้ด	-10.8376
ห้องพัก	-10.8378
สองเดือน	-10.8386
นอกจากนี้	-10.8389
กําลังพยายาม	-10.8395
ไห	-10.8395
ขเธฑเธ	-10.8396
แฮร์	-10.8399
วันคริสต์มาส	-10.8402
ต้องรับผิดชอบ	-10.8404
เถอะน่า	-10.8404
เงินทุน	-10.8406
เห็นชัด	-10.8407
เวิร์ด	-10.8409
ตัส	-10.841
ฉันรู้ว่าเธอ	-10.8414
รอยด์	-10.8417
เด็กหญิง	-10.8418
ความมั่นใจ	-10.842
ฝึกฝน	-10.842
มัง	-10.8421
น่าเกลียด	-10.8433
กรีก	-10.8436
คบกับ	-10.8437
ยัก	-10.8443
อวยพร	-10.8449
คริสเตียน	-10.8449
โตเกียว	-10.8449
ชเธฒเธ	-10.8451
ครั้งที่สอง	-10.8452
องค์ประกอบ	-10.8452
คุ้มค่า	-10.8454
ได้รับเลือก	-10.8454
สิงโต	-10.8456
คิดค้น	-10.847
เขียนจดหมาย	-10.848
นายก็รู้	-10.8483
อะไรทั้งนั้น	-10.8484
มั่ว	-10.8497
จนตาย	-10.8499
จอย	-10.8506
เราจะเริ่ม	-10.8507
คนอเมริกัน	-10.8522
ไปจากที่นี่	-10.8524
พูดแบบนั้น	-10.8528
ท่วม	-10.853
คู่ควร	-10.8533
ล่ม	-10.8534
ฤทธิ์	-10.8537
เนชั่นแนล	-10.8537
แม่นยํา	-10.8537
บ่งชี้	-10.8537
ฉลาม	-10.8537
รุกราน	-10.8539
ถ่ายทอด	-10.8541
ความสงบ	-10.8542
ฐานทัพ	-10.8544
ข้างถนน	-10.8546
ประกาย	-10.8547
คู่หมั้น	-10.8549
สู้รบ	-10.8554
ถนัด	-10.8559
▁เธญเธขเธฒเธ	-10.8563
ซีเรีย	-10.8565
คราวหน้า	-10.8565
ร่อน	-10.8567
หุ	-10.8571
สิ่งใด	-10.8573
สาวสวย	-10.8574
ไร้ค่า	-10.8575
เร็ต	-10.8576
ด้านนอก	-10.8578
ตั้งแต่แรก	-10.8581
แฟล	-10.8585
เธขเธ	-10.8593
ต้องขอบคุณ	-10.8605
กําลังจะตาย	-10.8605
กิโล	-10.8608
ยิ่งใหญ่ที่สุด	-10.8612
คลิงออน	-10.8625
คัมภีร์	-10.8625
คาร์แดสเซีย	-10.8625
หม้อ	-10.8625
เว้ย	-10.8625
ข่าวกรอง	-10.8626
เพียร์ซ	-10.8626
สีน้ําเงิน	-10.8626
มีนัด	-10.8627
หุ้ม	-10.8627
มัธยมปลาย	-10.8627
▁มิลลิ	-10.8629
ซ่อมแซม	-10.8629
เป็นผู้ใหญ่	-10.8632
ในโลกนี้	-10.8632
ไปให้พ้น	-10.8634
ห้องขัง	-10.8634
▁เธฅเธฒเธ	-10.8637
รถชน	-10.865
สัญญาว่าจะ	-10.8651
ไม่กี่วัน	-10.8652
หลายร้อย	-10.8653
เสพ	-10.8656
ฉันอยากได้	-10.8656
สุ่ม	-10.8659
เป็นที่รู้จัก	-10.8676
ทั่วทั้ง	-10.8686
พร้อมที่จะ	-10.8694
พรรคพวก	-10.8701
ฟอน	-10.8706
เดี๋ยวๆ	-10.8709
สองสามวัน	-10.8709
อุปสรรค	-10.8715
บัญญัติ	-10.8715
แอนเดอร์สัน	-10.8715
เยาวชน	-10.8715
กระจอก	-10.8715
ป้อน	-10.8715
ค้นคว้า	-10.8717
อเวนิว	-10.8717
สัตว์ประหลาด	-10.8725
อภัย	-10.8728
สมมติ	-10.8729
ยินดีที่ได้	-10.8729
ธนู	-10.8731
จู๋	-10.8732
ฐิ	-10.8732
ถูกฆาตกรรม	-10.8733
ุ้ย	-10.8735
หมายความว่าไง	-10.8737
ถ่ายภาพ	-10.8747
จะช่วยให้	-10.8752
แซง	-10.8755
ริ่ง	-10.8757
เงินกู้	-10.876
ฮอต	-10.8761
▁เข้าใจนะ	-10.8762
ุ้ง	-10.8763
หลงทาง	-10.8771
ใช้วิธี	-10.8774
ทางซ้าย	-10.878
เล็กซ์	-10.8785
กระต่าย	-10.8805
อาร์มสตรอง	-10.8805
เท็จ	-10.8805
เยอรมนี	-10.8805
ประเพณี	-10.8805
แลร์รี่	-10.8805
เล่าปี่	-10.8805
นํ้า	-10.8805
เคาน์ตี	-10.8805
อ้างอิง	-10.8806
ต้องรีบ	-10.8807
สืบทอด	-10.8808
ปาโบล	-10.8808
ขออนุญาต	-10.881
เข่า	-10.8814
▁เธญเธญเธ	-10.8817
เอเลี่ยน	-10.8819
เป็นเพื่อนกัน	-10.882
เรียบ	-10.8822
ข้อมือ	-10.8823
คีย์	-10.8825
โฟร์	-10.8827
จุดเริ่มต้น	-10.8835
โซฟา	-10.8836
นักสู้	-10.885
ตระหนักว่า	-10.8858
วันต่อมา	-10.8861
ลูกหลาน	-10.8869
▁หรือแม้แต่	-10.8874
มัลคอล์ม	-10.8896
เสมือน	-10.8896
ไทมส์	-10.8896
จ่อ	-10.8896
งัด	-10.8896
ชาร์ล็อต	-10.8897
คริป	-10.8898
วันพฤหัส	-10.8898
ั่ม	-10.8899
จิตแพทย์	-10.8901
มีประสิทธิภาพ	-10.8903
ขัดแย้ง	-10.8903
ขับเคลื่อน	-10.8904
เอลิซาเบธ	-10.8905
รัล	-10.8911
โฉม	-10.8916
เครื่องหมาย	-10.8925
ชายหนุ่ม	-10.8927
สังเกตเห็น	-10.8928
พูดคําว่า	-10.8933
บุช	-10.8935
มีคนตาย	-10.8946
รับตําแหน่ง	-10.8954
การสูญเสีย	-10.8964
ใส่เสื้อ	-10.898
บนยาน	-10.8983
เพื่อนเก่า	-10.8984
เรื่องบ้าๆ	-10.8984
ซานฟรานซิสโก	-10.8987
สาธารณรัฐ	-10.8987
เฒ่า	-10.8987
ไซม่อน	-10.8987
เทือกเขา	-10.8987
คณิตศาสตร์	-10.8988
ร่ํารวย	-10.8988
ลึกซึ้ง	-10.8989
เฟร็ด	-10.899
ขี่ม้า	-10.8991
ซาร่าห์	-10.8992
แซ็ค	-10.8993
เต็มไปหมด	-10.8994
ซาราห์	-10.8995
แท็ก	-10.8995
เวียร์	-10.8995
สักครั้ง	-10.8996
คนขับรถ	-10.8997
เมสัน	-10.8999
เบาะ	-10.9005
ุ่ย	-10.9007
▁กั	-10.9019
รณ์	-10.902
ยอดขาย	-10.9021
รอดชีวิต	-10.9023
ยินยอม	-10.9027
บอร์น	-10.9028
อาหารเช้า	-10.9034
เมียร์	-10.9037
ไม่น่าเชื่อ	-10.9041
ัวร์	-10.9051
ปอง	-10.9057
เอิร์	-10.9066
ความปรารถนา	-10.9069
แอค	-10.907
พื้นผิว	-10.907
ปลอด	-10.908
ทุเรศ	-10.908
นาวิกโยธิน	-10.908
อะตอม	-10.908
ความถี่	-10.908
พิชิต	-10.908
ปัง	-10.9081
พระบิดา	-10.9082
จะไปไหน	-10.9083
แกรนท์	-10.9085
ไลฟ์	-10.9086
ชาวยิว	-10.9087
ยี่	-10.9093
ถ้ามีใคร	-10.9094
ดักฟัง	-10.9096
ทําไมคุณถึง	-10.9098
โทษจําคุก	-10.9104
99	-10.9106
38	-10.9112
มิเกล	-10.9117
ฟไ	-10.9118
ดอนน่า	-10.9119
พรุ่งนี้เช้า	-10.9121
ได้รับแจ้ง	-10.9127
ผู้ต้องหา	-10.914
ใช่ไหมคะ	-10.9157
เย้	-10.9172
ควอแดรนท์	-10.9173
ประพฤติ	-10.9173
สมดุล	-10.9173
อีธาน	-10.9174
ควบ	-10.9174
หย่อน	-10.9174
กําลังพูดถึง	-10.9176
เรียกเขาว่า	-10.9176
ฌอง	-10.9177
แฮงค์	-10.9178
โอเวน	-10.9179
สกอต	-10.9185
ขอย้ํา	-10.9188
ยาพิษ	-10.9198
เรื่องแย่ๆ	-10.9209
บริดจ์	-10.9212
ยับ	-10.9228
▁กริ	-10.9231
นับตั้งแต่	-10.9238
นิวส์	-10.9242
คัม	-10.9248
เฝ้าดู	-10.9259
ชเชอร์	-10.9259
ร่อง	-10.9263
เครดิต	-10.9267
๓	-10.9268
รัฐธรรมนูญ	-10.9268
ร้ายกาจ	-10.9268
ดาดฟ้า	-10.9268
เหงา	-10.9268
เข็มขัด	-10.927
แท่น	-10.9271
มิเชล	-10.9272
ผัน	-10.9272
มอลลี่	-10.9275
หลุมศพ	-10.9276
▁เธชเธด	-10.9279
แสงอาทิตย์	-10.9279
คาถา	-10.9283
เต่า	-10.9293
ไม่เป็นไรหรอก	-10.9305
กองทัพเรือ	-10.9308
ไม่ว่าคุณจะ	-10.9313
อย่างต่อเนื่อง	-10.9313
โซฟี	-10.9317
สิบนาที	-10.9342
สมมติว่า	-10.9348
ในที่เกิดเหตุ	-10.9351
รู้ตัวว่า	-10.9354
เกิร์ล	-10.9362
บํารุง	-10.9363
หยาบคาย	-10.9363
ฮ่องกง	-10.9363
฿	-10.9363
ไปรษณีย์	-10.9363
ลายนิ้วมือ	-10.9363
อื	-10.9363
เดือดร้อน	-10.9365
ออสการ์	-10.9365
ก่อนที่เขาจะ	-10.9366
คําสาป	-10.9369
รวมตัวกัน	-10.9371
ชะตา	-10.9373
กองพล	-10.9373
บนเกาะ	-10.9375
มิตร	-10.9377
นัย	-10.9385
รัสเซล	-10.9389
กระสวย	-10.939
▁โดยที่ไม่	-10.9391
เสรี	-10.9391
ขอความช่วยเหลือ	-10.9392
ภิ	-10.9393
ครั้งล่าสุด	-10.9396
▁เธณเธญเธ	-10.9397
การค้นพบ	-10.9401
ในวงการ	-10.9405
การผลิต	-10.9407
พ่อค้า	-10.942
ท่านนายพล	-10.9431
ตอง	-10.9442
ผู้บริสุทธิ์	-10.9451
รู้ใช่ไหม	-10.9452
คอมมิวนิสต์	-10.9459
ปลื้ม	-10.9459
โคลอมเบีย	-10.9459
กล้วย	-10.9459
คว่ํา	-10.9459
มิแรนด้า	-10.9459
ถาวร	-10.9459
คลินิก	-10.9459
อพอลโล	-10.9459
เนรเทศ	-10.9459
ขัดจังหวะ	-10.9461
ทุกข์ทรมาน	-10.9461
เกียรติยศ	-10.9462
24	-10.9462
ฝึกหัด	-10.9463
ดูนี่สิ	-10.9463
แกล้งทําเป็น	-10.9464
เด็กกําพร้า	-10.9465
ตู้เย็น	-10.947
เป็นยังไงบ้าง	-10.9474
ตอบรับ	-10.948
▁2015	-10.9482
เมนู	-10.949
ไม่เหมาะ	-10.9495
เบื้องหลัง	-10.9498
อันดับหนึ่ง	-10.9509
ตัวอย่างเช่น	-10.951
ครึ่งชั่วโมง	-10.9511
ทางการเงิน	-10.9534
เดินเข้าไป	-10.9555
เสด็จ	-10.9556
สไตน์	-10.9556
ฮาวเวิร์ด	-10.9557
ก่อให้เกิด	-10.9557
อาสาสมัคร	-10.9557
ฟิลิป	-10.9559
ซี่โครง	-10.9559
วิกฤติ	-10.956
เท่าเทียม	-10.956
ลําไส้	-10.9563
รู้สึกดีขึ้น	-10.9572
ค็อก	-10.9572
ขอถาม	-10.9574
สายสืบ	-10.9577
จอช	-10.9578
ว่ากันว่า	-10.9596
▁2020	-10.9602
พิจารณาคดี	-10.9605
รู้นะว่า	-10.9606
▁2006	-10.9607
อักษร	-10.9621
บัว	-10.9626
▁05	-10.963
โฮป	-10.9641
นอกเมือง	-10.9644
ขึ้นไปบน	-10.9647
ประกวด	-10.9654
ศักดิ์ศรี	-10.9654
สําเนา	-10.9654
อุตส่าห์	-10.9654
แคโรไลน์	-10.9654
ย่ํา	-10.9654
ฉาง	-10.9654
กรีดร้อง	-10.9654
บรรลุ	-10.9655
ชัง	-10.9658
วินเซนต์	-10.9659
กลางดึก	-10.9661
งเธดเธ	-10.9669
ชนบท	-10.9674
สองสัปดาห์	-10.9688
อริส	-10.9699
รัศมี	-10.971
ทุกหน่วย	-10.9714
ฃเธฑเธ	-10.9719
ยิงปืน	-10.9733
▁02	-10.9745
วิ่งหนี	-10.9747
ชายผิวขาว	-10.9749
บ้านเลขที่	-10.9753
ปรัชญา	-10.9753
ยับยั้ง	-10.9753
วิวัฒนาการ	-10.9753
กลอเรีย	-10.9753
รุ่งเรือง	-10.9753
ลูกพี่ลูกน้อง	-10.9753
ทํานอง	-10.9754
ลูกจ้าง	-10.9755
ฝากข้อความ	-10.9758
ษา	-10.9759
เพลย์	-10.9762
ไคล์	-10.9764
31	-10.9767
▁2009	-10.9775
รอคอย	-10.9777
▁2019	-10.9777
หลานชาย	-10.9779
ท็อป	-10.9782
เซ็ต	-10.9783
คอยดูแล	-10.9785
คะแนนเสียง	-10.9785
นอร์ท	-10.9797
0	-10.9799
เข้าไปในห้อง	-10.9806
ฉันอยากให้เธอ	-10.9808
หวน	-10.981
ผู้หญิงคนหนึ่ง	-10.9825
ก่อการร้าย	-10.9832
ห้องแล็บ	-10.9833
รวดเร็ว	-10.9837
ศัพท์	-10.9851
ประชาธิปไตย	-10.9853
หลงใหล	-10.9853
แอตแลนติก	-10.9853
ดอล์ฟ	-10.9853
ไส้กรอก	-10.9854
ไม่นานมานี้	-10.9854
รู้อะไรมั้ย	-10.9854
อันยิ่งใหญ่	-10.9856
ห่วงใย	-10.9856
▁828	-10.9859
บ้าคลั่ง	-10.9861
แน่ชัด	-10.9866
เอ็มม่า	-10.9866
คนรวย	-10.9871
หั่น	-10.9878
บนเวที	-10.9879
บอร์ก	-10.9887
ผู้ติดตาม	-10.9917
ชั่วโมงที่ผ่านมา	-10.9926
เรือลํา	-10.9932
▁แบรน	-10.9943
ขี้ขลาด	-10.9954
คฤหาสน์	-10.9954
อสูร	-10.9954
แอลกอฮอล์	-10.9954
ฮาร์วาร์ด	-10.9954
นิรนาม	-10.9954
กระโปรง	-10.9954
ราล์ฟ	-10.9954
ประถม	-10.9954
ล้วง	-10.9955
ดอกเบี้ย	-10.9955
ฆาตกรต่อเนื่อง	-10.9956
บ๊อบบี้	-10.9957
ไมอามี่	-10.9958
เปียโน	-10.9959
งบประมาณ	-10.9959
เครือ	-10.996
อัยการเขต	-10.9962
ตํารา	-10.9962
จัดฉาก	-10.9968
บูลส์	-10.9968
คลาว	-10.9979
บิดา	-10.9995
▁2010	-10.9996
29	-11.0001
▁2002	-11.0001
กองพัน	-11.0003
อยู่ในคุก	-11.0005
ก็แล้วแต่	-11.0017
ภู	-11.0024
เธจเธ	-11.0032
เก๋	-11.0042
โฉ	-11.0043
เธนเธ	-11.0044
บุกเข้าไป	-11.0047
แถลง	-11.0052
สากล	-11.0053
โค่น	-11.0053
ฬ	-11.0055
พริบตา	-11.0056
โหดเหี้ยม	-11.0056
เบนจามิน	-11.0056
เปี่ยม	-11.0056
เฟลิซิตี้	-11.0056
สโนว์	-11.0057
สุขสันต์	-11.0057
กลิ้ง	-11.0057
หลอม	-11.0057
ตึงเครียด	-11.0057
เอ้ย	-11.0057
ลานจอดรถ	-11.0058
สถานทูต	-11.0058
นอฟ	-11.0059
แบงก์	-11.0059
บราโว	-11.0061
ชั้นบรรยากาศ	-11.0065
ไถ	-11.0065
ภาษาอังกฤษ	-11.0066
โปแลนด์	-11.0067
ฐานข้อมูล	-11.0073
โลแกน	-11.0079
▁190	-11.0096
ประลอง	-11.0097
▁เธทเธ	-11.0102
น่าเชื่อถือ	-11.0112
สามชั่วโมง	-11.0117
ตามถนน	-11.0119
เนี้ย	-11.0127
36	-11.0128
จนถึงตอนนี้	-11.013
เบธ	-11.0131
28	-11.0136
ซัส	-11.0147
สมคบคิด	-11.0159
เม็กซิกัน	-11.0159
โต้แย้ง	-11.0159
๐	-11.0159
ทุจริต	-11.0159
พัวพัน	-11.0159
คลาสสิก	-11.016
ชีวภาพ	-11.016
โลหะ	-11.016
บาจอร์	-11.016
เพดาน	-11.016
ถ่ายทอดสด	-11.0161
วัลแคน	-11.0161
เรือรบ	-11.0162
มื้อเย็น	-11.0163
ขอบเขต	-11.0164
ผิง	-11.0165
ไพรซ์	-11.0167
รุ่นพี่	-11.019
ไม่รู้เลยว่า	-11.0193
บ้านหลังนี้	-11.0196
เชื่อเถอะ	-11.0204
ปากกา	-11.0216
ปวดหัว	-11.0223
ก็คงจะ	-11.0242
กําลังมองหา	-11.0263
จังหวัด	-11.0264
ศักยภาพ	-11.0264
โลหิต	-11.0264
ไอศกรีม	-11.0264
๗	-11.0264
▁องศาเซลเซียส	-11.0264
ยูเอสเอส	-11.0264
ชื้น	-11.0264
เยาว์	-11.0264
สตีเวน	-11.0264
ฝ่าฝืน	-11.0264
วิหาร	-11.0264
รัค	-11.0264
นอกเหนือจาก	-11.0264
รู้ตัวอีกที	-11.0265
โจรสลัด	-11.0265
ฟิลลิป	-11.0265
แฉ	-11.0279
แบ็ค	-11.0281
เอกซ์	-11.0288
▁รอก่อน	-11.0295
ครึ่งนึง	-11.0304
ต่อจากนี้	-11.0311
เร็น	-11.0315
ล้านเหรียญ	-11.0326
ที่เก่งที่สุด	-11.0329
ปราบ	-11.0338
เบบี้	-11.0344
พ่อค้ายา	-11.0353
ห้องผ่าตัด	-11.0354
ิงเกอร์	-11.0356
ประสิทธิภาพ	-11.0361
▁03	-11.0364
ปาฏิหาริย์	-11.0369
สนธิสัญญา	-11.0369
แฮโรลด์	-11.0369
มะเขือเทศ	-11.0369
ลี้ภัย	-11.0369
เซอร์ไพรส์	-11.0369
เคี้ยว	-11.0369
อแมนด้า	-11.0369
ด้อย	-11.0369
ซุปเปอร์	-11.0372
สารเคมี	-11.0373
แถลงข่าว	-11.0373
แฟชั่น	-11.0373
ผีเสื้อ	-11.0373
แคร์รี่	-11.0375
กู๊ด	-11.0376
ขุม	-11.0377
จุดหมาย	-11.0391
เรียกผมว่า	-11.0393
หันหลัง	-11.0396
เสียสติ	-11.0399
แชร์	-11.0402
การประท้วง	-11.0418
ง่ายกว่า	-11.0423
เสาร์	-11.0424
ซอร์	-11.0427
เซ็นสัญญา	-11.0451
ปิดปาก	-11.047
ดิแอซ	-11.0475
ป่านนี้	-11.0476
คุกเข่า	-11.0476
เพื่อนซี้	-11.0476
เยี่ย	-11.0476
แขวนคอ	-11.048
ร่วมเพศ	-11.0484
▁1990	-11.0484
ทอดทิ้ง	-11.049
วินเทอร์	-11.0491
48	-11.05
ต่างดาว	-11.0502
เร็ค	-11.051
นึกออก	-11.0514
พาเราไป	-11.0518
อาสา	-11.0535
อยู่ตรงหน้า	-11.054
ผู้ชายคนนั้น	-11.0549
▁จริงมั้ย	-11.0573
ระยะห่าง	-11.0577
อายุครบ	-11.058
ซีแอตเทิล	-11.0583
ฟิลาเดลเฟีย	-11.0583
เข้มงวด	-11.0583
โจทก์	-11.0583
ศาลที่เคารพ	-11.0583
ตาบอด	-11.0583
ฟัก	-11.0584
นู่น	-11.0585
เป็นพันๆ	-11.0585
บราซิล	-11.0586
สติปัญญา	-11.0586
สัปดาห์ละ	-11.0586
▁วิลเลียมส์	-11.0586
อาร์ชี่	-11.059
เวกัส	-11.059
กระทําผิด	-11.059
ดาวเคราะห์น้อย	-11.0592
เป็ด	-11.0596
ผญ	-11.0598
บั๊	-11.0599
อาร์เธอร์	-11.0602
เทอร์รี่	-11.0602
ศุกร์	-11.0603
ทัค	-11.061
แตะต้อง	-11.0611
ฉันอยากให้นาย	-11.0614
จะได้ไม่ต้อง	-11.062
พาร์ก	-11.0639
มีพรสวรรค์	-11.0643
จะว่าไป	-11.0647
เอลลิส	-11.0658
เธฐเธ	-11.0672
รับโทษ	-11.0677
ทัณฑ์บน	-11.0692
ปะการัง	-11.0692
ฟลอริดา	-11.0692
อนุรักษ์	-11.0692
กระท่อม	-11.0692
หลั่ง	-11.0692
แช่แข็ง	-11.0693
ลึง	-11.0693
บวม	-11.0694
รูปปั้น	-11.0695
มื้อเช้า	-11.0697
สารพิษ	-11.0699
ช่องว่าง	-11.07
ตรอก	-11.0701
ชานเมือง	-11.0703
ฮาวาย	-11.0704
วาดภาพ	-11.0705
ทั้งสิ้น	-11.071
โอนเงิน	-11.0713
ดําเนินคดี	-11.0714
อมตะ	-11.0728
ความเมตตา	-11.073
ผิวสี	-11.077
สปีด	-11.0783
ไอ้โง่	-11.0794
ศักดิ์	-11.0801
ห้วง	-11.0801
กริฟฟิน	-11.0801
ตอร์ปิโด	-11.0801
ปัจจัย	-11.0801
พินัยกรรม	-11.0801
แมนฮัตตัน	-11.0801
อ้อนวอน	-11.0801
ศิลป์	-11.0802
ข้าวโพด	-11.0802
มึน	-11.0802
าวด์	-11.0803
ป่าเถื่อน	-11.0805
ฮู้ด	-11.0805
เนธาน	-11.0805
แบรนด์	-11.0808
กิ๊ก	-11.0819
เดียร์	-11.0823
นิทาน	-11.0824
อาทิตย์ที่แล้ว	-11.0829
ถู	-11.0841
ปปส	-11.088
นเดซ	-11.0884
ชนะเลิศ	-11.0889
นักเต้น	-11.0896
หนังสือเล่ม	-11.0901
ระดม	-11.0912
โรมูลัน	-11.0913
ราตรีสวัสดิ์	-11.0913
ลิตเติ้ล	-11.0913
ศัลยกรรม	-11.0913
โคลัมเบีย	-11.0913
ปรบมือ	-11.0913
ยูเครน	-11.0913
ไดอาน่า	-11.0913
ผู้ว่าฯ	-11.0914
ลําพัง	-11.0914
มารดา	-11.0914
แม็กกี้	-11.092
ไม่กี่นาที	-11.0921
จนกว่าเราจะ	-11.0922
แมตต์	-11.0922
ที่ไหนก็ได้	-11.0922
▁ฟอร์จ	-11.0922
เอิร์ล	-11.093
ผู้รอดชีวิต	-11.0937
แต่งเพลง	-11.0938
ฤดู	-11.0939
▁2007	-11.0949
กําลังตามหา	-11.0953
ฆั	-11.0968
เผชิญหน้า	-11.097
พิธีกร	-11.0996
ฟราน	-11.1002
ก่อนที่คุณจะ	-11.1017
ใดก็ตาม	-11.1019
บัลติมอร์	-11.1025
ผ้าห่ม	-11.1025
เมเรดิธ	-11.1025
แฮปปี้	-11.1025
ผลาญ	-11.1025
ไอ้งั่ง	-11.1025
สอบปากคํา	-11.1025
▁เธชเธตเธข	-11.1026
เหลวไหล	-11.1027
ยี่ห้อ	-11.1027
สายการบิน	-11.1033
เห็ด	-11.1039
▁เอเคอร์	-11.104
ที่สุดเท่าที่	-11.1046
กําลังเสริม	-11.105
ข์	-11.105
รัฐบาลกลาง	-11.1052
▁เธทเธญเธ	-11.1054
แง่	-11.1062
▁เธทเธญ	-11.1075
นัดพบ	-11.1082
เหรียญทอง	-11.1094
กรอก	-11.1105
เก็บเกี่ยว	-11.1117
ลื่น	-11.1121
คัดค้าน	-11.1139
อิหร่าน	-11.1139
▁1994	-11.1139
รอยนิ้วมือ	-11.1139
แกมม่า	-11.1139
เซาท์	-11.1139
พึง	-11.1139
ซึมเศร้า	-11.114
กักขัง	-11.1141
กู้ภัย	-11.1141
สโลน	-11.1142
อบรม	-11.1142
รถเมล์	-11.1151
เวิร์ธ	-11.1155
ขอบคุณพระเจ้า	-11.116
รูปถ่าย	-11.1166
ท่านแม่ทัพ	-11.1167
วิสกี้	-11.1168
ความคืบหน้า	-11.1173
ตามสบาย	-11.1218
รังเกียจ	-11.124
พฤหัส	-11.125
ห้อย	-11.1252
คิงส์	-11.1253
สะเทือน	-11.1253
ด้อม	-11.1253
จําหน่าย	-11.1253
ขีปนาวุธ	-11.1253
ฉ้อโกง	-11.1253
วาเลนไทน์	-11.1253
สอดแนม	-11.1253
โศกนาฏกรรม	-11.1253
๚	-11.1253
ตกอยู่ในอันตราย	-11.1253
ฟ็อกซ์	-11.1253
ควินน์	-11.1254
สป็อค	-11.1254
▁เมอร์ฟี่	-11.1254
แทรกแซง	-11.1254
ยกโทษให้	-11.1254
นิโกร	-11.1255
ลวด	-11.1255
ดาราศาสตร์	-11.1255
ฮึ	-11.1256
สวนสาธารณะ	-11.1256
วอเตอร์	-11.1257
▁1999	-11.126
ถุงเท้า	-11.1261
นอร่า	-11.1263
คัดเลือก	-11.1264
ลมหายใจ	-11.1265
ถูกสร้างขึ้น	-11.1265
▁1970	-11.1273
บ่งบอก	-11.1273
▁2018	-11.1274
ควอเตอร์	-11.1274
ปฏิวัติ	-11.1336
หนังโป๊	-11.1338
กี่ครั้ง	-11.1348
ขยะแขยง	-11.137
ปัสสาวะ	-11.137
ระเบียง	-11.137
สันนิษฐาน	-11.137
เถิด	-11.137
อัศจรรย์	-11.137
เจสสิก้า	-11.137
วอลเลซ	-11.137
พูดตามตรง	-11.137
ควัก	-11.137
คับ	-11.137
▁เธกเธฑเ	-11.137
แถลงการณ์	-11.137
สีเทา	-11.137
สังเกตการณ์	-11.1372
โบรดี้	-11.1374
เจาะจง	-11.1376
แซลลี่	-11.1376
ก้อนหิน	-11.1376
ฮาร์เปอร์	-11.1377
พ่อมด	-11.1381
รัช	-11.1398
ฟังให้ดี	-11.1401
โคม่า	-11.1401
ใบสั่ง	-11.1406
จัก	-11.1408
ซีซาร์	-11.1412
ญเธฒเธ	-11.1445
ยุ่งยาก	-11.1445
สมเหตุสมผล	-11.1487
จัสติน	-11.1487
พ่ะย่ะค่ะ	-11.1487
สุนทรพจน์	-11.1487
เพนกวิน	-11.1487
สะโพก	-11.1487
รถเข็น	-11.1488
▁วู้ดเซ่น	-11.1488
ชะตากรรม	-11.1489
สวีท	-11.1489
แบรดลีย์	-11.1491
โจนาธาน	-11.1491
ภาคภูมิใจ	-11.1491
เร่งด่วน	-11.1491
ชื่นชอบ	-11.1492
เบิร์ท	-11.1492
แกะรอย	-11.1493
ก่ออาชญากรรม	-11.1494
หัวใจวาย	-11.1498
สิ่งหนึ่งที่	-11.1499
สปาร์	-11.15
ภูเขาไฟ	-11.15
กองร้อย	-11.1503
ลงทะเบียน	-11.1507
อะไรก็ช่าง	-11.1513
ไปได้สวย	-11.1578
ทําไมคุณไม่	-11.1583
เพศชาย	-11.1584
กัม	-11.1599
ลวก	-11.1606
อสังหาริมทรัพย์	-11.1606
มาร์กาเร็ต	-11.1606
แฟรงคลิน	-11.1606
แอฟริกัน	-11.1606
▁เธฃเธตเธขเธ	-11.1606
กีตาร์	-11.1606
ตังค์	-11.1606
เอลเลียต	-11.1606
โซอี้	-11.1606
โฮล์ม	-11.1606
วูล์ฟ	-11.1607
เเค่	-11.1607
สตาร์ลิ่ง	-11.1609
โอไฮโอ	-11.1614
ฟินน์	-11.1614
ผนึก	-11.1616
เท็ดดี้	-11.1617
แบ่งแยก	-11.1617
เดนนิส	-11.1617
แปะ	-11.1617
สามัญ	-11.1621
▁2013	-11.1623
นิวตัน	-11.1631
เธญเน	-11.1636
เอียน	-11.1654
ชเธฒเธกเธฒเธฃเธ	-11.1727
กดปุ่ม	-11.1727
ยืนกราน	-11.1727
คาสิโน	-11.1727
หีบ	-11.1727
▁มิลลิกรัม	-11.1727
ปรากฏการณ์	-11.1728
ป๋า	-11.1729
แสงสว่าง	-11.173
ลูคัส	-11.1731
อ่อนไหว	-11.1731
แสงแดด	-11.1731
มหาเศรษฐี	-11.1731
คาร์บอน	-11.1733
ฮั่น	-11.1738
▁1988	-11.1741
เนลสัน	-11.1743
กองทัพอากาศ	-11.1747
คุมขัง	-11.1754
บอกพวกเขาว่า	-11.1764
ฝี	-11.1771
เชี่ย	-11.1788
น่าตกใจ	-11.1798
มัค	-11.1826
สงสาร	-11.1827
น่าสมเพช	-11.1849
สจ๊วต	-11.1849
เจนนิเฟอร์	-11.1849
แบคทีเรีย	-11.1849
▁1997	-11.1849
สงเคราะห์	-11.1849
หยุดยั้ง	-11.1849
อย่างแท้จริง	-11.1849
รอบคอบ	-11.1849
แคนซัส	-11.185
หยาบ	-11.185
ผ่อน	-11.1851
ห้องนั่งเล่น	-11.1852
หน่วยข่าวกรอง	-11.1852
น้ําท่วม	-11.1859
ยังไงก็เถอะ	-11.1859
ไอริช	-11.1864
เบรดี้	-11.1866
หลานสาว	-11.1868
อย่างละเอียด	-11.1875
แอรอน	-11.1897
ขุน	-11.1938
เสี้ยว	-11.1972
มหึมา	-11.1972
ราบรื่น	-11.1972
สมมุติ	-11.1972
เซบาสเตียน	-11.1972
โกลาหล	-11.1972
▁ฮัมฟรีย์	-11.1972
จารึก	-11.1972
วีดีโอ	-11.1973
ล่มสลาย	-11.1973
เป็นชิ้นๆ	-11.1976
สมาชิกสภา	-11.1977
หลุมดํา	-11.1977
ฉู	-11.1988
ต้อน	-11.1992
ทหารราบ	-11.2
ผลกําไร	-11.2018
จอร์เจีย	-11.2018
▁รอเดี๋ยว	-11.2019
▁เธฃเธญเธ	-11.2054
ทําไมเราไม่	-11.2076
ปรุง	-11.2096
กุหลาบ	-11.2097
พระผู้เป็นเจ้า	-11.2097
อื้อฉาว	-11.2097
เฟอร์นิเจอร์	-11.2097
ไอ้สารเลว	-11.2097
ยิ่งไปกว่านั้น	-11.2097
หมากรุก	-11.2097
กอบกู้	-11.2097
โปรตีน	-11.2097
นอนไม่หลับ	-11.2097
เฮ้าส์	-11.2098
▁เธงเธฅเธฒ	-11.2098
เฉิง	-11.2099
ในไม่ช้า	-11.21
แนนซี่	-11.2103
โรงละคร	-11.2105
เอลวิส	-11.2107
ขี้เมา	-11.2112
เวอร์ชั่น	-11.2115
▁ตอบด้วย	-11.2116
มืดมิด	-11.2123
ทุกสิ่งทุกอย่าง	-11.2126
ที่แย่ที่สุด	-11.2169
ฝึกซ้อม	-11.2173
▁เธญเธขเธ	-11.2197
พล่าม	-11.222
นับไม่ถ้วน	-11.2224
เขี้ยว	-11.2224
เธซเธฅเธฑเธ	-11.2224
เวโรนิก้า	-11.2224
ไดโนเสาร์	-11.2224
ภาพลักษณ์	-11.2224
ทึ่ม	-11.2224
ความเกลียดชัง	-11.2224
ฮุน	-11.2224
ลอเรไล	-11.2224
สนุกสนาน	-11.2224
กระชาก	-11.2224
สวดมนต์	-11.2224
เธฅเธตเน	-11.2225
กดขี่	-11.2226
▁เธฅเธฐเน	-11.2228
ภูมิภาค	-11.2228
ขี้แพ้	-11.2234
ให้กําลังใจ	-11.2235
คาร์ลอส	-11.2236
คุกกี้	-11.2237
ไร้ประโยชน์	-11.2237
สามมิติ	-11.2239
โดนไล่ออก	-11.2252
พบปะ	-11.2252
กองบัญชาการ	-11.2253
ได้ข่าวว่า	-11.2257
วันขอบคุณพระเจ้า	-11.227
ฦ	-11.232
เสพติด	-11.2347
ไม่ต้องกังวล	-11.235
กะทันหัน	-11.2352
บริโภค	-11.2352
โซเฟีย	-11.2352
ไอ้จ้อน	-11.2352
อาณาเขต	-11.2352
แชนด์เลอร์	-11.2352
บรอดเวย์	-11.2352
รําลึก	-11.2352
คาเฟ่	-11.2352
เอื้อม	-11.2352
อิซาเบล	-11.2353
ยิบ	-11.2353
เพิล	-11.2354
ปลอมแปลง	-11.2355
รสนิยม	-11.2355
ยินดีต้อนรับสู่	-11.2356
▁1992	-11.2363
ชัวร์	-11.2365
ดื่มกาแฟ	-11.2365
ชเธด	-11.238
โทษประหาร	-11.2425
วันครบรอบ	-11.2449
▁เธฉเธ	-11.2477
วัคซีน	-11.2482
เผด็จการ	-11.2482
แอปเปิ้ล	-11.2482
เฉลิมฉลอง	-11.2482
แชมเปญ	-11.2482
กระดูกสันหลัง	-11.2482
อะไรทํานองนั้น	-11.2482
เรือดําน้ํา	-11.2482
งานพรอม	-11.2482
นับถอยหลัง	-11.2482
เลือน	-11.2482
ตรึง	-11.2482
เอาตัวรอด	-11.2482
กระทง	-11.2482
ค้อน	-11.2483
ตะลึง	-11.2483
เกล็น	-11.2487
ตั้งครรภ์	-11.2488
รอยยิ้ม	-11.2491
พระราชา	-11.2491
ห้องครัว	-11.2536
พรสวรรค์	-11.2543
เอ็ดการ์	-11.2551
ครรภ์	-11.2608
ตําหนิ	-11.2614
ปิศาจ	-11.2614
หรูหรา	-11.2614
เจ้าบ่าว	-11.2614
เยียวยา	-11.2614
๕	-11.2614
▁1995	-11.2614
▁1944	-11.2614
เอียง	-11.2614
เห่ย	-11.2614
ช้อน	-11.2614
แฮร์ริส	-11.2614
ภฺ	-11.2615
ไปตายซะ	-11.2615
ลอดจ์	-11.2616
ตรงกันข้าม	-11.2618
กระเพาะ	-11.2618
เชลล์	-11.2619
มดลูก	-11.2623
สตอร์ม	-11.2625
วินัย	-11.2625
มนุษย์ต่างดาว	-11.2636
ผมรักคุณ	-11.2647
เกรีย	-11.2728
ต้มตุ๋น	-11.2747
ระมัดระวัง	-11.2747
ครอบงํา	-11.2747
อัฟกานิสถาน	-11.2747
สแควร์	-11.2747
ทัศน	-11.2747
เปิล	-11.2747
จะบอกอะไรให้	-11.2747
ขั้วโลก	-11.2752
ไม่อยากเชื่อเลย	-11.2752
พรมแดน	-11.2756
ซอว์	-11.2757
ล้ําค่า	-11.2759
ซาตาน	-11.2829
มัม	-11.2836
เสื้อคลุม	-11.2872
สกุล	-11.2881
ระฆัง	-11.2882
ระบบสุริยะ	-11.2882
สหประชาชาติ	-11.2882
เครื่องปฏิกรณ์	-11.2882
มิชิแกน	-11.2882
เผ่น	-11.2882
หวั่น	-11.2882
ไก่งวง	-11.2882
พาวเวอร์	-11.2882
สังเคราะห์	-11.2882
เซิร์	-11.2882
ประมุข	-11.2882
ดัลลัส	-11.2883
เลนเนิร์ด	-11.2883
แฟรงกี้	-11.2883
สูญพันธุ์	-11.2883
เทนนิส	-11.2884
ทวด	-11.2884
ภายหลัง	-11.2885
ฟิตซ์	-11.2889
ปฏิบัติหน้าที่	-11.2889
อินทรี	-11.2897
ญเธญเธ	-11.2899
เพื่อนร่วมห้อง	-11.2958
ล็อกเกอร์	-11.3008
ขยี้	-11.3019
อสังหาฯ	-11.3019
โมเลกุล	-11.3019
กรรไกร	-11.3019
ฆาตรกร	-11.3019
มิสซิสซิปปี	-11.3019
วิสัยทัศน์	-11.3019
สําเนียง	-11.3019
ผู้ว่าการรัฐ	-11.3019
เคลือบ	-11.3019
อุ๊ย	-11.3019
แมงมุม	-11.3019
ไอร์แลนด์	-11.3019
ข่าน	-11.3019
เครื่องประดับ	-11.3019
▁ฟอสเตอร์	-11.3019
หารือ	-11.302
จิตเวช	-11.302
แครอล	-11.302
กรุงโซล	-11.302
ราชสํานัก	-11.3022
มาตรการ	-11.3022
วิคกี้	-11.3025
เหี่ยว	-11.3027
อัลเบิร์ต	-11.3028
กลายมาเป็น	-11.3066
พอร์ท	-11.3088
กลไก	-11.3102
ชื่น	-11.3151
▁เธฃเธฑเ	-11.3155
ดัดแปลง	-11.3158
ผู้บังคับบัญชา	-11.3158
เฮโรอีน	-11.3158
เบ็ธ	-11.3158
โวยวาย	-11.3158
สเปียร์	-11.3158
ปกคลุม	-11.3158
ป๊อป	-11.3158
นาตาลี	-11.3158
ประมง	-11.3159
ภัยคุกคาม	-11.3159
ริเวอร์เดล	-11.316
เยื่อ	-11.3162
ปล้นธนาคาร	-11.3167
ดรีม	-11.3174
สัปดาห์ที่แล้ว	-11.3188
สูญหาย	-11.3263
สัตย์	-11.3298
กระตือรือร้น	-11.3299
ถัดมา	-11.3299
บรรทัด	-11.3299
มณฑล	-11.3299
ฤดูใบไม้ร่วง	-11.3299
สีชมพู	-11.3299
เฟรนช์	-11.3299
แขวง	-11.3299
ฮยอก	-11.3299
เมดิสัน	-11.3299
เชื่อฉันเถอะ	-11.3299
▁เธกเธทเน	-11.33
▁เธตเธงเธดเธ	-11.33
ฮิวจ์	-11.33
ล้มละลาย	-11.3301
▁ออนซ์	-11.3302
เเม่	-11.3303
ฮาเวิร์ด	-11.3305
แต่ทว่า	-11.3419
ศาส	-11.3438
ปฏิญาณ	-11.3442
สวัสดิการ	-11.3442
อุดมสมบูรณ์	-11.3442
บรรเทา	-11.3442
พาล์มเมอร์	-11.3442
ล่ํา	-11.3442
ป้อม	-11.3443
ชีววิทยา	-11.3445
อีเมล์	-11.3446
สารพัด	-11.3447
เตือนภัย	-11.3449
ฮอว์ค	-11.3457
ขั้ว	-11.3581
จงรักภักดี	-11.3587
จิ้งจอก	-11.3587
นิวออร์ลีนส์	-11.3587
พิฆาต	-11.3587
มงกุฎ	-11.3587
สาธารณชน	-11.3587
เกลียว	-11.3587
สรรเสริญ	-11.3587
อัมสเตอร์ดัม	-11.3587
เกลี้ยง	-11.3587
เหนียว	-11.3587
ฮอร์โมน	-11.3587
คาวบอย	-11.3587
ละแวก	-11.3587
ผับ	-11.3587
เอ๋ย	-11.3587
คร่าชีวิต	-11.3587
ซีรีส์	-11.3587
มนตร์	-11.3587
ก้าวร้าว	-11.359
ผ้าอ้อม	-11.359
เพื่อแลกกับ	-11.359
ปัญญาอ่อน	-11.3591
โบนัส	-11.3591
ถูกขโมยไป	-11.3595
▁เธฃเธฒเธฐเธ	-11.3678
หมื่นเหรียญ	-11.368
วุฒิ	-11.3724
ควอนตัม	-11.3734
ชํานาญ	-11.3734
ยานพาหนะ	-11.3734
โดมิเนียน	-11.3734
ไตร่ตรอง	-11.3734
สะดุด	-11.3734
อนามัย	-11.3734
อันธพาล	-11.3734
▁แกลลอน	-11.3734
ศูนย์บัญชาการ	-11.3734
▁1941	-11.3734
▁1996	-11.3734
ห้องโถง	-11.3734
สบู่	-11.3734
เดเรค	-11.3734
เรียกตัวเองว่า	-11.3736
ภูมิคุ้มกัน	-11.3736
ยิป	-11.3736
เสี่ยว	-11.3737
เห็นได้ชัด	-11.3803
โปรดิวเซอร์	-11.3883
จลาจล	-11.3883
นิติเวช	-11.3883
ยุ่งเหยิง	-11.3883
ล็อบบี้	-11.3883
เชพเพิร์ด	-11.3883
เละเทะ	-11.3883
แบตเตอรี่	-11.3883
ทันใดนั้น	-11.3883
เอสโกบาร์	-11.3883
เคนเนดี้	-11.3883
ดอยล์	-11.3883
เรี่ยน	-11.3883
ส้วม	-11.3883
อ้วนเสี้ยว	-11.3884
ด้วยเหตุนี้	-11.3884
เป็นสองเท่า	-11.3884
เชอร์ชิล	-11.3886
มาดาม	-11.3887
เสื้อยืด	-11.3909
ระลึกถึง	-11.4026
สอดคล้อง	-11.4034
ฮ่องเต้	-11.4034
โง่เง่า	-11.4034
ท่านผู้มีเกียรติ	-11.4034
สถาปนิก	-11.4034
เปราะบาง	-11.4034
ใบขับขี่	-11.4034
▁1991	-11.4034
มรณะ	-11.4034
แสวงหา	-11.4034
แจ๊ส	-11.4034
บทกวี	-11.4034
รอยัล	-11.4035
ริชชี่	-11.4035
ออสติน	-11.4036
เรียบง่าย	-11.4051
เบนเน็ต	-11.4056
แอนโทนี	-11.4173
กระหน่ํา	-11.4188
กางเขน	-11.4188
วรรณกรรม	-11.4188
แอปเปิล	-11.4188
อุทธรณ์	-11.4188
เจอรัลด์	-11.4188
ซีซั่น	-11.4188
คาเมรอน	-11.4188
เคอร์ติส	-11.4188
ทาวเวอร์	-11.4188
คลินตัน	-11.4188
ทุ่งหญ้า	-11.4189
ระดมทุน	-11.4189
โธ่เอ๊ย	-11.419
ขีดจํากัด	-11.419
สตอล	-11.432
ซ้ําแล้วซ้ําเล่า	-11.4344
ตะกร้า	-11.4344
มอนต์โกเมอรี	-11.4344
สะใภ้	-11.4344
สีม่วง	-11.4344
เบี่ยง	-11.4344
เพิกเฉย	-11.4344
อาละวาด	-11.4344
โคลอี้	-11.4344
▁1986	-11.4344
ค้างคาว	-11.4344
ตราบเท่าที่	-11.4344
ผู้สื่อข่าว	-11.4345
อริโซน่า	-11.4345
จิ๋ม	-11.4345
แฮร์ริสัน	-11.4345
ช่างมันเถอะ	-11.4345
ฟิชเชอร์	-11.4347
ล้างแค้น	-11.4348
ฟเฟิล	-11.4349
พนง	-11.435
ขเธดเธ	-11.436
เท่าที่จะทําได้	-11.4361
จิตรกร	-11.4372
▁เธซเธฅเ	-11.4439
ซานดิเอโก	-11.4503
บลอสซั่ม	-11.4503
ประชาสัมพันธ์	-11.4503
ยักยอก	-11.4503
บํานาญ	-11.4503
เร่ร่อน	-11.4503
โคโลราโด	-11.4503
ถกเถียง	-11.4503
ระยํา	-11.4503
สตีเว่น	-11.4503
กลายพันธุ์	-11.4504
วันเกิดครบ	-11.4527
นับจากนี้	-11.4608
สเปซ	-11.4658
ฺ	-11.4663
เกลี้ยกล่อม	-11.4664
ซัลลิแวน	-11.4664
ดาวน์โหลด	-11.4664
ภัยพิบัติ	-11.4664
มีชีวิตชีวา	-11.4664
สาบสูญ	-11.4664
ฮาโลวีน	-11.4664
วิคตอเรีย	-11.4664
เก่งกาจ	-11.4665
ฟลินน์	-11.4665
สสารมืด	-11.4665
เอเลนอร์	-11.4665
ไมลส์	-11.4665
บัซ	-11.4665
มาทําอะไรที่นี่	-11.4666
นิโคลัส	-11.4667
๖	-11.4725
บรรณาธิการ	-11.4828
แฮมิลตัน	-11.4828
หดหู่	-11.4828
อุปถัมภ์	-11.4828
เจฟเฟอร์สัน	-11.4828
โสโครก	-11.4828
ไฮโดรเจน	-11.4828
คาราเต้	-11.4828
หิ้ว	-11.4828
ให้คําปรึกษา	-11.4828
ปฐม	-11.4829
ย่ะ	-11.4829
บับ	-11.4829
อาหรับ	-11.4829
วุฒิสภา	-11.4829
๑	-11.746
๎	-11.835
๛	-11.8598
๒	-11.8842
๔	-12.4284
๙	-12.4719
ๅ	-12.6676
๏	-13.4449
ำ	-13.4449
